unsigned char model_tflite[] = {
  0x1c, 0x00, 0x00, 0x00, 0x54, 0x46, 0x4c, 0x33, 0x14, 0x00, 0x20, 0x00,
  0x1c, 0x00, 0x18, 0x00, 0x14, 0x00, 0x10, 0x00, 0x0c, 0x00, 0x00, 0x00,
  0x08, 0x00, 0x04, 0x00, 0x14, 0x00, 0x00, 0x00, 0x1c, 0x00, 0x00, 0x00,
  0x98, 0x00, 0x00, 0x00, 0xf0, 0x00, 0x00, 0x00, 0xa0, 0x41, 0x00, 0x00,
  0xb0, 0x41, 0x00, 0x00, 0x50, 0x47, 0x00, 0x00, 0x03, 0x00, 0x00, 0x00,
  0x01, 0x00, 0x00, 0x00, 0x10, 0x00, 0x00, 0x00, 0x00, 0x00, 0x0a, 0x00,
  0x10, 0x00, 0x0c, 0x00, 0x08, 0x00, 0x04, 0x00, 0x0a, 0x00, 0x00, 0x00,
  0x0c, 0x00, 0x00, 0x00, 0x1c, 0x00, 0x00, 0x00, 0x3c, 0x00, 0x00, 0x00,
  0x0f, 0x00, 0x00, 0x00, 0x73, 0x65, 0x72, 0x76, 0x69, 0x6e, 0x67, 0x5f,
  0x64, 0x65, 0x66, 0x61, 0x75, 0x6c, 0x74, 0x00, 0x01, 0x00, 0x00, 0x00,
  0x04, 0x00, 0x00, 0x00, 0x90, 0xff, 0xff, 0xff, 0x0a, 0x00, 0x00, 0x00,
  0x04, 0x00, 0x00, 0x00, 0x08, 0x00, 0x00, 0x00, 0x6f, 0x75, 0x74, 0x70,
  0x75, 0x74, 0x5f, 0x30, 0x00, 0x00, 0x00, 0x00, 0x01, 0x00, 0x00, 0x00,
  0x04, 0x00, 0x00, 0x00, 0x46, 0xbe, 0xff, 0xff, 0x04, 0x00, 0x00, 0x00,
  0x0c, 0x00, 0x00, 0x00, 0x6b, 0x65, 0x72, 0x61, 0x73, 0x5f, 0x74, 0x65,
  0x6e, 0x73, 0x6f, 0x72, 0x00, 0x00, 0x00, 0x00, 0x02, 0x00, 0x00, 0x00,
  0x34, 0x00, 0x00, 0x00, 0x04, 0x00, 0x00, 0x00, 0xdc, 0xff, 0xff, 0xff,
  0x0d, 0x00, 0x00, 0x00, 0x04, 0x00, 0x00, 0x00, 0x13, 0x00, 0x00, 0x00,
  0x43, 0x4f, 0x4e, 0x56, 0x45, 0x52, 0x53, 0x49, 0x4f, 0x4e, 0x5f, 0x4d,
  0x45, 0x54, 0x41, 0x44, 0x41, 0x54, 0x41, 0x00, 0x08, 0x00, 0x0c, 0x00,
  0x08, 0x00, 0x04, 0x00, 0x08, 0x00, 0x00, 0x00, 0x0c, 0x00, 0x00, 0x00,
  0x04, 0x00, 0x00, 0x00, 0x13, 0x00, 0x00, 0x00, 0x6d, 0x69, 0x6e, 0x5f,
  0x72, 0x75, 0x6e, 0x74, 0x69, 0x6d, 0x65, 0x5f, 0x76, 0x65, 0x72, 0x73,
  0x69, 0x6f, 0x6e, 0x00, 0x0e, 0x00, 0x00, 0x00, 0xac, 0x40, 0x00, 0x00,
  0xa4, 0x40, 0x00, 0x00, 0x94, 0x3e, 0x00, 0x00, 0x84, 0x1e, 0x00, 0x00,
  0x64, 0x1e, 0x00, 0x00, 0xd4, 0x1d, 0x00, 0x00, 0xc4, 0x1c, 0x00, 0x00,
  0xb4, 0x00, 0x00, 0x00, 0xac, 0x00, 0x00, 0x00, 0xa4, 0x00, 0x00, 0x00,
  0x9c, 0x00, 0x00, 0x00, 0x94, 0x00, 0x00, 0x00, 0x74, 0x00, 0x00, 0x00,
  0x04, 0x00, 0x00, 0x00, 0xfa, 0xbe, 0xff, 0xff, 0x04, 0x00, 0x00, 0x00,
  0x60, 0x00, 0x00, 0x00, 0x10, 0x00, 0x00, 0x00, 0x00, 0x00, 0x00, 0x00,
  0x08, 0x00, 0x0e, 0x00, 0x08, 0x00, 0x04, 0x00, 0x08, 0x00, 0x00, 0x00,
  0x10, 0x00, 0x00, 0x00, 0x24, 0x00, 0x00, 0x00, 0x00, 0x00, 0x06, 0x00,
  0x08, 0x00, 0x04, 0x00, 0x06, 0x00, 0x00, 0x00, 0x04, 0x00, 0x00, 0x00,
  0x00, 0x00, 0x00, 0x00, 0x0c, 0x00, 0x18, 0x00, 0x14, 0x00, 0x10, 0x00,
  0x0c, 0x00, 0x04, 0x00, 0x0c, 0x00, 0x00, 0x00, 0x5c, 0xf2, 0xf6, 0x4b,
  0xeb, 0xc0, 0x77, 0xa7, 0x02, 0x00, 0x00, 0x00, 0x02, 0x00, 0x00, 0x00,
  0x04, 0x00, 0x00, 0x00, 0x06, 0x00, 0x00, 0x00, 0x32, 0x2e, 0x31, 0x38,
  0x2e, 0x30, 0x00, 0x00, 0x66, 0xbf, 0xff, 0xff, 0x04, 0x00, 0x00, 0x00,
  0x10, 0x00, 0x00, 0x00, 0x31, 0x2e, 0x35, 0x2e, 0x30, 0x00, 0x00, 0x00,
  0x00, 0x00, 0x00, 0x00, 0x00, 0x00, 0x00, 0x00, 0x90, 0xba, 0xff, 0xff,
  0x94, 0xba, 0xff, 0xff, 0x98, 0xba, 0xff, 0xff, 0x9c, 0xba, 0xff, 0xff,
  0x92, 0xbf, 0xff, 0xff, 0x04, 0x00, 0x00, 0x00, 0x00, 0x1c, 0x00, 0x00,
  0xf0, 0x49, 0x15, 0xbe, 0x06, 0x4e, 0x6c, 0x3e, 0x25, 0xce, 0xc7, 0xbd,
  0xc3, 0xe0, 0x3c, 0x3e, 0x42, 0xad, 0x09, 0xbe, 0x6c, 0x90, 0x82, 0xbd,
  0xe4, 0x4f, 0xc6, 0x3c, 0x5b, 0xee, 0x10, 0xbe, 0x44, 0x97, 0x97, 0xbb,
  0x85, 0x66, 0x50, 0xbe, 0xd9, 0x36, 0xab, 0x3c, 0xb8, 0x9a, 0x5d, 0xbe,
  0xdb, 0x22, 0x73, 0x3e, 0x96, 0xfb, 0xd3, 0x3c, 0xed, 0xe7, 0x1c, 0xbd,
  0x0a, 0xa6, 0xb9, 0xbd, 0xf6, 0x66, 0x4e, 0xbd, 0x41, 0x75, 0xa8, 0x3d,
  0x2c, 0x89, 0x64, 0x3d, 0x95, 0x08, 0x8b, 0x3d, 0xd5, 0x78, 0x87, 0xbe,
  0xe3, 0xe3, 0x5e, 0x3e, 0x9e, 0xdd, 0x89, 0xbd, 0x42, 0x30, 0x1b, 0xbe,
  0x26, 0x73, 0x03, 0xbc, 0x58, 0x90, 0x1a, 0xbe, 0x5e, 0xda, 0x10, 0x3d,
  0x74, 0xdc, 0x67, 0xbe, 0x41, 0xaf, 0x43, 0x3e, 0xac, 0xda, 0x57, 0xbe,
  0x38, 0xff, 0x64, 0xbd, 0x01, 0x74, 0x31, 0xbd, 0x18, 0x03, 0x67, 0x3d,
  0xbc, 0x4c, 0x98, 0xbd, 0xca, 0xe0, 0x80, 0x3c, 0x1e, 0x64, 0x6f, 0x3e,
  0x98, 0x53, 0xaa, 0x3c, 0x87, 0x61, 0x82, 0xbe, 0xed, 0x1a, 0x5d, 0x3c,
  0xea, 0x63, 0x97, 0xbc, 0xb9, 0x99, 0xcd, 0xbd, 0x72, 0x35, 0x61, 0x3e,
  0x9a, 0x40, 0xdd, 0xbd, 0xa5, 0xd1, 0x11, 0x3c, 0x5d, 0xde, 0xb0, 0x3d,
  0x9f, 0x80, 0x06, 0xbe, 0xc0, 0xea, 0x0c, 0xbe, 0xba, 0xa9, 0x84, 0xbd,
  0x81, 0x37, 0xd1, 0xbd, 0x45, 0xd5, 0xd6, 0xbd, 0xfe, 0xc1, 0x6e, 0x3e,
  0xad, 0x23, 0x0b, 0x3e, 0x3b, 0x06, 0xa8, 0x3c, 0xd7, 0x89, 0x7a, 0xbd,
  0x52, 0x1a, 0x49, 0x3d, 0x64, 0x38, 0x47, 0xbe, 0xff, 0x14, 0x30, 0xbd,
  0x18, 0x2c, 0x2e, 0x3e, 0x7e, 0x52, 0x72, 0x3d, 0x5a, 0xaf, 0x37, 0x3e,
  0x84, 0x75, 0x0c, 0xbe, 0x6b, 0x1a, 0x0a, 0xbe, 0xad, 0x0f, 0xf7, 0xbd,
  0x02, 0xb4, 0xe0, 0xbd, 0xd9, 0x2e, 0xb7, 0x3d, 0x2e, 0xd5, 0x31, 0xbe,
  0x56, 0x0e, 0x2f, 0xbe, 0x96, 0x8d, 0x2f, 0x3e, 0x55, 0x7a, 0x2b, 0xbe,
  0x37, 0xed, 0x8b, 0x3b, 0x9d, 0xe9, 0xfb, 0x3d, 0xa3, 0x17, 0x55, 0xbe,
  0x31, 0x6a, 0x59, 0xbd, 0x10, 0x0a, 0xb9, 0x3d, 0x3b, 0xb0, 0x99, 0xbd,
  0x5c, 0x80, 0x3b, 0xbd, 0xef, 0x05, 0xbf, 0x3d, 0x2f, 0x36, 0x04, 0xbd,
  0xc1, 0xf4, 0x23, 0x3e, 0xb3, 0xc7, 0x16, 0xbe, 0xa1, 0xd7, 0x62, 0x3e,
  0x0a, 0x33, 0xd7, 0x3c, 0xed, 0xd3, 0x1e, 0x3d, 0xdb, 0xe8, 0xb9, 0x3c,
  0x8a, 0xbf, 0x58, 0xbd, 0xb1, 0xd6, 0xf6, 0x3c, 0x32, 0x10, 0x55, 0xbe,
  0x74, 0xcf, 0x42, 0x3e, 0x8f, 0xb9, 0xd7, 0xbd, 0x57, 0xfc, 0x27, 0x3e,
  0x6f, 0xbc, 0xa3, 0xbb, 0x0a, 0xc8, 0x5b, 0xbe, 0x9c, 0xdb, 0x63, 0x3e,
  0xc1, 0x8f, 0x0c, 0xbe, 0xac, 0x70, 0x6a, 0xbe, 0x6d, 0x7d, 0x3b, 0x3e,
  0x25, 0x9f, 0x10, 0xbe, 0xc1, 0xfe, 0x56, 0xbe, 0x7e, 0x76, 0xa0, 0xbd,
  0xe9, 0xba, 0x47, 0x3e, 0x52, 0xe7, 0x12, 0xbd, 0x9c, 0x40, 0xc2, 0xbd,
  0x0d, 0xb3, 0x1d, 0x3e, 0xbc, 0x91, 0xf2, 0x3d, 0xc6, 0x85, 0x79, 0xbe,
  0xa0, 0xf2, 0x1b, 0x3e, 0xdf, 0x42, 0xd5, 0xbd, 0x85, 0x52, 0x11, 0x3e,
  0x47, 0x21, 0xce, 0xbd, 0x1b, 0x27, 0xf1, 0x3d, 0xe7, 0xd3, 0xdd, 0xbd,
  0x72, 0x60, 0x98, 0x3d, 0x43, 0xaf, 0x2f, 0xbe, 0xee, 0xdf, 0x48, 0xbe,
  0x43, 0xb7, 0x3b, 0xbd, 0x8d, 0xe2, 0x47, 0xbe, 0xd4, 0x46, 0x3e, 0xbe,
  0xcf, 0xed, 0x49, 0x3e, 0xb4, 0xe4, 0x49, 0xbc, 0xa0, 0xa4, 0x86, 0x3e,
  0xcf, 0xd5, 0x36, 0x3e, 0x7c, 0x7c, 0x4d, 0x3d, 0x16, 0x17, 0x31, 0x3e,
  0x4c, 0xac, 0x31, 0xbe, 0xc0, 0xc1, 0x12, 0xbe, 0x85, 0xce, 0x1e, 0x3e,
  0xe2, 0x4d, 0x53, 0x3e, 0x8a, 0xf0, 0xa5, 0xbd, 0x44, 0x20, 0x32, 0x3e,
  0x29, 0xcd, 0x4e, 0xbe, 0x9f, 0x0e, 0xb1, 0xbd, 0x99, 0x37, 0x48, 0x3e,
  0x75, 0xd9, 0x12, 0x3e, 0x48, 0xdd, 0x22, 0x3e, 0x45, 0x87, 0x53, 0xbe,
  0xba, 0x85, 0xc6, 0x3d, 0x53, 0x7b, 0x6d, 0x3d, 0x95, 0x15, 0x80, 0x3d,
  0xd4, 0xa7, 0x2c, 0xbd, 0xfb, 0xc7, 0x49, 0xbd, 0x2f, 0x71, 0x63, 0x3c,
  0x41, 0x6e, 0x50, 0xbe, 0xf3, 0xc1, 0x9c, 0xbd, 0x87, 0xa2, 0x84, 0xbb,
  0xf4, 0xc8, 0x2d, 0xbe, 0x9d, 0xce, 0x96, 0x3d, 0xec, 0x46, 0x80, 0xbe,
  0xf7, 0xc5, 0x02, 0xbe, 0x97, 0x98, 0x49, 0xbe, 0x00, 0xc5, 0xe4, 0x3d,
  0x42, 0xcb, 0x63, 0xbc, 0xbe, 0x66, 0x3a, 0xbe, 0x3a, 0xde, 0x63, 0x3e,
  0x79, 0xa9, 0x3a, 0x3c, 0x26, 0x1a, 0x96, 0xbd, 0xa7, 0x88, 0xd1, 0xbd,
  0x2b, 0xa8, 0x61, 0x3e, 0x0f, 0xd8, 0x13, 0xbe, 0x32, 0x7e, 0x52, 0x3e,
  0xbf, 0xcc, 0xe9, 0xbc, 0xf8, 0x63, 0xa5, 0x3c, 0xc1, 0x09, 0xc2, 0x3d,
  0x0c, 0x1e, 0xfb, 0xbd, 0x3e, 0x49, 0x54, 0x3e, 0x93, 0x76, 0xd1, 0xbd,
  0xde, 0x70, 0x86, 0xbd, 0x5b, 0x5e, 0x6f, 0x3e, 0x82, 0x90, 0x25, 0xbe,
  0xb0, 0x64, 0xa3, 0xbd, 0x6b, 0xdb, 0xfb, 0xbd, 0xc7, 0x0f, 0x18, 0x3e,
  0x7b, 0x1b, 0xf7, 0x3d, 0x54, 0xef, 0x7c, 0x3e, 0x60, 0x99, 0x44, 0x3e,
  0xcb, 0xfe, 0x12, 0xbe, 0x52, 0x1a, 0xa4, 0x3d, 0x3c, 0x0b, 0x22, 0x3d,
  0xf2, 0x32, 0xd1, 0xbd, 0x0d, 0xc4, 0x71, 0x3e, 0x32, 0x6a, 0x41, 0xbe,
  0x84, 0x5b, 0x7a, 0xbe, 0xd9, 0x46, 0x56, 0xbe, 0xa7, 0x81, 0x67, 0xbe,
  0xef, 0xb5, 0xd1, 0x3d, 0x94, 0xe3, 0x86, 0x3c, 0xf8, 0x4e, 0x68, 0xbe,
  0x4d, 0xd4, 0x62, 0xbd, 0x7f, 0xc3, 0x39, 0xbe, 0xa2, 0x36, 0x9a, 0xbd,
  0xce, 0x67, 0x7b, 0xbe, 0x97, 0x90, 0xcd, 0x3d, 0x13, 0x9c, 0xd6, 0x3d,
  0x62, 0xb1, 0xd4, 0xbc, 0x8b, 0x74, 0x59, 0xbe, 0xac, 0xb7, 0xdb, 0x3d,
  0xa4, 0x6d, 0x43, 0x3e, 0xed, 0x7e, 0xbe, 0xbd, 0x24, 0xc9, 0x0f, 0xbe,
  0x89, 0xf0, 0x80, 0x3d, 0x4f, 0x9e, 0x82, 0x3e, 0x11, 0x5e, 0xe2, 0x3d,
  0xff, 0x8a, 0x0e, 0xbe, 0x9e, 0x2e, 0x66, 0x3e, 0x8c, 0xfe, 0xc0, 0x3d,
  0xaf, 0xf0, 0x2f, 0xbe, 0x59, 0xa0, 0x99, 0x3b, 0xf4, 0x03, 0xd7, 0x3c,
  0xa0, 0x03, 0x8d, 0xbc, 0x11, 0x57, 0x32, 0x3e, 0x2c, 0x70, 0x3a, 0x3d,
  0xc0, 0x39, 0x74, 0x3e, 0x60, 0x13, 0xbd, 0xbc, 0x8d, 0x2d, 0xd1, 0x3d,
  0xb0, 0x57, 0x3f, 0xbd, 0x60, 0xdd, 0xb8, 0x3c, 0xf2, 0x11, 0xe4, 0x3d,
  0xd6, 0x43, 0x3a, 0x3e, 0x48, 0x6f, 0x11, 0xbe, 0xe7, 0x21, 0x5e, 0xbe,
  0xd9, 0x5c, 0x7f, 0xbe, 0x1a, 0xf1, 0x85, 0xbe, 0xb6, 0x25, 0xdb, 0x3c,
  0xee, 0x8e, 0x40, 0xbe, 0x91, 0xe4, 0x55, 0xbe, 0x7f, 0xdf, 0xac, 0x3d,
  0xa4, 0x40, 0xa5, 0x3b, 0xa1, 0x37, 0x64, 0x3e, 0xd0, 0x86, 0x21, 0x38,
  0x32, 0xf5, 0x47, 0xbe, 0x53, 0xa7, 0x7b, 0xbe, 0x07, 0x34, 0x06, 0xbe,
  0xc6, 0x23, 0xbd, 0x3d, 0x1a, 0x47, 0x74, 0xbe, 0x81, 0x1e, 0x31, 0x3e,
  0xdb, 0x60, 0x04, 0xbe, 0x10, 0x46, 0x74, 0x3e, 0xf5, 0x5a, 0x69, 0x3d,
  0x89, 0xf8, 0x83, 0x3e, 0x72, 0xa5, 0x75, 0x3d, 0x6d, 0x5f, 0x49, 0xbe,
  0xdd, 0x01, 0xff, 0x3d, 0xf2, 0x1b, 0xe5, 0xbd, 0xe1, 0x5a, 0x34, 0xbe,
  0x4a, 0xba, 0x54, 0xbe, 0x06, 0x13, 0x1d, 0xbe, 0x56, 0x90, 0xb4, 0xbc,
  0x2c, 0x05, 0x1d, 0x3e, 0xd1, 0x0c, 0x81, 0x3e, 0xf1, 0xa0, 0x7d, 0xbe,
  0xea, 0xe5, 0x22, 0x3e, 0xf6, 0x36, 0x33, 0xbe, 0x70, 0x66, 0x80, 0x3e,
  0x04, 0x76, 0x59, 0x3e, 0x5f, 0x44, 0xfb, 0xbd, 0x39, 0x7c, 0x42, 0xbe,
  0x2f, 0xa6, 0x06, 0x3e, 0x56, 0x31, 0x3e, 0x3e, 0x9b, 0xbd, 0x55, 0x3d,
  0xbf, 0x8f, 0x6c, 0x3c, 0x4f, 0xdc, 0xb2, 0x3d, 0xdf, 0x54, 0x1c, 0xbe,
  0x5f, 0xdb, 0xcd, 0xbd, 0x69, 0xcf, 0x9e, 0xbd, 0x41, 0xa5, 0x42, 0x3e,
  0x83, 0x9b, 0xe7, 0x3d, 0xee, 0x97, 0xca, 0x3c, 0xc4, 0x8f, 0x20, 0x3e,
  0x21, 0x39, 0x69, 0xbe, 0x8d, 0x07, 0x2c, 0x3e, 0x95, 0x8f, 0xe3, 0xbd,
  0x50, 0xd1, 0xe0, 0xbd, 0x0f, 0xec, 0x08, 0x3e, 0x0a, 0x2d, 0x3f, 0x3e,
  0x6a, 0x4e, 0xf5, 0x3d, 0x58, 0x1e, 0x4f, 0xbe, 0x7c, 0x9c, 0x1f, 0xbe,
  0x42, 0x7c, 0x8a, 0xbd, 0x1f, 0x4b, 0x37, 0x3e, 0xa3, 0x8f, 0xea, 0xbb,
  0x00, 0xd6, 0x92, 0xbc, 0xa3, 0x81, 0xd9, 0xbc, 0xc1, 0xee, 0xd2, 0x3d,
  0x2c, 0x4f, 0x7d, 0xbc, 0x18, 0x19, 0xee, 0xbd, 0xbc, 0xc0, 0x28, 0xbe,
  0xb1, 0x42, 0x90, 0xbd, 0x28, 0x9b, 0xdb, 0x3d, 0xee, 0x5d, 0x11, 0x3d,
  0xdc, 0xe7, 0x34, 0xbe, 0xf2, 0x77, 0x0c, 0xbe, 0x67, 0x67, 0xff, 0x3c,
  0x33, 0x83, 0xe2, 0xbd, 0xea, 0x0c, 0xe0, 0xbc, 0xa3, 0x2b, 0xc4, 0xbd,
  0x61, 0xbb, 0x62, 0x3e, 0x5c, 0xb7, 0x14, 0xbd, 0x0b, 0x40, 0x7a, 0xbe,
  0x65, 0x19, 0x40, 0xbb, 0xe3, 0x0c, 0x79, 0x3d, 0x5b, 0xf0, 0xe6, 0xbd,
  0xc7, 0x8d, 0x85, 0x3e, 0x2b, 0xcf, 0x10, 0x3e, 0x54, 0xe8, 0x3c, 0x3e,
  0xd3, 0x51, 0x16, 0x3c, 0x92, 0xdb, 0x70, 0x3e, 0xc7, 0x77, 0xb7, 0x3c,
  0xd3, 0xbb, 0x15, 0xbd, 0x81, 0x95, 0x0d, 0x3e, 0x0b, 0xac, 0xf4, 0x3d,
  0xea, 0x23, 0xf1, 0xbd, 0xda, 0x2b, 0x73, 0xbe, 0xa7, 0xe5, 0x64, 0xbe,
  0x07, 0xba, 0x42, 0xbe, 0x51, 0x67, 0x29, 0x3e, 0x72, 0x14, 0x0a, 0xbd,
  0xcb, 0xf1, 0x56, 0x3d, 0xdc, 0xff, 0x0b, 0xbe, 0x47, 0x55, 0x40, 0x3e,
  0x6c, 0x61, 0x2a, 0xbe, 0xfb, 0x1c, 0xc8, 0xbd, 0x6e, 0x75, 0x4b, 0xbd,
  0xa7, 0xd3, 0xad, 0xbd, 0x35, 0x0f, 0x36, 0x3e, 0x32, 0xa0, 0x33, 0x3d,
  0xec, 0xa6, 0x38, 0xbc, 0x15, 0x4e, 0xd5, 0xbb, 0xa4, 0x0b, 0xe5, 0xbd,
  0xd6, 0x81, 0x73, 0xbe, 0xa6, 0xf9, 0xdd, 0xbd, 0x30, 0xda, 0x9b, 0x3c,
  0x0f, 0x5b, 0x66, 0x3e, 0xad, 0xff, 0x03, 0x3d, 0x30, 0xf8, 0xde, 0x3d,
  0x83, 0xe2, 0x09, 0xbd, 0xa4, 0xdd, 0x72, 0xbe, 0xc1, 0xcb, 0x5f, 0xbe,
  0x8f, 0xd2, 0xfb, 0x3d, 0x99, 0xfb, 0xfe, 0xbd, 0xdc, 0x6e, 0xc6, 0x3d,
  0x8a, 0xbe, 0x30, 0xbe, 0x36, 0xf3, 0x56, 0xbd, 0x4b, 0x08, 0x12, 0x3d,
  0x9d, 0xa4, 0x0e, 0x3e, 0x2a, 0x86, 0xf9, 0x3b, 0xc1, 0x8f, 0x62, 0x3e,
  0x8c, 0x5f, 0xba, 0x3d, 0xca, 0x50, 0x4e, 0x3e, 0x2f, 0x76, 0xee, 0x3d,
  0xfd, 0x56, 0x3a, 0x3e, 0x08, 0xb1, 0x4c, 0x3e, 0xed, 0x1b, 0x8c, 0xbd,
  0x47, 0xd8, 0x75, 0x3e, 0x0f, 0x9a, 0xc3, 0x3c, 0xf4, 0x90, 0xd5, 0x3d,
  0x40, 0xbc, 0xdd, 0xbd, 0xf4, 0xff, 0xd5, 0x3d, 0x08, 0xc1, 0x36, 0x3e,
  0xcc, 0x8f, 0x04, 0x3e, 0x4b, 0x2c, 0x1c, 0xbe, 0x47, 0xa0, 0x12, 0x3e,
  0x70, 0x6c, 0xf0, 0x3c, 0x4b, 0xad, 0x3d, 0x3e, 0xe2, 0x3a, 0x91, 0x3d,
  0x1e, 0x91, 0x0c, 0xbe, 0x20, 0x84, 0x7e, 0xbc, 0x35, 0xeb, 0xa8, 0x3c,
  0xbc, 0xc1, 0x03, 0xbe, 0xf6, 0xfc, 0xdb, 0xbd, 0xfc, 0x0f, 0x34, 0xbe,
  0x61, 0x1c, 0xe3, 0xbb, 0x98, 0xf6, 0x1f, 0xbe, 0xa7, 0xdd, 0x60, 0x3e,
  0xd7, 0x74, 0xbb, 0xbd, 0xaf, 0xeb, 0x68, 0xbe, 0xd7, 0xd0, 0xc2, 0xbd,
  0x03, 0xba, 0x74, 0x3e, 0x0f, 0xcc, 0x42, 0xbc, 0xd6, 0xca, 0xd1, 0xbd,
  0xc0, 0xa9, 0x57, 0xbe, 0xc8, 0x8f, 0x08, 0xbe, 0x78, 0xd7, 0x20, 0x3e,
  0xda, 0x20, 0x06, 0x3e, 0xc2, 0x85, 0x67, 0xbe, 0x02, 0x05, 0xf3, 0x3d,
  0xab, 0x01, 0x39, 0x3e, 0x1a, 0x64, 0x23, 0xbe, 0xfe, 0x4b, 0x59, 0xbe,
  0x65, 0xba, 0x09, 0x3e, 0xe3, 0x08, 0xaf, 0xbd, 0x3f, 0x4e, 0x38, 0x3e,
  0x21, 0x78, 0x15, 0xbe, 0xa9, 0x8d, 0x3b, 0xbe, 0x8a, 0x44, 0x68, 0xbd,
  0xa1, 0xe3, 0x4f, 0xbe, 0xe9, 0x66, 0x36, 0xbe, 0x2c, 0x32, 0x44, 0xbe,
  0x77, 0x9b, 0x05, 0x3e, 0x52, 0x36, 0xfe, 0xba, 0x34, 0xaf, 0x66, 0xbe,
  0xc5, 0x19, 0xd3, 0x3d, 0x51, 0x16, 0x0e, 0x3e, 0x67, 0x54, 0x05, 0x3e,
  0xfc, 0xfc, 0x8e, 0xbc, 0xdb, 0xe7, 0x7b, 0x3e, 0xf6, 0x9f, 0xb1, 0x3d,
  0x51, 0xff, 0x5f, 0x3e, 0x1c, 0x60, 0xeb, 0xbd, 0x05, 0xe1, 0x31, 0x3d,
  0x7a, 0x3d, 0x25, 0xbe, 0x94, 0x74, 0x04, 0xbe, 0x4e, 0xe6, 0x5c, 0xbe,
  0xa2, 0xb6, 0x40, 0x3e, 0x77, 0x1f, 0x22, 0x3e, 0x4e, 0xa8, 0xff, 0xbc,
  0x69, 0x1c, 0xe5, 0x3b, 0x38, 0xb1, 0x46, 0x3e, 0x30, 0x3f, 0xd8, 0x3d,
  0x23, 0x9e, 0x29, 0xbe, 0x90, 0x87, 0x03, 0x3e, 0x08, 0x84, 0x4a, 0xbc,
  0x46, 0xb1, 0xd9, 0xbb, 0xc0, 0x0d, 0x11, 0xbe, 0x4f, 0x89, 0xc9, 0xbd,
  0x56, 0x12, 0x0e, 0x3d, 0x48, 0xac, 0x74, 0xbe, 0xf7, 0x0f, 0x3a, 0x3e,
  0xfb, 0xc7, 0xb9, 0x3c, 0xc3, 0x5c, 0x6d, 0xbc, 0xd7, 0x4e, 0xb1, 0x3d,
  0xf6, 0x4b, 0x89, 0xbd, 0xb8, 0xd7, 0x4b, 0xbe, 0x0b, 0x00, 0x2c, 0xbe,
  0x9f, 0xb0, 0xbf, 0xbd, 0xbe, 0x13, 0x5e, 0x3e, 0xff, 0x0d, 0xf0, 0x3d,
  0x2f, 0xbb, 0x15, 0xbe, 0x41, 0x99, 0x8a, 0x3c, 0x3b, 0x4e, 0xc6, 0x3d,
  0x60, 0x95, 0xcb, 0xbd, 0x4c, 0x09, 0x27, 0x3e, 0x5a, 0x39, 0xd0, 0xba,
  0x86, 0x45, 0x1c, 0x3e, 0xcd, 0x6e, 0x03, 0x3e, 0x98, 0xc5, 0xfc, 0x3c,
  0xfa, 0x49, 0x39, 0xbc, 0xcb, 0xaf, 0x86, 0xbd, 0xe8, 0x98, 0x59, 0x3e,
  0xf8, 0x49, 0xb1, 0xbd, 0x80, 0x74, 0x89, 0xbd, 0x1b, 0x2f, 0x99, 0xbd,
  0xd2, 0x24, 0xe6, 0xbd, 0x99, 0x4c, 0x92, 0x3d, 0x23, 0x7e, 0x7f, 0xbe,
  0xe4, 0xf8, 0xab, 0xbd, 0xa7, 0x74, 0xa3, 0x3d, 0xe9, 0x73, 0x2f, 0x3e,
  0x46, 0x9e, 0x23, 0xbd, 0x12, 0xe3, 0x6d, 0xbe, 0x11, 0xf0, 0x16, 0xbc,
  0x47, 0x0b, 0x30, 0x3e, 0x75, 0x92, 0x36, 0x3e, 0xe3, 0xb6, 0x10, 0x3e,
  0x30, 0xb9, 0x18, 0xbe, 0x2b, 0x42, 0xdc, 0x3c, 0x77, 0xf5, 0x1b, 0xbd,
  0x73, 0xd4, 0x71, 0xbe, 0x9a, 0x47, 0x3b, 0x3b, 0xaa, 0xd4, 0x6c, 0x3c,
  0x57, 0x7f, 0x70, 0xbb, 0x60, 0x11, 0x0e, 0xbe, 0x91, 0x26, 0x80, 0xbd,
  0x29, 0x63, 0x46, 0xbe, 0x4a, 0x26, 0xfd, 0x3c, 0xb7, 0x21, 0x5f, 0x3d,
  0x4a, 0xe9, 0x27, 0x3e, 0x91, 0x4e, 0xeb, 0x3d, 0x7c, 0x7a, 0x7c, 0xbc,
  0xb1, 0x63, 0x6f, 0x3c, 0x32, 0xd9, 0x75, 0xbd, 0x45, 0xa3, 0x5a, 0x3e,
  0x27, 0x46, 0xb5, 0x3d, 0xdf, 0xbc, 0x27, 0xbe, 0xcc, 0xcc, 0x5a, 0xbe,
  0xee, 0xa6, 0x45, 0xbe, 0x03, 0x53, 0x17, 0x3d, 0xbf, 0x38, 0x4a, 0x3d,
  0x54, 0x1f, 0x6d, 0x3e, 0x80, 0xbd, 0x84, 0x3e, 0x66, 0x4a, 0x9e, 0x3d,
  0xf8, 0x6e, 0x3f, 0x3d, 0x35, 0x20, 0xc5, 0x3c, 0xdd, 0x21, 0x4a, 0x3e,
  0xa8, 0xf1, 0x7a, 0xbe, 0x08, 0xb8, 0x85, 0x3e, 0x71, 0xcf, 0xba, 0x3d,
  0x48, 0xd6, 0xef, 0x3d, 0x93, 0x88, 0x42, 0xbe, 0xaf, 0xde, 0x31, 0x3e,
  0xf7, 0xe4, 0x11, 0x3e, 0x87, 0x1e, 0xe7, 0x3c, 0x86, 0x78, 0x8b, 0x3d,
  0xaa, 0xc5, 0x94, 0x3a, 0xdd, 0xad, 0x6b, 0xbe, 0x06, 0x45, 0x0a, 0xbd,
  0xf3, 0xab, 0xe6, 0xbd, 0x49, 0x2a, 0x2c, 0x3e, 0xf1, 0xb3, 0x81, 0x3d,
  0x58, 0xcc, 0x5b, 0x3e, 0x9a, 0x22, 0x13, 0x3e, 0x4f, 0xc3, 0x60, 0x3e,
  0x11, 0x3d, 0x2b, 0xbe, 0x36, 0x80, 0x62, 0xbe, 0xb9, 0x88, 0xfa, 0xbd,
  0x51, 0xa2, 0x55, 0x3b, 0x20, 0x49, 0x75, 0x3c, 0x4c, 0xb4, 0x23, 0x3e,
  0xdb, 0xce, 0xb6, 0xbc, 0xb4, 0x7e, 0x10, 0x3d, 0x5e, 0xbf, 0xef, 0xbd,
  0xb8, 0x4a, 0x35, 0xbe, 0x92, 0x78, 0x2c, 0xbd, 0x1e, 0xcf, 0x4b, 0x3d,
  0x05, 0x57, 0x6c, 0xbe, 0x54, 0xef, 0x83, 0x3d, 0xc9, 0xc5, 0x05, 0xbe,
  0x9a, 0x4d, 0x92, 0x3d, 0xe5, 0x9d, 0xdc, 0xbd, 0x4e, 0xab, 0xdd, 0xbd,
  0x2f, 0x2a, 0x01, 0x3d, 0x46, 0x39, 0xe0, 0x3d, 0x66, 0x27, 0x2e, 0xbe,
  0x93, 0x82, 0xf6, 0xbc, 0xfb, 0x10, 0x0a, 0x3e, 0x67, 0x8b, 0xea, 0x3d,
  0xda, 0x81, 0x05, 0x3e, 0x6a, 0x39, 0x80, 0xbe, 0x3f, 0x58, 0xed, 0x3d,
  0x75, 0x68, 0xdb, 0xbd, 0x64, 0x46, 0x82, 0x3d, 0xc9, 0x75, 0x72, 0x3e,
  0x16, 0x69, 0x15, 0x3c, 0xae, 0x09, 0xb2, 0xbd, 0x26, 0xe7, 0x85, 0xbe,
  0x70, 0x5c, 0x5c, 0x3e, 0xe1, 0x9d, 0xbc, 0xbd, 0x4e, 0x52, 0xfc, 0x3c,
  0x48, 0xad, 0x1c, 0x3e, 0xb1, 0xe3, 0x68, 0x3e, 0x06, 0xc2, 0x72, 0x3e,
  0x43, 0x78, 0x1c, 0xbe, 0x7c, 0x1f, 0xfe, 0x3d, 0x07, 0x13, 0x97, 0xbc,
  0xd8, 0xaf, 0x49, 0xbe, 0x7e, 0x9a, 0xd6, 0xbd, 0x44, 0x68, 0x03, 0xbe,
  0xff, 0x7e, 0xa8, 0x3d, 0x96, 0xad, 0x08, 0xbe, 0x1b, 0x8d, 0x79, 0x3e,
  0xe5, 0x13, 0x1a, 0xbd, 0x5b, 0xaf, 0xd5, 0x3d, 0xb5, 0xf0, 0xfe, 0x3d,
  0xfe, 0xe7, 0x62, 0x3e, 0x4e, 0x3d, 0x7a, 0x3e, 0x56, 0x01, 0xe8, 0xbd,
  0xa7, 0xdb, 0x44, 0x3d, 0x69, 0xb2, 0xc0, 0xbd, 0x83, 0xe2, 0x3a, 0xbe,
  0xb5, 0xfa, 0x8a, 0xbd, 0x90, 0x7b, 0x51, 0xbe, 0x11, 0xdc, 0x28, 0x3e,
  0x5e, 0xc3, 0x8c, 0x3d, 0x0a, 0x28, 0x62, 0xbe, 0x66, 0x04, 0xa0, 0x3d,
  0xb6, 0xe2, 0x13, 0xbe, 0xc8, 0xef, 0x30, 0x3d, 0xe2, 0xb0, 0x90, 0xbd,
  0x24, 0xfb, 0xc9, 0x3d, 0xff, 0x77, 0xed, 0x3d, 0x24, 0xf1, 0x32, 0xbe,
  0x6a, 0x5e, 0x2b, 0xbd, 0x76, 0x9c, 0x03, 0x3e, 0x2d, 0x96, 0x45, 0x3e,
  0x2c, 0x38, 0x89, 0xbd, 0x1f, 0x04, 0xd6, 0x3d, 0xca, 0x74, 0xe1, 0xbb,
  0x6f, 0xa7, 0xd9, 0xbd, 0xec, 0x9a, 0xb5, 0xbd, 0x56, 0x9d, 0xe5, 0xbb,
  0x53, 0x11, 0xce, 0xbc, 0x18, 0x6f, 0xa7, 0xbd, 0xe4, 0xdb, 0x46, 0x3e,
  0xbc, 0x7b, 0x37, 0x3e, 0x1a, 0x70, 0xc0, 0xbd, 0xa3, 0x3b, 0x38, 0xbe,
  0x59, 0x30, 0x5a, 0xbe, 0x30, 0xf0, 0x71, 0xbe, 0x55, 0xaf, 0xcf, 0x3d,
  0xe7, 0x11, 0x2c, 0xbe, 0x60, 0x21, 0x80, 0xbe, 0xa9, 0x37, 0xa0, 0x3c,
  0x78, 0x0d, 0x73, 0x3e, 0xe0, 0x0d, 0x08, 0x3e, 0x2c, 0x8c, 0x0f, 0xbe,
  0xc0, 0xea, 0x5c, 0xbd, 0x34, 0xb7, 0x96, 0x3d, 0xf6, 0xc8, 0x08, 0xbe,
  0x1d, 0xbb, 0x6b, 0x3d, 0x02, 0x74, 0x5d, 0x3e, 0x1d, 0xe6, 0xf1, 0x3d,
  0xe8, 0x17, 0x83, 0x3e, 0x67, 0x8d, 0x5f, 0xbe, 0xdf, 0xae, 0x1b, 0xbe,
  0x13, 0xbc, 0x77, 0x3e, 0xa7, 0x44, 0x34, 0x3c, 0x49, 0x5a, 0x36, 0x3e,
  0xf6, 0x97, 0xae, 0xbc, 0x54, 0x71, 0x1d, 0x3e, 0x78, 0xe3, 0xf7, 0xbc,
  0x3a, 0x0b, 0xba, 0x3d, 0x10, 0x0d, 0x56, 0x3e, 0x74, 0x92, 0x33, 0x3e,
  0xfa, 0x18, 0xae, 0xbd, 0x8c, 0x64, 0x0c, 0xbd, 0xc3, 0xf8, 0x4a, 0x3d,
  0xe4, 0xf4, 0x5a, 0xbe, 0x4a, 0x2c, 0x37, 0x3e, 0x7e, 0x3d, 0x29, 0xbe,
  0x0c, 0xc0, 0x27, 0xbe, 0xb8, 0x1f, 0x10, 0x3e, 0x3b, 0x78, 0x07, 0xbd,
  0x95, 0x48, 0x02, 0x3e, 0xca, 0xd8, 0x1b, 0x3e, 0x32, 0x31, 0x32, 0x3e,
  0x26, 0xfb, 0xd4, 0xbc, 0xf5, 0xc9, 0x26, 0xbe, 0xdc, 0x87, 0x11, 0xbe,
  0x74, 0xc4, 0xa0, 0xbd, 0xc9, 0xd6, 0x51, 0x3e, 0x49, 0xf4, 0x4f, 0x3e,
  0xe8, 0x1a, 0x56, 0x3d, 0x29, 0x5e, 0x06, 0x3d, 0x16, 0xf3, 0x57, 0x3c,
  0x45, 0x08, 0xaa, 0xbc, 0xc6, 0xc3, 0x68, 0xbe, 0x70, 0xc1, 0x47, 0x3e,
  0x66, 0x31, 0x1a, 0x3e, 0x5e, 0x98, 0xa2, 0xbd, 0x99, 0x75, 0x48, 0xbe,
  0x61, 0x42, 0x98, 0xbd, 0xfb, 0xe2, 0x27, 0xbe, 0x30, 0xf1, 0x38, 0xbd,
  0x20, 0xab, 0x69, 0x3e, 0x2a, 0x54, 0x2a, 0xbe, 0x7d, 0x78, 0x34, 0xbe,
  0x38, 0xb6, 0x4c, 0x3e, 0xa8, 0x9a, 0x7a, 0x3e, 0xee, 0xb3, 0xde, 0xbd,
  0xe9, 0x6a, 0x2b, 0xbe, 0xfc, 0x60, 0xa1, 0xbc, 0x17, 0xcb, 0x3f, 0x3e,
  0x7a, 0x8b, 0xc0, 0xbd, 0x9a, 0x7a, 0x65, 0x3e, 0xb1, 0xda, 0xda, 0x3d,
  0xf4, 0xeb, 0x65, 0x3e, 0x3b, 0x6e, 0x6e, 0x3d, 0x92, 0xf5, 0x7a, 0xbe,
  0x4d, 0xeb, 0x01, 0xbe, 0x09, 0x30, 0xc2, 0x3d, 0x21, 0x9e, 0xf1, 0x3c,
  0x4f, 0x47, 0x5d, 0x3c, 0x8d, 0x9e, 0x65, 0xbe, 0x40, 0x58, 0x1d, 0xbe,
  0x02, 0x13, 0xb5, 0x3d, 0xfd, 0x52, 0xff, 0xbd, 0xbf, 0x00, 0x1e, 0x3e,
  0xb7, 0x1f, 0xc1, 0xbd, 0x2d, 0xdb, 0xfc, 0xbd, 0xe3, 0x61, 0x42, 0x3e,
  0xd6, 0x66, 0x19, 0xbb, 0x9c, 0x93, 0x7d, 0xbd, 0xf1, 0x6f, 0x3c, 0xbe,
  0x4a, 0xb5, 0xdf, 0x3d, 0xe6, 0x45, 0xe2, 0xbd, 0x69, 0xd5, 0x73, 0x3e,
  0xb6, 0xc6, 0x20, 0xbe, 0xc4, 0xcd, 0xf3, 0xbc, 0xdc, 0x86, 0x55, 0xbe,
  0x7c, 0xa2, 0x62, 0x3e, 0x8e, 0x98, 0x61, 0xbe, 0x75, 0x05, 0x29, 0x3d,
  0x57, 0x46, 0x82, 0x3e, 0x6f, 0x1a, 0x95, 0x3b, 0x62, 0x14, 0x74, 0xbd,
  0x37, 0xc3, 0x80, 0x3d, 0x97, 0x35, 0x3c, 0xbe, 0x18, 0xec, 0xa8, 0xbb,
  0x4e, 0x2b, 0x1f, 0xbd, 0xff, 0xa9, 0x72, 0xbe, 0xbc, 0x01, 0x80, 0xbe,
  0xe2, 0x02, 0x28, 0xbd, 0x7d, 0x7f, 0x95, 0x3d, 0x8a, 0xa5, 0x32, 0x3e,
  0x8a, 0x48, 0x57, 0xbb, 0x72, 0xdd, 0x2e, 0x3e, 0x69, 0x80, 0xe3, 0xba,
  0xdd, 0x71, 0x1b, 0x3d, 0x51, 0xd7, 0x24, 0x3e, 0x5d, 0x58, 0x77, 0xbe,
  0x39, 0xf1, 0x44, 0xbe, 0xb7, 0x81, 0x02, 0x3e, 0xe0, 0xc3, 0x56, 0x3c,
  0xbe, 0x6e, 0xb5, 0x3d, 0xa3, 0xb1, 0x32, 0x3d, 0xd0, 0xce, 0x6b, 0xbe,
  0xf0, 0x87, 0x55, 0x3e, 0x44, 0x36, 0x5e, 0x3e, 0x98, 0x5b, 0x8c, 0x3d,
  0x92, 0xc4, 0x10, 0xbe, 0x49, 0x3d, 0x95, 0x3c, 0xa0, 0xe7, 0xf8, 0x3c,
  0x91, 0x56, 0xce, 0x3d, 0x1f, 0x55, 0x29, 0xbe, 0x0a, 0xce, 0x04, 0x3e,
  0x38, 0x0e, 0x6b, 0xbd, 0xd2, 0x0e, 0x53, 0xbe, 0x9d, 0x4e, 0x13, 0xbd,
  0x4c, 0xcf, 0x02, 0xbe, 0xed, 0xff, 0x2d, 0x3e, 0x96, 0x45, 0x38, 0xbe,
  0xa5, 0x90, 0x28, 0xbd, 0xe0, 0x44, 0xca, 0xbd, 0xd7, 0x5f, 0xeb, 0x3c,
  0xf1, 0x81, 0xb2, 0xbd, 0xd6, 0x14, 0xf1, 0xbd, 0xb1, 0xcc, 0x0a, 0xbe,
  0x56, 0xa0, 0xcb, 0xbb, 0xaf, 0x37, 0xb4, 0xbd, 0x21, 0xd3, 0x37, 0x3d,
  0x5d, 0x7b, 0xf2, 0xbd, 0xbe, 0x6e, 0xec, 0xbc, 0xc8, 0xb8, 0x18, 0x3d,
  0xd4, 0x29, 0x65, 0xbe, 0x94, 0xfc, 0x52, 0x3e, 0x8d, 0x04, 0x67, 0xbc,
  0x21, 0x37, 0xea, 0x3d, 0xa1, 0xc0, 0x11, 0x3e, 0x07, 0x0f, 0xab, 0x3c,
  0x6e, 0x08, 0xfd, 0xbd, 0xa1, 0x86, 0x00, 0x3d, 0x78, 0xd2, 0x64, 0xbc,
  0x65, 0x34, 0x03, 0x3d, 0x78, 0x5d, 0x29, 0x3c, 0x2c, 0xaa, 0x7b, 0x3e,
  0xfd, 0xbf, 0x51, 0x3e, 0x03, 0x52, 0x57, 0x3e, 0xe2, 0xc1, 0x06, 0xbe,
  0xc7, 0x25, 0x10, 0xbe, 0x1b, 0x38, 0xf9, 0x3d, 0xed, 0xde, 0x94, 0x3d,
  0x5d, 0xcd, 0x5d, 0x3e, 0x2b, 0xe8, 0x4c, 0xbe, 0xe6, 0x0c, 0x83, 0xbc,
  0xd2, 0x35, 0x5a, 0xbd, 0xf5, 0xb1, 0x39, 0x3e, 0x53, 0xf7, 0x0f, 0xbe,
  0x61, 0xd6, 0xe1, 0x3d, 0xd0, 0x66, 0x88, 0xbd, 0x55, 0xb0, 0x86, 0x3e,
  0x38, 0xc6, 0x4e, 0x3e, 0xa0, 0x3c, 0x81, 0xbe, 0xb0, 0x87, 0x57, 0x3e,
  0xbe, 0xff, 0xfd, 0xbd, 0x07, 0x7a, 0xd7, 0xbc, 0xa8, 0x8a, 0x9e, 0xb9,
  0x1e, 0x83, 0x99, 0xbd, 0xcc, 0xbd, 0x87, 0xbd, 0xdc, 0x91, 0x23, 0x3d,
  0x52, 0xf8, 0x01, 0xbe, 0x04, 0x95, 0x14, 0xbe, 0x0b, 0xba, 0x09, 0xbe,
  0x89, 0x53, 0x70, 0x3e, 0x97, 0xcc, 0x97, 0x3d, 0x9b, 0x82, 0x6f, 0xbe,
  0xe8, 0xf8, 0xad, 0x3d, 0x2d, 0x01, 0xd8, 0xbc, 0x0b, 0x32, 0xa9, 0x3c,
  0xd0, 0x5b, 0x04, 0xbe, 0x70, 0x38, 0x9c, 0xbd, 0xb2, 0x1b, 0x03, 0x3e,
  0x1c, 0x6d, 0xac, 0xbd, 0x52, 0xd7, 0x65, 0x3e, 0x62, 0xf3, 0x91, 0xbd,
  0x1f, 0x98, 0x0f, 0x3e, 0xc4, 0xa5, 0x59, 0x3e, 0x0b, 0x4e, 0x9b, 0x3b,
  0x77, 0x99, 0x5b, 0xbe, 0x49, 0xa1, 0x2b, 0xbe, 0x8f, 0x72, 0x29, 0x3e,
  0x6b, 0x92, 0x94, 0x3d, 0x2d, 0x79, 0x01, 0x3d, 0x0e, 0xaa, 0x81, 0x3d,
  0xca, 0x02, 0x06, 0xbe, 0x10, 0x84, 0x70, 0xbe, 0x5d, 0x36, 0x09, 0xbe,
  0xd6, 0xa9, 0x24, 0xbd, 0x01, 0xc6, 0xa4, 0x3c, 0xef, 0x02, 0x7f, 0xbe,
  0xc8, 0xb8, 0x6e, 0x3e, 0xf2, 0x5e, 0x0c, 0x3d, 0xd7, 0x58, 0xa8, 0x3d,
  0x59, 0x31, 0x29, 0xbe, 0xcf, 0x6a, 0xf4, 0xbd, 0xd0, 0x67, 0x83, 0x3d,
  0xeb, 0x46, 0xb7, 0xbc, 0xd8, 0x2d, 0x58, 0x3e, 0x07, 0xde, 0x80, 0x3e,
  0xc8, 0x28, 0x6d, 0x3c, 0xf7, 0x01, 0x19, 0x3e, 0xbb, 0x51, 0xb9, 0x3c,
  0xa6, 0x61, 0xe4, 0xbd, 0x19, 0x4f, 0x21, 0xbe, 0xb2, 0x4f, 0x56, 0xbd,
  0x56, 0x44, 0x34, 0x3c, 0x2c, 0x6c, 0x16, 0x3e, 0xc6, 0x8a, 0xa3, 0xbd,
  0x88, 0xe4, 0x8e, 0xbd, 0xc5, 0x39, 0x0f, 0x3e, 0x03, 0xdc, 0x6c, 0x3e,
  0xe7, 0xff, 0x0d, 0xbe, 0x0d, 0xa2, 0x1d, 0xbe, 0x2a, 0xe4, 0xc8, 0xbd,
  0x73, 0xda, 0x84, 0x3d, 0x78, 0xf0, 0x2d, 0xbe, 0x64, 0xa9, 0xda, 0xbd,
  0xc5, 0x9f, 0x2d, 0x3d, 0x2d, 0xe9, 0x0e, 0xbe, 0x2f, 0xd4, 0xf1, 0x3c,
  0x03, 0x32, 0x1a, 0xbe, 0xd4, 0x78, 0x34, 0xbc, 0xc0, 0x94, 0x29, 0xbe,
  0xc5, 0x98, 0x5c, 0x3e, 0xbf, 0xb0, 0xec, 0xbc, 0xae, 0x0a, 0x43, 0xbe,
  0x6c, 0x93, 0x03, 0xbe, 0xfd, 0x4e, 0x30, 0xbe, 0x70, 0x3b, 0x79, 0xbe,
  0xdd, 0xa8, 0x8d, 0xbd, 0xf5, 0xc2, 0x25, 0x3e, 0x41, 0x8d, 0xd5, 0x3d,
  0x3e, 0xac, 0x81, 0xbe, 0xbc, 0xaf, 0x06, 0xbe, 0x98, 0x9a, 0x74, 0x3b,
  0x27, 0x16, 0x23, 0xbe, 0x14, 0xfb, 0x38, 0xbd, 0x57, 0x11, 0xcc, 0xbc,
  0x99, 0x79, 0x7e, 0x3e, 0x27, 0xf6, 0xd2, 0x3d, 0xbe, 0x2f, 0x5a, 0xbd,
  0xb2, 0xb4, 0xa0, 0xbc, 0xae, 0x92, 0x18, 0xbe, 0x15, 0xfc, 0x6e, 0x3e,
  0x0d, 0x4d, 0x65, 0x3e, 0xad, 0x4a, 0xdb, 0xbc, 0xe9, 0xe2, 0xf3, 0xbd,
  0xd4, 0xc1, 0x4e, 0xbe, 0x26, 0xe0, 0x99, 0xbc, 0xdd, 0x5c, 0x85, 0xbd,
  0x3d, 0x50, 0x6b, 0xbe, 0xcc, 0xda, 0xf7, 0xbd, 0x49, 0xb9, 0xf1, 0xbd,
  0x0f, 0x05, 0x4f, 0xbd, 0x0b, 0xc3, 0x75, 0xbe, 0xe0, 0xc6, 0xac, 0xbd,
  0xdc, 0xc1, 0xe0, 0xbd, 0xd3, 0x4d, 0x64, 0x3e, 0xed, 0xa7, 0x6a, 0x3e,
  0xc7, 0xc1, 0x39, 0x3c, 0xb2, 0xfb, 0x2f, 0x3e, 0x1d, 0x49, 0x06, 0xbe,
  0x7f, 0xa0, 0x2b, 0x3c, 0x56, 0x59, 0x26, 0xbe, 0x65, 0x57, 0x22, 0xbe,
  0x40, 0x7f, 0x4d, 0xbe, 0x0f, 0x76, 0x30, 0x3d, 0x8c, 0xa1, 0x49, 0xbd,
  0xd4, 0x3b, 0x23, 0xbe, 0xaf, 0xf5, 0xc9, 0x3d, 0x3c, 0x77, 0xcd, 0x3d,
  0xea, 0xd2, 0x2d, 0xbe, 0xe9, 0x12, 0x3c, 0xbd, 0x30, 0x75, 0x65, 0xbc,
  0xf0, 0x44, 0xba, 0xbc, 0x2d, 0x8a, 0x84, 0x3e, 0x85, 0x8f, 0xec, 0xbd,
  0x8e, 0xc1, 0xda, 0xbd, 0x4a, 0xe1, 0x6e, 0xbe, 0xfb, 0x34, 0x74, 0x3e,
  0x53, 0x52, 0x54, 0xbe, 0xed, 0x42, 0x99, 0xbc, 0xde, 0xfe, 0x01, 0xbe,
  0x72, 0xd0, 0x40, 0xbe, 0xe5, 0x8b, 0x6c, 0xbe, 0x69, 0x58, 0x35, 0x3d,
  0x96, 0x77, 0x26, 0x3e, 0x4a, 0x20, 0x47, 0xbd, 0xbb, 0x6a, 0x6d, 0x3e,
  0x8e, 0x93, 0xc3, 0x3c, 0xf0, 0xb6, 0x18, 0xbe, 0xe4, 0xf0, 0xbe, 0x3c,
  0xea, 0x80, 0x20, 0xbd, 0x79, 0x30, 0x62, 0x3e, 0xa4, 0xdb, 0x6e, 0x3d,
  0x77, 0xec, 0x5a, 0xbd, 0xa1, 0x50, 0xc7, 0xbd, 0xfa, 0xcd, 0xf2, 0xbd,
  0xce, 0x30, 0xe2, 0x3d, 0xb0, 0x51, 0x34, 0xbe, 0x01, 0x9b, 0xb4, 0x3d,
  0x1a, 0x38, 0x8a, 0x3d, 0x3e, 0x8c, 0x80, 0xbe, 0xa4, 0x48, 0xe1, 0x3d,
  0x58, 0x5a, 0x59, 0x3d, 0x14, 0x9a, 0x5b, 0xbe, 0x1f, 0xd4, 0x0d, 0xbe,
  0x17, 0xd9, 0x2c, 0xbe, 0x89, 0xd2, 0x15, 0xbd, 0x43, 0xbd, 0x68, 0x3e,
  0x61, 0xd5, 0x75, 0xbe, 0x6e, 0x81, 0xe5, 0xbd, 0x23, 0x56, 0x3f, 0x3e,
  0x02, 0x5f, 0x29, 0x3e, 0x9c, 0x34, 0x58, 0xbe, 0x0f, 0x13, 0x01, 0xbe,
  0x89, 0x47, 0x4a, 0xbe, 0x3d, 0x17, 0xb3, 0xbd, 0x28, 0x5e, 0x09, 0x3e,
  0xea, 0xa7, 0x5f, 0xbd, 0xfa, 0xa8, 0x3d, 0xbe, 0x88, 0x16, 0x09, 0xbd,
  0x30, 0x81, 0x48, 0x3e, 0xc4, 0x77, 0xd4, 0xbc, 0x7c, 0x58, 0x3e, 0xbe,
  0x5b, 0x8f, 0xf2, 0xbc, 0x4d, 0x31, 0xe7, 0x3c, 0x04, 0x13, 0x65, 0x3e,
  0x18, 0xc0, 0xc3, 0xbc, 0x15, 0x08, 0x13, 0x3e, 0x4c, 0x45, 0x9d, 0x3d,
  0x09, 0x11, 0x76, 0xbe, 0x1f, 0x61, 0x17, 0xbe, 0xe9, 0x00, 0x28, 0xbe,
  0x83, 0x73, 0x93, 0xbd, 0xce, 0x0c, 0x75, 0x3e, 0x8c, 0x6c, 0x8b, 0xbd,
  0x7c, 0xfe, 0xba, 0x3d, 0x64, 0xfa, 0xdc, 0x3d, 0x83, 0x4a, 0x46, 0x3e,
  0x07, 0x8e, 0x50, 0xbe, 0x14, 0x10, 0x67, 0x3d, 0x4d, 0x13, 0x13, 0xbe,
  0x31, 0x86, 0xdd, 0x3d, 0x83, 0x7e, 0x5c, 0xbe, 0x10, 0x29, 0x23, 0x3b,
  0xf8, 0xd5, 0x01, 0x3d, 0x76, 0x4e, 0x5a, 0x3e, 0xd7, 0x54, 0x34, 0x3e,
  0x49, 0x83, 0x35, 0xbe, 0x30, 0xb3, 0x2f, 0xbe, 0x6e, 0x85, 0xb4, 0xbd,
  0x70, 0x6f, 0x31, 0xbd, 0x60, 0x34, 0x75, 0x3e, 0xca, 0x4d, 0x2a, 0xbd,
  0xd0, 0xb4, 0x7e, 0x3e, 0x30, 0xba, 0x46, 0xbe, 0x02, 0x2d, 0x6c, 0x3e,
  0x46, 0xf9, 0x35, 0x3e, 0xf8, 0x44, 0xe4, 0xbd, 0xc9, 0x26, 0x47, 0x3e,
  0x14, 0xe1, 0xee, 0xbd, 0x22, 0xfb, 0xa0, 0x3d, 0x3f, 0x9c, 0x86, 0x3d,
  0xf6, 0x39, 0x48, 0x3d, 0x3a, 0x6f, 0x13, 0x3e, 0x3d, 0x95, 0x38, 0xbe,
  0xde, 0xbe, 0x87, 0xbe, 0x4b, 0x0d, 0xa7, 0xbd, 0xe3, 0x13, 0x32, 0x3e,
  0x09, 0x89, 0x8a, 0x3d, 0x7a, 0x65, 0xc4, 0x3d, 0xa8, 0x6f, 0x35, 0xbe,
  0x3b, 0x9d, 0x3f, 0x3e, 0x6e, 0x01, 0x90, 0x3d, 0x55, 0xca, 0x72, 0xbe,
  0x12, 0x42, 0x6d, 0xbe, 0x1c, 0xc8, 0x39, 0x3e, 0xf9, 0x39, 0x43, 0x3e,
  0x1a, 0x46, 0x76, 0x3e, 0x5d, 0x85, 0x8a, 0x3c, 0xc0, 0xac, 0x0c, 0x3e,
  0x48, 0xad, 0x4f, 0xbe, 0x49, 0xaa, 0x1b, 0x3b, 0xaf, 0x6f, 0xb0, 0xbd,
  0x3b, 0x85, 0x35, 0x3d, 0x73, 0x47, 0x50, 0xbe, 0xa1, 0xe6, 0x41, 0x3c,
  0xc6, 0x82, 0x5c, 0xbe, 0x9e, 0x15, 0x38, 0x3e, 0x79, 0x2d, 0x3e, 0x3e,
  0x9c, 0x32, 0x1f, 0xbe, 0x50, 0xf5, 0x25, 0x3e, 0x62, 0xf2, 0x4b, 0x3e,
  0x6f, 0x35, 0x36, 0xbe, 0x4a, 0xd5, 0x26, 0xbe, 0x37, 0x67, 0x2e, 0xbd,
  0xf9, 0x9b, 0x4f, 0x3e, 0x0c, 0xa6, 0x5f, 0x3e, 0xc5, 0x34, 0x72, 0xbe,
  0x79, 0x50, 0x4e, 0xbc, 0x90, 0x1a, 0x36, 0x3b, 0x1c, 0xa8, 0x1f, 0xbe,
  0xc5, 0xc6, 0x2c, 0xbe, 0xe3, 0xc6, 0x27, 0xbe, 0xad, 0x27, 0x7b, 0x3c,
  0xa8, 0x1c, 0x4b, 0xbe, 0x50, 0x16, 0x4a, 0xbe, 0x24, 0x34, 0x91, 0xbd,
  0xdc, 0xc2, 0xad, 0xbd, 0x6b, 0x49, 0xa5, 0x3c, 0x87, 0xb8, 0x33, 0xba,
  0xb8, 0x42, 0xf4, 0xbd, 0x10, 0x2b, 0x0d, 0xbe, 0x58, 0x46, 0x3e, 0xbe,
  0x01, 0xea, 0xd4, 0x3d, 0xe7, 0x40, 0x09, 0x3e, 0x7e, 0x0d, 0x45, 0x3e,
  0xbd, 0x60, 0xa8, 0xbc, 0x0c, 0x2a, 0x5d, 0xbe, 0x7e, 0x51, 0xe8, 0x3a,
  0x14, 0xd2, 0x1f, 0xbe, 0x3d, 0xa4, 0xcb, 0x3d, 0xde, 0x31, 0x6e, 0x3e,
  0xb2, 0xa9, 0x44, 0x3d, 0xd8, 0x12, 0x40, 0x3e, 0xef, 0x60, 0x31, 0x3e,
  0xb6, 0xef, 0x2d, 0xbe, 0xea, 0x31, 0x5e, 0x3e, 0x34, 0x11, 0x02, 0xbe,
  0x55, 0x4f, 0x98, 0x3d, 0x8e, 0xbb, 0x50, 0x3e, 0x53, 0x3c, 0x66, 0x3c,
  0xd0, 0x80, 0x30, 0x3e, 0xb4, 0xcf, 0xb3, 0xbc, 0x91, 0xf4, 0x63, 0x3e,
  0xdb, 0x8e, 0x53, 0x3e, 0x96, 0xbc, 0xd9, 0x3d, 0xda, 0xc6, 0x9d, 0xbd,
  0x50, 0xc4, 0xe9, 0xbd, 0xa5, 0x2c, 0x13, 0x3e, 0x07, 0x84, 0x5d, 0x3e,
  0x1c, 0xab, 0x66, 0x3e, 0xa5, 0xaa, 0x2e, 0xbe, 0xd5, 0x44, 0x21, 0xbe,
  0x41, 0xeb, 0xec, 0xbc, 0x88, 0x06, 0x22, 0xbd, 0x77, 0xd6, 0x6d, 0xbe,
  0xa2, 0x4e, 0x29, 0xbe, 0xaa, 0x85, 0x55, 0xbd, 0x88, 0xd3, 0x68, 0x3e,
  0x2d, 0x20, 0x2f, 0x3e, 0x66, 0x78, 0xfa, 0x3d, 0x3a, 0xa6, 0x73, 0xbe,
  0xe2, 0x27, 0xbd, 0xbd, 0xfe, 0xe6, 0x18, 0x3e, 0x52, 0x57, 0x48, 0x3e,
  0xb8, 0x56, 0xce, 0x3b, 0xf6, 0x04, 0x62, 0xbb, 0xc5, 0x8f, 0xe2, 0x3d,
  0xc4, 0x26, 0x68, 0xbe, 0x0d, 0x4c, 0x8d, 0x3d, 0x4a, 0x0e, 0x0b, 0x3e,
  0x37, 0xdb, 0x9d, 0xbd, 0x19, 0x10, 0x15, 0x3d, 0xcf, 0xb4, 0x42, 0x3e,
  0xfb, 0x5b, 0x1d, 0xbe, 0x03, 0x75, 0x19, 0xbe, 0x32, 0x26, 0xf9, 0x3d,
  0xfd, 0x67, 0xb0, 0x3d, 0x6a, 0x97, 0x23, 0xbe, 0x45, 0x36, 0x05, 0x3d,
  0xc9, 0xe5, 0x18, 0xbe, 0x3c, 0x2d, 0x6b, 0xbe, 0x36, 0xdd, 0x20, 0x3e,
  0x2b, 0x83, 0xc4, 0xbd, 0xe9, 0x2e, 0xae, 0xbd, 0xd2, 0xca, 0x24, 0xbe,
  0x7b, 0x4b, 0x47, 0x3e, 0x87, 0xbe, 0x96, 0x3d, 0x28, 0x48, 0x60, 0xbd,
  0x66, 0xa4, 0x4d, 0x3e, 0x10, 0x94, 0x22, 0x3e, 0x58, 0xda, 0xed, 0x3d,
  0xbb, 0x09, 0x88, 0xbd, 0xfa, 0xf3, 0x27, 0x3d, 0x4b, 0x0a, 0x4a, 0xbe,
  0x00, 0x83, 0x83, 0x3d, 0x3f, 0xc3, 0x3e, 0xbe, 0x76, 0x4f, 0xc5, 0x3d,
  0x72, 0xb8, 0x03, 0xbd, 0xcc, 0x41, 0xd6, 0x3d, 0xd8, 0x2d, 0x7a, 0x3e,
  0x57, 0xdf, 0xc3, 0x3d, 0x23, 0x1e, 0xbc, 0xbc, 0x50, 0x30, 0x43, 0xbe,
  0xb4, 0x1e, 0xe1, 0xbd, 0x5c, 0x39, 0xda, 0xbd, 0xde, 0xb5, 0xb5, 0x3c,
  0x2c, 0xbc, 0x1f, 0xbe, 0x7e, 0x32, 0x6a, 0x3d, 0xa3, 0xaa, 0x3b, 0xbe,
  0x96, 0xee, 0xd6, 0x3d, 0x95, 0xc0, 0x1a, 0xbe, 0x60, 0x64, 0xfa, 0xbd,
  0xee, 0xb6, 0x42, 0x3e, 0x40, 0x76, 0x61, 0xbe, 0xac, 0x20, 0x10, 0x3e,
  0x24, 0x7a, 0x63, 0xbe, 0xd7, 0xc6, 0x60, 0x3d, 0x2d, 0x30, 0x59, 0xbe,
  0xee, 0x01, 0x50, 0xbd, 0xde, 0xe2, 0x1d, 0x3e, 0x4b, 0x15, 0x4b, 0xbe,
  0x5b, 0x3e, 0x09, 0x3e, 0x07, 0x7d, 0x6a, 0xbe, 0xac, 0x2d, 0xc2, 0xbd,
  0xdb, 0x01, 0x6e, 0x3e, 0x9b, 0x5d, 0x25, 0xbd, 0x06, 0xe2, 0x26, 0x3e,
  0x78, 0x36, 0xf7, 0xbd, 0x18, 0xea, 0x69, 0x3e, 0xff, 0x0a, 0x50, 0xbe,
  0x35, 0x07, 0x51, 0x3e, 0xd4, 0x66, 0x55, 0xbd, 0xdd, 0xc2, 0xa2, 0xbd,
  0x76, 0xfe, 0x5a, 0x3e, 0xf8, 0xc1, 0x2c, 0xbe, 0x6b, 0x15, 0x64, 0xbe,
  0xa2, 0x48, 0x71, 0xbe, 0x42, 0x9e, 0xb5, 0xbd, 0xbc, 0x15, 0xf3, 0x3d,
  0xc6, 0x3b, 0x33, 0x3d, 0xbe, 0x77, 0x10, 0xbe, 0x26, 0x92, 0x5b, 0xbe,
  0xcb, 0xd3, 0x95, 0xbd, 0x3f, 0x26, 0x25, 0xbd, 0x05, 0x35, 0x5b, 0xbe,
  0x9d, 0x71, 0x81, 0xbe, 0x5f, 0xa0, 0x65, 0xbe, 0x7a, 0x11, 0xb2, 0xbd,
  0x8e, 0xe1, 0xd2, 0xbc, 0xa4, 0x92, 0x59, 0x3e, 0xf0, 0x5e, 0x60, 0x3e,
  0xdd, 0x04, 0x40, 0x3e, 0x06, 0x0a, 0x6a, 0xbe, 0x59, 0xd0, 0x52, 0x3d,
  0xa2, 0xf4, 0x7c, 0x3e, 0x3b, 0x56, 0x40, 0xbe, 0x37, 0x5f, 0x63, 0x3e,
  0xfc, 0x2b, 0x7f, 0xbd, 0x2b, 0x48, 0x55, 0x3e, 0xd8, 0xcf, 0xde, 0xbd,
  0xda, 0xd2, 0x24, 0xbe, 0x13, 0xc0, 0xba, 0x3c, 0x4b, 0xe8, 0xc2, 0xbd,
  0x6f, 0xe7, 0x60, 0x3e, 0x04, 0x8b, 0x81, 0xbe, 0xf5, 0x79, 0x21, 0x3e,
  0x9c, 0x37, 0x5c, 0xbc, 0xa2, 0xb8, 0x1f, 0x3e, 0x09, 0xde, 0x96, 0x3c,
  0x27, 0xd7, 0x33, 0xbd, 0x6d, 0x96, 0x29, 0xbe, 0x8c, 0x6d, 0x36, 0x3e,
  0x94, 0x71, 0xc1, 0x3d, 0x65, 0x02, 0x8d, 0x3b, 0x29, 0xa8, 0x09, 0x3e,
  0x8e, 0x70, 0x6a, 0x3e, 0x5a, 0xba, 0x50, 0x3e, 0xb5, 0xd0, 0x19, 0x3d,
  0x92, 0x9a, 0x64, 0x3d, 0x73, 0x98, 0x2b, 0x3d, 0x02, 0x53, 0x58, 0x3e,
  0xe8, 0x7d, 0x3a, 0x3e, 0x87, 0xea, 0xc4, 0xbd, 0xe4, 0x40, 0x73, 0xbe,
  0x96, 0xab, 0x82, 0x3e, 0x46, 0x93, 0x40, 0x3e, 0xf2, 0xac, 0x89, 0xbd,
  0x89, 0x2a, 0x3c, 0x3e, 0x4c, 0xfc, 0x94, 0x3d, 0xc1, 0xa9, 0x32, 0x3c,
  0xdb, 0x7f, 0x4d, 0x3e, 0x5f, 0x33, 0x10, 0x3e, 0x1b, 0x61, 0x2d, 0xbe,
  0x21, 0x52, 0xb8, 0xbd, 0x58, 0xef, 0x69, 0x3e, 0x18, 0x7b, 0x45, 0x3e,
  0xfe, 0xa7, 0x47, 0x3c, 0x30, 0xf3, 0x7a, 0x3e, 0x4d, 0xe9, 0x1b, 0x3d,
  0x7b, 0x3d, 0x17, 0x3e, 0xaf, 0x91, 0x78, 0xbe, 0x6c, 0xc1, 0xd4, 0x3c,
  0xa5, 0xde, 0x9a, 0xbd, 0x14, 0x13, 0xf3, 0xbd, 0x6a, 0xd1, 0x27, 0x3c,
  0xd9, 0x48, 0x7d, 0xbe, 0x24, 0xd2, 0x41, 0xbe, 0xcb, 0x3d, 0xf0, 0xbd,
  0xd1, 0x9e, 0x96, 0xbd, 0xde, 0x0a, 0x36, 0x3e, 0xc7, 0xcb, 0x5f, 0x3e,
  0xb2, 0xe7, 0xfc, 0x3d, 0x86, 0x4f, 0x6e, 0x3e, 0x02, 0x06, 0xf9, 0x3d,
  0x08, 0x67, 0x15, 0x3e, 0x40, 0x08, 0x36, 0x3d, 0x35, 0xf0, 0x48, 0x3e,
  0x4b, 0xbe, 0xcd, 0xbd, 0xda, 0x3f, 0x4a, 0x3c, 0x5d, 0x09, 0x2c, 0x3d,
  0x40, 0x97, 0xb1, 0xbd, 0x55, 0x61, 0xb5, 0x3d, 0x3b, 0x24, 0x09, 0x3e,
  0x21, 0xc7, 0x41, 0xbe, 0x74, 0x56, 0xb7, 0x3d, 0x28, 0xb6, 0x69, 0x3e,
  0x68, 0x0a, 0x57, 0xbd, 0x1f, 0xbe, 0xd4, 0x3d, 0xdc, 0xe8, 0x1b, 0x3e,
  0x5b, 0x2a, 0x01, 0xbe, 0xe4, 0x27, 0xff, 0xbd, 0x50, 0xea, 0x66, 0x3e,
  0x36, 0x1f, 0x82, 0x3e, 0xbd, 0xe5, 0x29, 0x3e, 0xbc, 0xba, 0x92, 0xbd,
  0xb6, 0xd7, 0x12, 0x3e, 0x89, 0x4a, 0x37, 0x3e, 0x80, 0x23, 0x28, 0xbe,
  0xa6, 0x2c, 0xac, 0x3d, 0xd3, 0xe2, 0x7d, 0x3e, 0xa7, 0xc4, 0x0f, 0x3e,
  0xc4, 0x08, 0x68, 0x3e, 0x97, 0x03, 0xc4, 0xbc, 0x6c, 0xa9, 0x87, 0x3d,
  0xcd, 0x59, 0xb3, 0x3b, 0x6a, 0xa6, 0x73, 0xbd, 0xbe, 0x79, 0x45, 0xbd,
  0x96, 0xad, 0x14, 0xbe, 0xc0, 0x9a, 0x0a, 0xbe, 0xe9, 0xc2, 0x5e, 0xbe,
  0x8c, 0x77, 0x15, 0x3e, 0xb2, 0x24, 0x9d, 0x3b, 0xd2, 0x38, 0x93, 0xbd,
  0x77, 0x84, 0x37, 0x3e, 0xf6, 0x45, 0x32, 0x3e, 0x15, 0x7f, 0x84, 0x3e,
  0xb4, 0x57, 0x75, 0xbd, 0x47, 0x62, 0x15, 0x3e, 0x3a, 0x17, 0xce, 0x3c,
  0xc7, 0xf3, 0x67, 0x3b, 0xdc, 0xcd, 0xbd, 0xbd, 0x79, 0xd9, 0x8b, 0xbd,
  0x92, 0x46, 0x66, 0x3e, 0x1f, 0x30, 0x40, 0x3d, 0x8e, 0x78, 0xdb, 0x3d,
  0x5e, 0x1f, 0x44, 0x3d, 0x25, 0xf0, 0x03, 0xbe, 0x0d, 0xbf, 0x2d, 0x3e,
  0xf1, 0xf4, 0x9a, 0xbd, 0x8e, 0xed, 0xb5, 0xbd, 0xca, 0x0c, 0xe0, 0x3d,
  0x63, 0xbd, 0x45, 0x3e, 0x53, 0x17, 0x82, 0xbe, 0xd4, 0xb0, 0x68, 0x3d,
  0x5d, 0x7c, 0xda, 0xbb, 0x87, 0x5a, 0x68, 0x3e, 0x5b, 0x25, 0x39, 0x3e,
  0xec, 0xde, 0x70, 0x3d, 0x49, 0x74, 0xda, 0xbd, 0x04, 0xa5, 0xac, 0xbd,
  0x08, 0x43, 0x2b, 0xbe, 0xe7, 0xee, 0xfd, 0x3d, 0x1c, 0x7b, 0xee, 0xbc,
  0x07, 0xf2, 0x22, 0xbe, 0xfb, 0xc9, 0x79, 0x3d, 0x03, 0xb3, 0xbf, 0xbd,
  0x9f, 0xc6, 0x1c, 0x3e, 0xd1, 0xee, 0x62, 0xbe, 0x1b, 0xf1, 0x82, 0x3d,
  0xda, 0xee, 0x28, 0x3e, 0xb7, 0x2a, 0x8a, 0xbd, 0xff, 0x28, 0x08, 0xbe,
  0x19, 0xd6, 0x0f, 0x3e, 0x7e, 0xfe, 0x96, 0xbd, 0x02, 0x97, 0xd2, 0xbd,
  0x4c, 0x6a, 0x0a, 0x3e, 0x12, 0x95, 0x25, 0xbe, 0xdd, 0x1e, 0x1f, 0x3e,
  0x06, 0x07, 0x6a, 0xbe, 0xb4, 0x58, 0xdf, 0x3d, 0x2c, 0xad, 0x87, 0x3e,
  0xb4, 0x32, 0xb2, 0xbd, 0x5a, 0x40, 0x69, 0xbd, 0xbc, 0xf5, 0x2f, 0xbd,
  0x9a, 0x14, 0x5c, 0xbd, 0xb6, 0xb0, 0x02, 0x3e, 0x90, 0x99, 0x48, 0x3e,
  0x92, 0x16, 0x49, 0x3e, 0xf3, 0xf6, 0xbd, 0x3d, 0xf7, 0x0b, 0xf7, 0x3d,
  0xcb, 0x21, 0x42, 0x3e, 0x58, 0x9d, 0x8d, 0x3d, 0x4c, 0xe1, 0x40, 0x3e,
  0x8e, 0xda, 0x4b, 0x3e, 0xd3, 0x52, 0xdb, 0x3d, 0x59, 0x66, 0x5e, 0xbe,
  0xf0, 0x7c, 0xc9, 0xbd, 0xa7, 0x5b, 0x3a, 0xbe, 0x25, 0x95, 0x51, 0x3e,
  0x32, 0x03, 0x97, 0xbd, 0x8b, 0xec, 0x1e, 0xbe, 0x0b, 0x3c, 0x40, 0x3e,
  0xa4, 0xe7, 0x2c, 0xbd, 0xb7, 0x59, 0xcf, 0xbc, 0x20, 0x8e, 0x42, 0x3e,
  0x81, 0x68, 0x95, 0x3d, 0x29, 0x68, 0xca, 0xbb, 0xa5, 0x90, 0xcf, 0xbd,
  0x91, 0x40, 0xac, 0xbc, 0xdc, 0x2e, 0x78, 0x3e, 0x29, 0x0f, 0x78, 0x3e,
  0x50, 0xbc, 0xaf, 0xbd, 0x4b, 0x8e, 0x2f, 0x3e, 0xd3, 0x9c, 0xae, 0xbd,
  0x0a, 0xe8, 0xa1, 0xbd, 0x02, 0x64, 0xef, 0x3c, 0x1c, 0xbf, 0x46, 0x3e,
  0xba, 0x56, 0xec, 0x3b, 0x45, 0x21, 0xb4, 0x3d, 0x8b, 0x5b, 0xc7, 0xbd,
  0x38, 0xc2, 0x28, 0x3e, 0xd5, 0x27, 0x3b, 0x3d, 0xdd, 0xc8, 0xa9, 0xbd,
  0xb6, 0x89, 0x85, 0xbd, 0xd4, 0x0a, 0x27, 0xbe, 0x16, 0x63, 0x84, 0x3e,
  0x05, 0x29, 0x55, 0xbd, 0xa3, 0xa5, 0x44, 0x3e, 0x89, 0x1c, 0xbc, 0x3d,
  0x75, 0x34, 0x9c, 0xbd, 0x67, 0xe2, 0x10, 0xbe, 0x07, 0x22, 0x61, 0xbe,
  0xc4, 0x03, 0x69, 0xbd, 0xf5, 0x5e, 0x55, 0x3e, 0x35, 0x36, 0x57, 0x3e,
  0x3c, 0xb1, 0x41, 0x3e, 0x0a, 0x99, 0x93, 0xbd, 0x7e, 0xe6, 0x1e, 0xbe,
  0x1f, 0x2e, 0xd7, 0x3c, 0x07, 0x75, 0x72, 0xbe, 0xc4, 0xb7, 0xd9, 0xbd,
  0x5b, 0x81, 0xe6, 0x3d, 0x96, 0x17, 0x67, 0xbe, 0x68, 0xbb, 0x78, 0x3e,
  0xe0, 0xf9, 0xcf, 0x3d, 0x16, 0xd4, 0x6d, 0x3e, 0x45, 0x82, 0xe1, 0x3d,
  0xf7, 0xda, 0x01, 0x3d, 0x97, 0x72, 0x78, 0xbc, 0xf4, 0x5d, 0x5b, 0xbd,
  0x0d, 0xe9, 0x6b, 0x3e, 0x00, 0xd9, 0x0c, 0x3e, 0x31, 0xfb, 0xaa, 0x3c,
  0x71, 0x15, 0x32, 0xbe, 0xf7, 0xb8, 0x86, 0xbc, 0xcd, 0x28, 0x5f, 0x3d,
  0xe1, 0xe9, 0x1f, 0x3e, 0xf7, 0x9b, 0xff, 0x3d, 0xb1, 0x9a, 0x49, 0x3d,
  0xc6, 0xaa, 0x68, 0x3e, 0xf2, 0xdf, 0x8c, 0xbc, 0xc3, 0x53, 0x12, 0xbe,
  0x94, 0xe1, 0x50, 0xbe, 0x6e, 0x73, 0x23, 0xbe, 0x95, 0x0e, 0xca, 0x3d,
  0x7f, 0x14, 0x17, 0xbc, 0x73, 0xa1, 0x34, 0x3e, 0x74, 0x1b, 0xf6, 0xbc,
  0x29, 0xb9, 0x02, 0xbe, 0x15, 0xca, 0x5d, 0xbc, 0xbb, 0x27, 0x98, 0xbd,
  0x8a, 0x0c, 0x03, 0x3d, 0x42, 0xfe, 0x5c, 0xbe, 0x03, 0xd2, 0x33, 0xbe,
  0x22, 0xfc, 0x86, 0x3e, 0xd8, 0xa5, 0xaf, 0xbd, 0xa8, 0xcf, 0xc5, 0x3c,
  0x3b, 0xb8, 0x75, 0xbe, 0xe1, 0x68, 0x18, 0x3e, 0x4b, 0xed, 0x48, 0x3e,
  0x15, 0xfe, 0x1e, 0xbd, 0x25, 0x75, 0x80, 0xbe, 0xec, 0xa0, 0x50, 0xbe,
  0xde, 0x8f, 0x61, 0x3b, 0x4f, 0x96, 0x4b, 0xbe, 0x49, 0x11, 0x15, 0xbe,
  0xb3, 0x62, 0x41, 0xbe, 0xd4, 0x28, 0x17, 0x3e, 0x82, 0xcc, 0x78, 0xbe,
  0xfe, 0x55, 0x3d, 0x3d, 0xe7, 0x67, 0x77, 0x3d, 0x84, 0x56, 0x0f, 0x3e,
  0x7c, 0x94, 0xed, 0xbd, 0xbf, 0xeb, 0x6a, 0xbe, 0x26, 0xd5, 0x4c, 0x3e,
  0x65, 0xdd, 0x85, 0xbc, 0xda, 0xde, 0xe2, 0xbd, 0xcc, 0x2e, 0xc2, 0xbd,
  0xcb, 0x43, 0x27, 0x3d, 0x0d, 0xe2, 0xc1, 0x3d, 0x47, 0x65, 0x66, 0xbd,
  0x33, 0xf8, 0x71, 0x3e, 0xa4, 0x49, 0x34, 0xbe, 0x05, 0xeb, 0x5d, 0xbd,
  0x9f, 0xf2, 0x0c, 0xbe, 0x0f, 0x9a, 0xe1, 0xbd, 0xa9, 0xda, 0x10, 0xbe,
  0x77, 0xe4, 0xef, 0xbd, 0x8b, 0x5b, 0xa6, 0x3c, 0x78, 0x0b, 0x9b, 0xbd,
  0xc5, 0x1c, 0x33, 0x3d, 0x51, 0xbb, 0x85, 0xbe, 0x47, 0x52, 0x6c, 0x3e,
  0x87, 0x06, 0xba, 0xbb, 0xfe, 0x5c, 0x01, 0x3c, 0xf1, 0x7b, 0x3a, 0xbe,
  0xa2, 0x95, 0x1b, 0xbd, 0x02, 0x94, 0x90, 0x3d, 0x3a, 0xa8, 0xc8, 0x3d,
  0x51, 0xf3, 0x1e, 0x3d, 0x22, 0xb3, 0xd9, 0x3d, 0x6b, 0xd6, 0x1d, 0xbe,
  0x50, 0xc4, 0x60, 0x3e, 0xf4, 0x4f, 0x51, 0x3e, 0x41, 0x6a, 0x61, 0x3e,
  0x8b, 0x20, 0x69, 0xbe, 0x18, 0xed, 0xb9, 0x3d, 0xa2, 0x2c, 0x35, 0xbe,
  0xa6, 0x8e, 0x2c, 0xbd, 0xea, 0x91, 0x55, 0x3e, 0x9c, 0x89, 0x90, 0x3c,
  0x60, 0xfd, 0xda, 0x3d, 0xbd, 0x7f, 0x43, 0x3d, 0x00, 0x43, 0x2b, 0xbe,
  0xb6, 0x91, 0x7d, 0x3e, 0xbf, 0xc9, 0x33, 0xbe, 0x06, 0xe2, 0x39, 0x3e,
  0xc3, 0x91, 0xc5, 0x3d, 0xb1, 0x1c, 0x0e, 0xbd, 0xf9, 0x48, 0x78, 0x3e,
  0xe3, 0x04, 0x31, 0xbe, 0x8a, 0xc1, 0x0b, 0xbd, 0x6f, 0xdf, 0x1b, 0xbd,
  0x9b, 0x6d, 0x7c, 0xbe, 0xcc, 0x48, 0xf9, 0xbd, 0x4b, 0x16, 0x15, 0xbe,
  0xee, 0x7d, 0x4f, 0xbe, 0x54, 0xbb, 0x47, 0xbe, 0x56, 0x21, 0xa1, 0xbd,
  0x8e, 0x74, 0xe4, 0x3a, 0xa4, 0xc6, 0x0c, 0xbe, 0x17, 0x54, 0x6a, 0x3e,
  0x25, 0xd1, 0xa8, 0x3c, 0x52, 0x44, 0x1f, 0xbd, 0x7a, 0x5b, 0xc4, 0xbd,
  0x1a, 0x20, 0xb4, 0xbd, 0x1e, 0x6d, 0x97, 0xbd, 0x31, 0x3b, 0x7e, 0xbe,
  0x55, 0x6e, 0x34, 0xbe, 0x3d, 0xd2, 0x28, 0x3e, 0x58, 0x05, 0x50, 0xbe,
  0x42, 0xd9, 0x82, 0xbe, 0xe6, 0x9b, 0xd5, 0xbc, 0x58, 0x3c, 0x77, 0x3d,
  0x9d, 0xdc, 0x65, 0xbe, 0x54, 0xb3, 0xe3, 0xbb, 0xb9, 0x36, 0x24, 0xbe,
  0xdc, 0xd8, 0xca, 0x3d, 0x5c, 0xf0, 0xd1, 0x3c, 0x5f, 0xf1, 0x20, 0xbe,
  0x08, 0x52, 0x00, 0xbe, 0xb2, 0xce, 0xcc, 0x3d, 0x21, 0x39, 0xb0, 0x3d,
  0xc3, 0x07, 0x5e, 0x3d, 0x7d, 0xd2, 0xa3, 0xbd, 0x34, 0xfd, 0xb8, 0xbd,
  0x81, 0xd4, 0xd1, 0x3d, 0x61, 0x07, 0x86, 0x3e, 0x62, 0xec, 0x61, 0xbe,
  0x91, 0xa1, 0x6c, 0xbe, 0xe1, 0xd5, 0x44, 0x3e, 0xb1, 0xc5, 0x12, 0xbe,
  0xa2, 0x81, 0x2b, 0xbe, 0x79, 0x5a, 0x5d, 0x3d, 0xd5, 0xbd, 0x81, 0xbd,
  0x87, 0x29, 0x6d, 0x3e, 0x1e, 0xee, 0x32, 0xbe, 0xf0, 0xa8, 0xbe, 0xbd,
  0x5f, 0x4d, 0x30, 0x3e, 0x35, 0xd9, 0xaf, 0xbd, 0x86, 0xa6, 0x1b, 0x3e,
  0xd4, 0xe0, 0x98, 0xbd, 0x20, 0xf7, 0x5e, 0x3e, 0xc8, 0xa2, 0x2e, 0xbe,
  0xfa, 0x84, 0x28, 0x3e, 0xd0, 0xd5, 0x13, 0xbe, 0x1b, 0x2a, 0x18, 0xbe,
  0xf8, 0x83, 0xc6, 0xbd, 0x28, 0xef, 0x1e, 0x3e, 0x65, 0x36, 0xf1, 0x3d,
  0x30, 0xcd, 0x60, 0xbd, 0xa3, 0xec, 0x0f, 0xbe, 0x00, 0x7a, 0x56, 0xbc,
  0xea, 0xe3, 0x2a, 0xbe, 0xa6, 0x33, 0xd6, 0xbd, 0xfe, 0x22, 0x73, 0xbe,
  0x76, 0xd7, 0x70, 0x3e, 0xf1, 0xc9, 0xfb, 0x3d, 0xde, 0x5b, 0x3c, 0x3e,
  0x95, 0x90, 0x17, 0x3e, 0x4d, 0x9b, 0x0e, 0xbe, 0xb5, 0x8b, 0x4f, 0xbe,
  0x78, 0x92, 0x51, 0xbe, 0xd9, 0x3a, 0x4b, 0xbe, 0x60, 0x72, 0x65, 0x3d,
  0xd0, 0xd0, 0x8c, 0x3c, 0xde, 0x13, 0x29, 0x3e, 0xb7, 0x8b, 0x88, 0x3d,
  0xd3, 0x48, 0x51, 0xbe, 0x6f, 0x9e, 0x0a, 0x3e, 0x62, 0xce, 0x3e, 0xbe,
  0xe1, 0x5b, 0xc3, 0x3d, 0xd2, 0x32, 0xd6, 0x3d, 0x86, 0x00, 0x38, 0xbb,
  0xf2, 0xe5, 0x50, 0x3e, 0x78, 0xb2, 0x21, 0x3e, 0x0f, 0x1a, 0xcd, 0x3d,
  0x3c, 0xbb, 0xe2, 0x3c, 0x23, 0xfe, 0x1c, 0x3d, 0x8b, 0xb4, 0xc5, 0x3d,
  0x00, 0x7e, 0xe2, 0x3d, 0xb3, 0x7d, 0xcd, 0x3d, 0x1e, 0x4b, 0x36, 0x3e,
  0xac, 0x8b, 0xab, 0xbd, 0x16, 0x06, 0x8a, 0xbc, 0x04, 0x4a, 0x1e, 0xbe,
  0xd9, 0x10, 0x67, 0x3e, 0xf6, 0x05, 0x3b, 0xbd, 0x3b, 0xa1, 0x09, 0xbe,
  0x2b, 0xf5, 0xe3, 0xbd, 0xce, 0xc5, 0xab, 0x3d, 0x12, 0x9f, 0x80, 0xbe,
  0xe3, 0x53, 0xf2, 0x3d, 0xc8, 0x13, 0x87, 0x3c, 0xf0, 0x57, 0x3a, 0x3e,
  0x53, 0x48, 0x7c, 0xbc, 0x65, 0x98, 0x8f, 0x3d, 0xf8, 0x02, 0x3d, 0x3e,
  0x9e, 0x0b, 0x57, 0x3e, 0x31, 0x02, 0x83, 0xbc, 0x5c, 0xe4, 0x96, 0x3a,
  0xab, 0x20, 0xd5, 0xbb, 0xe8, 0x73, 0x68, 0xbd, 0xaf, 0x0c, 0x51, 0xbe,
  0x3f, 0x7d, 0x34, 0x3d, 0xfb, 0x1f, 0x33, 0xbe, 0x34, 0xd0, 0x72, 0x3e,
  0xae, 0x14, 0x30, 0x3d, 0x59, 0xdb, 0x34, 0xbd, 0xee, 0xba, 0xfa, 0xbd,
  0x4c, 0x0d, 0x2c, 0xbd, 0x72, 0x04, 0xf4, 0x3c, 0x5b, 0x21, 0xcc, 0x3d,
  0x4a, 0xe6, 0x03, 0xbe, 0xbd, 0x2c, 0x41, 0xbe, 0xee, 0x3a, 0x80, 0x3d,
  0x61, 0x43, 0x65, 0x3e, 0xca, 0x67, 0x7b, 0x3e, 0xfd, 0xc3, 0x4b, 0xbe,
  0x77, 0x04, 0x7a, 0xbe, 0x6d, 0xe1, 0xd4, 0xbc, 0x27, 0x1d, 0x14, 0xbe,
  0x38, 0x80, 0x73, 0xbe, 0xdd, 0xfa, 0x30, 0x3e, 0x84, 0xde, 0x82, 0xbb,
  0xf0, 0xd4, 0x89, 0x3d, 0x56, 0x3f, 0x9c, 0xbd, 0x47, 0x83, 0x6a, 0x3e,
  0xc4, 0xf6, 0x0c, 0xbe, 0x2e, 0xde, 0x43, 0xbe, 0x9e, 0x08, 0xcb, 0xbd,
  0x4a, 0x3d, 0x30, 0x3e, 0xe3, 0xd3, 0x69, 0x3e, 0x63, 0xd6, 0x19, 0xbe,
  0xbd, 0x03, 0x6d, 0xbc, 0x1f, 0x79, 0x74, 0x3d, 0x38, 0x61, 0x43, 0xbe,
  0x01, 0x23, 0x79, 0xbe, 0xb9, 0xba, 0xcc, 0x3d, 0xbd, 0x11, 0x84, 0xbc,
  0xe9, 0xdb, 0x85, 0xbb, 0x59, 0x6f, 0x83, 0x3e, 0x49, 0xe7, 0x68, 0x3e,
  0x6d, 0x8c, 0x4f, 0x3d, 0x30, 0xff, 0xb4, 0x3d, 0x96, 0xdb, 0xa6, 0x3d,
  0x79, 0x42, 0x77, 0x3e, 0x4d, 0xfb, 0x53, 0xbe, 0x2c, 0x78, 0xa8, 0x3d,
  0x61, 0x4d, 0x43, 0xbe, 0x9d, 0xb2, 0x70, 0x3d, 0x7e, 0xb3, 0x33, 0xbd,
  0x49, 0x6a, 0x90, 0xbd, 0x27, 0x15, 0x84, 0xbe, 0x15, 0x5e, 0x4a, 0xbd,
  0x4a, 0x5f, 0xf0, 0x3d, 0xec, 0xb9, 0x8f, 0x3d, 0x90, 0xfa, 0x77, 0x3e,
  0xd7, 0x6f, 0x50, 0xbc, 0x51, 0xdf, 0xeb, 0xbd, 0x3e, 0x3d, 0xd8, 0xbd,
  0x85, 0xc7, 0x60, 0xbe, 0x0e, 0x93, 0x53, 0xbe, 0xc7, 0xfd, 0xbd, 0xbd,
  0x63, 0xf1, 0xfd, 0x3d, 0xa4, 0x95, 0x9d, 0xbd, 0xde, 0xdb, 0x22, 0x3d,
  0x3f, 0x21, 0x51, 0x3e, 0xef, 0xa0, 0xd6, 0xbb, 0x80, 0x93, 0x6f, 0xbe,
  0xba, 0x6f, 0x6c, 0xbe, 0x10, 0x2e, 0xdf, 0xbc, 0x62, 0x76, 0xcc, 0xbb,
  0x17, 0x7b, 0x6d, 0xbd, 0x43, 0xf3, 0x6d, 0xbe, 0xeb, 0xf9, 0x5e, 0xbd,
  0x91, 0xa7, 0x11, 0xbe, 0xb0, 0x20, 0x7c, 0x3c, 0xfa, 0x5d, 0x3c, 0xbe,
  0x55, 0x3b, 0x46, 0x3c, 0x45, 0xac, 0xd6, 0xbd, 0xac, 0x41, 0x87, 0xbe,
  0x05, 0x10, 0xbd, 0x3d, 0x7d, 0xbd, 0x88, 0x3c, 0x94, 0xa9, 0x59, 0x3e,
  0xda, 0x8b, 0x28, 0xbe, 0xf9, 0x4f, 0x51, 0xbe, 0xa4, 0x9d, 0xce, 0xbb,
  0xdf, 0x1d, 0x25, 0x3e, 0xf4, 0x6e, 0xa4, 0xbd, 0xe5, 0x75, 0x64, 0xbe,
  0x66, 0x10, 0x3a, 0x3d, 0x1c, 0xa5, 0x21, 0x3e, 0xcd, 0xb6, 0xf2, 0xbd,
  0x1f, 0x21, 0xf4, 0x3c, 0x91, 0xf0, 0x0a, 0x3e, 0x34, 0x17, 0x42, 0x3e,
  0xc8, 0xc2, 0x30, 0xbe, 0xfc, 0xc3, 0x83, 0x3c, 0x9f, 0x9f, 0xcd, 0x3d,
  0x5d, 0x6e, 0x68, 0xbe, 0x82, 0x54, 0x8f, 0xbd, 0xcf, 0x5b, 0xb0, 0xbd,
  0xbf, 0x65, 0x7f, 0x3c, 0x9e, 0xc9, 0x50, 0x3e, 0x43, 0x84, 0x34, 0xbd,
  0xeb, 0x11, 0x32, 0x3e, 0xd8, 0x6c, 0x4d, 0xbe, 0xee, 0x88, 0x59, 0x3d,
  0x1b, 0x73, 0x39, 0x3d, 0x64, 0x00, 0xd2, 0x3d, 0xfe, 0x4a, 0xdc, 0xbd,
  0x6c, 0xf4, 0x2f, 0x3e, 0x00, 0x1f, 0x33, 0x3d, 0x2a, 0x14, 0x3e, 0xbe,
  0xdc, 0xa2, 0x08, 0xbe, 0x89, 0x43, 0xb6, 0x3b, 0x9e, 0x52, 0xd2, 0xbd,
  0x4f, 0xbf, 0x73, 0x3e, 0xb2, 0xf4, 0x5f, 0xbe, 0x4b, 0xac, 0x03, 0x3d,
  0x1c, 0x18, 0x28, 0xbe, 0x98, 0xcb, 0xd0, 0x3a, 0x0a, 0x0d, 0x24, 0xbd,
  0x33, 0x69, 0xb8, 0x3d, 0x18, 0xe4, 0x99, 0x3c, 0x40, 0x62, 0x1e, 0xbe,
  0x79, 0xde, 0x40, 0xbe, 0x8d, 0xaa, 0x6e, 0x3e, 0x1e, 0x13, 0x05, 0xbe,
  0xef, 0x76, 0x16, 0xbe, 0xcd, 0x1d, 0x4c, 0xbd, 0xf8, 0xbe, 0x07, 0x3e,
  0xa4, 0xcb, 0x4a, 0x3c, 0x14, 0x47, 0x2e, 0xbe, 0x3e, 0x59, 0x3e, 0xbe,
  0xba, 0x8b, 0x09, 0xbe, 0x73, 0x4c, 0x36, 0x3d, 0xb7, 0x29, 0x81, 0x3e,
  0xd1, 0xb4, 0xf0, 0xbd, 0xbd, 0x15, 0x46, 0xbe, 0x08, 0x8a, 0x26, 0xbe,
  0x4e, 0xcf, 0x83, 0x3d, 0x2c, 0x67, 0x0d, 0xbe, 0x82, 0xac, 0xee, 0xbd,
  0x09, 0x11, 0xf2, 0x3b, 0x55, 0xe3, 0x66, 0xbe, 0x34, 0x02, 0x06, 0x3e,
  0x52, 0x34, 0x6e, 0x3e, 0x43, 0x7d, 0x2e, 0xbe, 0x68, 0xbb, 0x5f, 0x3e,
  0xab, 0x31, 0xb0, 0x3d, 0xf7, 0xa2, 0xc3, 0x3d, 0x47, 0x61, 0xab, 0xbd,
  0x10, 0xa8, 0x59, 0x3e, 0xd9, 0x45, 0x08, 0x3e, 0x29, 0xbf, 0xca, 0x3d,
  0xd5, 0x6e, 0x86, 0x3d, 0x12, 0x1e, 0x5a, 0xbe, 0x73, 0xa8, 0x7a, 0x3e,
  0x6f, 0xcf, 0xc1, 0xbd, 0xe9, 0xbc, 0x3f, 0x3e, 0x55, 0x69, 0x86, 0xbe,
  0xcc, 0xc7, 0x6b, 0x3e, 0x06, 0x1c, 0x42, 0x3e, 0xe8, 0xe3, 0x49, 0xbe,
  0xd4, 0xe4, 0x7a, 0x3d, 0xac, 0xb2, 0x8e, 0x3d, 0xd2, 0x02, 0x60, 0xbe,
  0x1a, 0x0d, 0x9e, 0xbd, 0xa0, 0x21, 0xa5, 0x3d, 0x16, 0x89, 0xa3, 0xbd,
  0xa8, 0x03, 0xdb, 0x3c, 0xfb, 0x6c, 0xbe, 0x3d, 0xa2, 0xfd, 0x65, 0xbe,
  0xc3, 0x07, 0x4c, 0x3e, 0xb1, 0x4a, 0x09, 0x3c, 0xd0, 0xb5, 0x2d, 0x3e,
  0x01, 0xc2, 0xdf, 0xbb, 0x4d, 0x53, 0xbb, 0xbd, 0x35, 0x1c, 0x60, 0x3d,
  0x9c, 0xf8, 0xd3, 0x3d, 0xa7, 0xa7, 0xa5, 0xbd, 0x32, 0x1d, 0x63, 0xbe,
  0xc6, 0x78, 0x23, 0xbe, 0x5e, 0x71, 0xf1, 0x3d, 0x70, 0x08, 0x3a, 0xbd,
  0x64, 0x19, 0xe4, 0xbd, 0x57, 0x41, 0x2f, 0x3e, 0x16, 0x5a, 0x21, 0xbe,
  0x3e, 0xda, 0x91, 0xbd, 0x03, 0xdf, 0x7e, 0xbc, 0x27, 0x63, 0x42, 0xbe,
  0x27, 0xf5, 0x05, 0x3e, 0x74, 0xa9, 0x82, 0x3e, 0xde, 0xe9, 0x1a, 0xbe,
  0x0e, 0x61, 0xd6, 0x3d, 0xe9, 0x3b, 0x0a, 0x3c, 0x47, 0xc3, 0x26, 0x3e,
  0x0d, 0x0d, 0x94, 0xbd, 0x9c, 0x32, 0x1e, 0xbe, 0x6a, 0xf8, 0x5b, 0xbe,
  0x60, 0x55, 0xde, 0x3c, 0xe2, 0xe9, 0x05, 0xbe, 0xd4, 0x08, 0x6f, 0x3c,
  0xeb, 0x0d, 0x16, 0x3e, 0xf7, 0x5f, 0x35, 0x3e, 0xd5, 0xd4, 0x0e, 0x3e,
  0xed, 0xb3, 0x83, 0x3e, 0x50, 0x21, 0x80, 0x3d, 0xe8, 0x87, 0x4b, 0xbe,
  0xda, 0x26, 0x17, 0x3e, 0x9e, 0xdb, 0xff, 0xff, 0x04, 0x00, 0x00, 0x00,
  0x00, 0x01, 0x00, 0x00, 0xba, 0x5a, 0x18, 0xbc, 0x6a, 0x84, 0x1d, 0xbc,
  0x8d, 0x99, 0x15, 0xbc, 0xc1, 0x6a, 0x20, 0x3c, 0x43, 0x76, 0x20, 0xbc,
  0x85, 0xde, 0x0a, 0xbc, 0x15, 0x80, 0x1b, 0x3c, 0x71, 0x15, 0x21, 0x3c,
  0x0d, 0xdb, 0xfb, 0x3b, 0x4e, 0x84, 0x14, 0xbc, 0x04, 0x7f, 0x1d, 0x3c,
  0x51, 0x9e, 0x1d, 0xbc, 0x93, 0xb4, 0x1f, 0x3c, 0x65, 0x7a, 0x22, 0xbc,
  0xc7, 0x7e, 0x1d, 0xbc, 0x92, 0xa3, 0x20, 0xbc, 0xb7, 0x19, 0x1e, 0x3c,
  0x0d, 0xe4, 0x08, 0xbc, 0x19, 0x13, 0x10, 0xbc, 0x84, 0x84, 0x20, 0x3c,
  0x89, 0x3d, 0x1e, 0xbc, 0x5b, 0xfd, 0x1a, 0xbc, 0x5a, 0xac, 0x80, 0x3b,
  0x02, 0xcd, 0x89, 0x3b, 0xa8, 0x82, 0x22, 0x3c, 0xf7, 0x95, 0x21, 0xbc,
  0x4d, 0x03, 0x0e, 0xbc, 0xdf, 0x2d, 0x21, 0xbc, 0x51, 0x5c, 0x00, 0xbc,
  0x08, 0x22, 0x21, 0xbc, 0x77, 0x17, 0x13, 0xbc, 0xd8, 0x7a, 0xfb, 0xbb,
  0x6b, 0x72, 0x00, 0x3c, 0xc1, 0xd1, 0x1c, 0x3c, 0x38, 0xc7, 0x51, 0xbb,
  0x25, 0xe3, 0x0c, 0x3c, 0xce, 0x5e, 0x2d, 0x3b, 0x52, 0x76, 0x1f, 0xbc,
  0xe1, 0xa4, 0x14, 0xbc, 0x5e, 0x49, 0x20, 0x3c, 0x0d, 0x4f, 0x1e, 0x3c,
  0x6a, 0xe9, 0x1f, 0x3c, 0xdc, 0x42, 0x22, 0x3c, 0x96, 0x55, 0x1f, 0xbc,
  0xcd, 0x56, 0x1f, 0x3c, 0x50, 0x25, 0x19, 0xbc, 0xf4, 0xbd, 0x28, 0xbb,
  0xf0, 0x4c, 0x1b, 0xbc, 0xa6, 0x21, 0x26, 0x3c, 0x2a, 0x6c, 0x2d, 0x3b,
  0xe1, 0xc3, 0xd5, 0xbb, 0x0d, 0x3b, 0xce, 0xbb, 0x64, 0xe4, 0x1f, 0x3c,
  0x66, 0xf3, 0x1b, 0x3c, 0xc5, 0x6c, 0x23, 0x3c, 0xd7, 0x9b, 0x1d, 0xbc,
  0x20, 0x82, 0x13, 0x3c, 0xf4, 0x9a, 0x19, 0xbc, 0x43, 0xd2, 0x23, 0xbc,
  0xc4, 0xfa, 0x1b, 0xbc, 0xa4, 0x60, 0x1c, 0xbc, 0xf2, 0x38, 0x20, 0x3c,
  0xff, 0x0e, 0x1c, 0xbc, 0x37, 0x46, 0xe1, 0xba, 0xaa, 0xdc, 0xff, 0xff,
  0x04, 0x00, 0x00, 0x00, 0x80, 0x00, 0x00, 0x00, 0xd0, 0x18, 0x21, 0x3c,
  0x60, 0x1b, 0xdf, 0xba, 0xda, 0x27, 0x1d, 0x3c, 0x46, 0x8d, 0x1f, 0xbc,
  0x56, 0xf6, 0x1b, 0x3c, 0xd6, 0x2f, 0x9f, 0x3a, 0x5c, 0x22, 0xdf, 0x3b,
  0xc4, 0x8b, 0x23, 0xbc, 0x54, 0xe3, 0x1e, 0xbc, 0x62, 0x82, 0x1c, 0x3c,
  0x0a, 0x46, 0x34, 0x3a, 0x34, 0x1e, 0x24, 0x3c, 0x06, 0xe5, 0x25, 0x3c,
  0x41, 0x17, 0x21, 0xbc, 0x8b, 0xce, 0x19, 0xbc, 0xb2, 0x14, 0x1f, 0xbc,
  0xbe, 0xa7, 0x0f, 0xbc, 0x31, 0x2e, 0x9f, 0x3b, 0x78, 0xc9, 0x19, 0x3c,
  0x88, 0x61, 0x1d, 0xbc, 0x4b, 0xc8, 0x22, 0x3c, 0xa4, 0xc8, 0x23, 0x3c,
  0x76, 0x76, 0x06, 0xbc, 0xcf, 0xc2, 0x1f, 0xbc, 0xc2, 0x40, 0x1b, 0x3c,
  0x75, 0x2e, 0x23, 0x3c, 0x7a, 0x86, 0x05, 0x3c, 0xa6, 0x0b, 0x19, 0xbc,
  0xd6, 0xa6, 0x22, 0xbc, 0x7f, 0xdc, 0x00, 0xbc, 0x72, 0x6a, 0xf6, 0xbb,
  0x01, 0xa1, 0x14, 0xbc, 0x36, 0xdd, 0xff, 0xff, 0x04, 0x00, 0x00, 0x00,
  0x10, 0x00, 0x00, 0x00, 0xe4, 0x1b, 0x11, 0xbc, 0x7c, 0x59, 0x1c, 0xbc,
  0xf7, 0x8c, 0x23, 0xbc, 0x8c, 0x2f, 0x23, 0x3c, 0x52, 0xdd, 0xff, 0xff,
  0x04, 0x00, 0x00, 0x00, 0x00, 0x20, 0x00, 0x00, 0x7d, 0x04, 0x89, 0x3d,
  0xae, 0x39, 0x5a, 0x3d, 0xd6, 0x10, 0x77, 0x3b, 0xad, 0x74, 0xf5, 0x3d,
  0x2e, 0x4d, 0x83, 0x3d, 0xb6, 0x6a, 0x0d, 0xbd, 0x14, 0x28, 0x78, 0x3e,
  0xa9, 0xa3, 0x85, 0x3d, 0x84, 0x5a, 0xe1, 0xbd, 0xc7, 0x9b, 0x20, 0x3e,
  0xf7, 0x89, 0x2f, 0xbe, 0x08, 0xce, 0x71, 0xbe, 0x97, 0xeb, 0x26, 0x3e,
  0x35, 0x58, 0x32, 0xbc, 0x6f, 0x6b, 0x5e, 0xbe, 0x40, 0x68, 0x4e, 0xbe,
  0xb9, 0x4b, 0xea, 0xbc, 0x87, 0x40, 0x0a, 0x3e, 0xa1, 0xef, 0xf3, 0xbd,
  0x33, 0xd6, 0x81, 0xbe, 0x3d, 0xe6, 0xb4, 0xbd, 0x1b, 0xde, 0xeb, 0x3d,
  0xb1, 0xd9, 0x38, 0x3e, 0x0c, 0x34, 0xdf, 0xbd, 0x46, 0x26, 0x3c, 0x3e,
  0xca, 0x66, 0x10, 0xbe, 0x70, 0x92, 0x13, 0xbd, 0x21, 0x70, 0x26, 0x3e,
  0xfd, 0xf5, 0x8b, 0x3b, 0x64, 0xdf, 0xc4, 0x3d, 0x5e, 0x6f, 0x21, 0x3e,
  0xfe, 0xdd, 0x61, 0xbe, 0x37, 0xc9, 0x9f, 0xbd, 0xe7, 0xd5, 0x0d, 0x3d,
  0x16, 0xca, 0x3d, 0xbd, 0xc1, 0x62, 0xcb, 0xbb, 0x0b, 0x4e, 0xf2, 0xbd,
  0x4f, 0x67, 0x5e, 0x3d, 0x9a, 0x4f, 0x1f, 0xbc, 0x78, 0xcb, 0x08, 0xbe,
  0x93, 0xdd, 0x47, 0x3e, 0x0d, 0x9d, 0x3e, 0xbe, 0xfd, 0xed, 0x17, 0x3e,
  0x65, 0xeb, 0x80, 0xbe, 0xaa, 0xda, 0xd8, 0x3c, 0xad, 0x2a, 0xf6, 0xbd,
  0x67, 0xf0, 0x85, 0x3d, 0x5c, 0x12, 0x7f, 0x3c, 0x0e, 0x5d, 0x4c, 0x3e,
  0xb3, 0xac, 0x11, 0xbc, 0xde, 0xa4, 0x0a, 0x3e, 0xa0, 0xe1, 0x93, 0x3c,
  0x4b, 0xc1, 0x73, 0xbe, 0xcc, 0xfc, 0x68, 0x3e, 0x55, 0x06, 0x78, 0xbd,
  0xff, 0xe6, 0xfe, 0xbd, 0x99, 0xff, 0xaa, 0x3d, 0x5c, 0x09, 0x51, 0x3e,
  0x38, 0xd2, 0x25, 0x3e, 0xaa, 0xef, 0x0b, 0xbe, 0xcc, 0x7d, 0x33, 0x3e,
  0x67, 0xb1, 0xb9, 0x3d, 0x2b, 0x0f, 0x7b, 0xbe, 0x98, 0x0e, 0x5b, 0x3e,
  0xf0, 0x61, 0xe5, 0xbd, 0x20, 0xea, 0x3b, 0xbd, 0x59, 0x11, 0x2e, 0x3c,
  0x7e, 0xe4, 0xcf, 0x3d, 0x0a, 0xf6, 0x41, 0xbe, 0x40, 0xca, 0xf0, 0xbd,
  0x40, 0xc0, 0x09, 0xbe, 0x42, 0x72, 0x9e, 0x3d, 0xd4, 0x45, 0x59, 0x3e,
  0xe9, 0xf7, 0x40, 0x3e, 0x39, 0x37, 0x8b, 0xbd, 0xa0, 0xa2, 0xdc, 0x3c,
  0x19, 0xb2, 0xab, 0x3d, 0xef, 0xea, 0xef, 0xbd, 0x44, 0x8e, 0x63, 0xbe,
  0x80, 0x55, 0x0d, 0xbc, 0x41, 0x07, 0xb4, 0x3d, 0xc0, 0x96, 0xfa, 0x3c,
  0x83, 0x47, 0xa0, 0x3d, 0x2c, 0x66, 0x6d, 0xbe, 0x90, 0x1b, 0x15, 0x3d,
  0xcc, 0xca, 0x14, 0xbe, 0xfe, 0x41, 0x92, 0xbc, 0xf1, 0x8d, 0x0b, 0xbe,
  0x54, 0x2c, 0x37, 0xbe, 0x2f, 0xaa, 0x47, 0x3e, 0x13, 0x04, 0x32, 0xbe,
  0xa3, 0xf2, 0x49, 0x3c, 0x0e, 0x00, 0xa3, 0xbd, 0xc8, 0xef, 0x53, 0xbe,
  0x00, 0xf8, 0x9b, 0x3b, 0x18, 0xfc, 0x4d, 0x3e, 0x70, 0x7f, 0x49, 0x3e,
  0x18, 0x92, 0xcc, 0xbd, 0x7f, 0xca, 0xd5, 0xbd, 0x68, 0x05, 0x8f, 0x3d,
  0x6f, 0xf3, 0x27, 0xbe, 0x40, 0xea, 0xf7, 0x3c, 0xc4, 0xeb, 0x3b, 0xbe,
  0xd6, 0xa4, 0x3d, 0x3e, 0x00, 0x55, 0x30, 0xbe, 0x11, 0x89, 0xb9, 0x3d,
  0x29, 0xd6, 0x68, 0xbd, 0x95, 0xe8, 0x80, 0xbd, 0x34, 0xe7, 0x77, 0x3e,
  0x19, 0x78, 0xee, 0x3d, 0xb8, 0x4b, 0x0e, 0xbe, 0xec, 0xca, 0x08, 0xbe,
  0xf8, 0x3a, 0xf0, 0xbd, 0xa4, 0x98, 0x6e, 0xbe, 0x28, 0xc4, 0x7d, 0x3e,
  0xbd, 0x31, 0x46, 0x3e, 0xa7, 0x06, 0x95, 0xbd, 0x68, 0xa3, 0x13, 0xbe,
  0xba, 0x0d, 0x11, 0xbe, 0x24, 0x18, 0x63, 0x3e, 0xe0, 0x62, 0xd8, 0xbc,
  0x66, 0xbf, 0xc2, 0x3c, 0xec, 0x35, 0x7a, 0xbe, 0xe4, 0x94, 0x03, 0xbe,
  0xe9, 0xa9, 0x4d, 0xbe, 0x54, 0x2e, 0x53, 0xbe, 0x02, 0x1a, 0xa5, 0xbd,
  0x55, 0xae, 0xd4, 0x3c, 0xbd, 0x10, 0x79, 0x3e, 0x25, 0x56, 0x22, 0x3e,
  0x25, 0x7d, 0x19, 0xbe, 0x2e, 0x21, 0x48, 0x3e, 0xcc, 0x15, 0x2c, 0x3e,
  0xa3, 0x9c, 0x5d, 0x3d, 0x4c, 0x1f, 0xac, 0xbd, 0xa7, 0xff, 0x6e, 0xbd,
  0x8b, 0x82, 0x60, 0xbe, 0xba, 0x52, 0x24, 0x3d, 0x5b, 0x18, 0x4e, 0xbe,
  0xba, 0x54, 0x3b, 0x3e, 0xd8, 0x7c, 0x1c, 0x3d, 0xd8, 0x28, 0x1e, 0xbe,
  0x70, 0x7c, 0x27, 0x3e, 0xb0, 0x2e, 0x51, 0x3e, 0x1e, 0x23, 0x53, 0xbd,
  0xc5, 0x4a, 0x01, 0xbe, 0x50, 0x67, 0x66, 0x3e, 0x6b, 0x77, 0x5d, 0xbe,
  0x36, 0xb1, 0x7a, 0x3e, 0x22, 0xd5, 0x73, 0x3c, 0xde, 0x62, 0x25, 0x3e,
  0x0c, 0x01, 0x11, 0xbe, 0xc9, 0xe2, 0x62, 0xbd, 0xbe, 0x47, 0x25, 0x3e,
  0x6b, 0xd4, 0x58, 0xbe, 0xfa, 0x96, 0x0d, 0x3d, 0xfd, 0xfd, 0x28, 0x3e,
  0x4f, 0x16, 0x86, 0xbc, 0xbf, 0xe0, 0x62, 0x3e, 0x09, 0xbc, 0x4c, 0xbe,
  0x9b, 0x5f, 0xb9, 0x3d, 0x01, 0xe9, 0x36, 0x3e, 0xe3, 0xaa, 0x80, 0xbe,
  0x3b, 0x70, 0x4d, 0x3c, 0x34, 0xed, 0x24, 0x3e, 0x51, 0x53, 0x4f, 0x3c,
  0x46, 0xd7, 0x53, 0xbe, 0xa2, 0x34, 0x33, 0xbe, 0xb2, 0xc9, 0xb9, 0xbb,
  0x85, 0x60, 0x64, 0xbe, 0xcd, 0x42, 0x1a, 0xbe, 0x59, 0x12, 0x45, 0x3c,
  0x69, 0xe5, 0x76, 0x3e, 0x16, 0x0a, 0x66, 0xbe, 0xab, 0xc6, 0x0d, 0xbe,
  0x35, 0xc9, 0x60, 0x3e, 0xfa, 0xa7, 0x29, 0xbe, 0xc6, 0x39, 0x75, 0xbd,
  0x08, 0x96, 0x09, 0x3d, 0xf7, 0x34, 0x26, 0xbd, 0xdc, 0xbc, 0x6f, 0xbe,
  0xe9, 0x7e, 0xde, 0xbc, 0x01, 0xca, 0x67, 0xbd, 0xf0, 0x27, 0xde, 0xbd,
  0x30, 0x60, 0x0a, 0xbe, 0x5a, 0xb4, 0x7c, 0x3d, 0xbb, 0xce, 0x7b, 0x3d,
  0x1f, 0xd5, 0x06, 0x3e, 0x00, 0x30, 0x3b, 0x3e, 0xeb, 0x0c, 0x42, 0x3e,
  0xf1, 0x5b, 0x7c, 0xbe, 0x14, 0xbf, 0x59, 0x3e, 0x98, 0xe3, 0xd3, 0xbd,
  0xd9, 0xc6, 0x0a, 0x3e, 0xde, 0xc2, 0x6b, 0xbe, 0x19, 0x80, 0xa2, 0x3d,
  0xa0, 0xcb, 0x82, 0xbc, 0x80, 0xd1, 0xc0, 0x3b, 0xa3, 0x2d, 0xec, 0xbd,
  0xb6, 0x37, 0x51, 0xbe, 0x5a, 0x29, 0x9c, 0x3c, 0x80, 0x80, 0x17, 0x3c,
  0x13, 0x58, 0x80, 0xbd, 0x14, 0xb7, 0x40, 0x3e, 0x40, 0x1f, 0x54, 0xbe,
  0x29, 0x30, 0xff, 0xbd, 0xf0, 0x20, 0x4b, 0xbe, 0xa8, 0xef, 0xd5, 0x3d,
  0x90, 0x88, 0x5f, 0xbe, 0xb6, 0xe9, 0x47, 0xbe, 0x70, 0x70, 0x60, 0xbe,
  0xef, 0x0b, 0x53, 0x3e, 0xbe, 0x16, 0x28, 0xbe, 0xd8, 0xb9, 0x46, 0xbe,
  0x86, 0xdc, 0x5a, 0x3c, 0xb6, 0xed, 0x7a, 0xbe, 0x75, 0xa4, 0xb6, 0xbd,
  0x1c, 0x43, 0xb8, 0x3d, 0x08, 0x5c, 0xab, 0xbd, 0x93, 0x61, 0x5b, 0x3e,
  0x3c, 0xb8, 0xf5, 0xbc, 0x70, 0x7e, 0x54, 0x3d, 0x54, 0xa2, 0xbc, 0x3d,
  0x0b, 0xe5, 0x2a, 0x3e, 0x4a, 0xf2, 0x26, 0xbe, 0x45, 0xb7, 0x0a, 0x3c,
  0x08, 0xb5, 0x73, 0xbd, 0x8f, 0x62, 0xe7, 0xbd, 0x2c, 0x39, 0x05, 0xbe,
  0xb3, 0xad, 0x54, 0x3e, 0x7c, 0x2c, 0x00, 0xbe, 0x70, 0x94, 0x34, 0xbe,
  0xce, 0x0b, 0x7a, 0xbe, 0xaf, 0x5d, 0x59, 0xbb, 0xfe, 0x54, 0x03, 0xbe,
  0x70, 0x1a, 0xe8, 0xbd, 0x14, 0xb7, 0x46, 0x3e, 0x04, 0x96, 0x14, 0xbe,
  0x00, 0x20, 0xe0, 0x38, 0x08, 0x28, 0x4d, 0x3e, 0xca, 0x28, 0xc9, 0x3d,
  0x7d, 0xb4, 0x72, 0xbd, 0x3a, 0x75, 0x93, 0x3d, 0x30, 0xe1, 0xb1, 0xbd,
  0x1b, 0x88, 0x66, 0xbd, 0x64, 0x43, 0x53, 0xbe, 0xd2, 0x2c, 0x2a, 0x3c,
  0x00, 0x30, 0x11, 0xb9, 0x60, 0x05, 0x7d, 0x3c, 0x30, 0xa9, 0x24, 0x3e,
  0x45, 0x12, 0x21, 0x3e, 0xb0, 0x8c, 0x44, 0xbe, 0x1f, 0x23, 0x55, 0x3e,
  0x98, 0x91, 0xa9, 0x3d, 0xa0, 0x66, 0x18, 0xbe, 0xd4, 0xff, 0x73, 0x3e,
  0xe8, 0xdc, 0x21, 0xbd, 0x9e, 0x4b, 0x77, 0x3e, 0xe5, 0x06, 0xf0, 0xbd,
  0x58, 0x42, 0x50, 0xbe, 0x40, 0x4a, 0x5b, 0xbe, 0xf5, 0xef, 0x61, 0x3e,
  0xa6, 0x35, 0xbc, 0x3b, 0x3d, 0x5a, 0xc8, 0xbd, 0xe0, 0x18, 0x25, 0x3d,
  0x44, 0x57, 0x70, 0xbe, 0xaa, 0x50, 0x69, 0x3d, 0x9a, 0x1c, 0x2a, 0xbe,
  0x44, 0x04, 0x99, 0x3b, 0x9a, 0x74, 0x03, 0xbe, 0x70, 0x42, 0x5c, 0x3e,
  0xa1, 0xd2, 0xfe, 0xbd, 0x5a, 0xfc, 0xcb, 0xbc, 0x18, 0x56, 0x6b, 0xbe,
  0x38, 0x59, 0x02, 0xbe, 0xb0, 0xfb, 0x6f, 0xbd, 0x10, 0xca, 0x23, 0x3e,
  0x6f, 0x3a, 0x69, 0x3d, 0x35, 0x32, 0x30, 0xbe, 0xe0, 0x89, 0xd3, 0xbc,
  0x03, 0x82, 0xd3, 0x3d, 0x43, 0xaf, 0xa7, 0x3d, 0x48, 0x78, 0xfd, 0x3d,
  0x98, 0xbf, 0x4e, 0x3e, 0x15, 0xee, 0x00, 0xbe, 0xdb, 0xc8, 0x15, 0x3e,
  0x10, 0xe2, 0x47, 0x3e, 0x5f, 0xf0, 0x0d, 0x3e, 0x6d, 0x2f, 0x5a, 0x3e,
  0xe9, 0x6f, 0xf4, 0x3d, 0x6a, 0x0f, 0xc4, 0x3d, 0x2f, 0x54, 0xff, 0x3d,
  0xf9, 0xa4, 0x30, 0x3e, 0x13, 0x1a, 0x20, 0x3c, 0x1b, 0xf9, 0x5d, 0x3e,
  0x94, 0x72, 0xa1, 0xbd, 0x3f, 0xb6, 0x63, 0xbe, 0x27, 0xaf, 0x86, 0xbd,
  0x60, 0x9a, 0xf4, 0x3d, 0xa3, 0xb1, 0x97, 0x3d, 0xf9, 0xac, 0xd8, 0xbd,
  0x99, 0xeb, 0x9c, 0xbd, 0xd9, 0xbb, 0x1f, 0x3e, 0xeb, 0xa5, 0x6b, 0xbd,
  0xcf, 0xe0, 0x12, 0xbe, 0xbf, 0xeb, 0xf5, 0xbd, 0x7d, 0xf9, 0x6a, 0xbe,
  0xdc, 0x0e, 0x68, 0xbe, 0x62, 0xf2, 0x1c, 0x3e, 0x09, 0x69, 0xba, 0x3a,
  0x89, 0x05, 0x18, 0x3e, 0x9a, 0xae, 0x5a, 0xbe, 0x01, 0x30, 0x2b, 0xbe,
  0x5c, 0xc5, 0xcb, 0xbd, 0xf5, 0xa4, 0xa3, 0xbd, 0x3e, 0xbb, 0xcc, 0x3c,
  0x70, 0x7b, 0x70, 0xbe, 0xc2, 0xa5, 0x61, 0x3e, 0xb5, 0x34, 0xdf, 0x3d,
  0xf7, 0x70, 0xe7, 0x3c, 0x4a, 0x58, 0x44, 0x3e, 0xa9, 0x07, 0x53, 0xbe,
  0x06, 0x84, 0x70, 0xbe, 0x20, 0x5e, 0xf6, 0xbd, 0xce, 0x2a, 0x9b, 0xbd,
  0xe2, 0x94, 0x43, 0x3d, 0x71, 0xd5, 0x38, 0x3e, 0xa0, 0xac, 0x38, 0xbd,
  0x00, 0xb5, 0xe5, 0x3c, 0x34, 0xb8, 0x3c, 0x3e, 0x24, 0xef, 0x1c, 0xbe,
  0x30, 0xaf, 0x70, 0xbd, 0x58, 0xb0, 0xc2, 0x3c, 0x88, 0x9c, 0xc7, 0xbd,
  0x13, 0x5d, 0xc8, 0x3b, 0x55, 0xa4, 0x78, 0x3c, 0x1a, 0x5e, 0x03, 0x3e,
  0xa0, 0xc3, 0x92, 0x3c, 0xbc, 0x45, 0x30, 0x3e, 0x00, 0x68, 0x58, 0xbb,
  0x97, 0xb9, 0x43, 0xbe, 0x5d, 0xa8, 0xe4, 0x3d, 0x50, 0x2e, 0x36, 0x3d,
  0x00, 0x0b, 0x13, 0xbe, 0x60, 0xe1, 0x68, 0xbe, 0xa1, 0x2c, 0x19, 0xbd,
  0x40, 0x99, 0x97, 0x3c, 0x00, 0x29, 0x60, 0xbd, 0x48, 0x81, 0xe1, 0xbd,
  0x8b, 0x11, 0xa8, 0xbd, 0x90, 0x6a, 0xb4, 0xbd, 0xc5, 0x75, 0x31, 0xbe,
  0xfc, 0x72, 0x6d, 0xbe, 0xb0, 0x73, 0x6a, 0x3e, 0x80, 0xbb, 0xa2, 0x3c,
  0xd7, 0x1a, 0x18, 0xbe, 0xa0, 0x98, 0x3d, 0x3e, 0xe7, 0xe8, 0x8c, 0xbd,
  0xb8, 0xe0, 0x10, 0xbe, 0x10, 0xc3, 0x7a, 0xbe, 0x30, 0x92, 0x55, 0xbd,
  0x6c, 0xd8, 0x63, 0xbe, 0xd8, 0x4f, 0xc8, 0xbd, 0xb8, 0x9a, 0xfb, 0xbd,
  0x1c, 0x93, 0x1b, 0xbe, 0xf8, 0x54, 0xe3, 0x3d, 0x3b, 0x92, 0x4a, 0x3e,
  0x98, 0x52, 0x3f, 0xbe, 0xb2, 0x53, 0xdc, 0xbd, 0xd4, 0x65, 0x63, 0xbe,
  0xb2, 0x71, 0x0c, 0xbe, 0xb8, 0xc5, 0xf8, 0xbd, 0x80, 0x62, 0x05, 0x3d,
  0xc8, 0x81, 0x95, 0x3b, 0x39, 0xaf, 0x29, 0xbe, 0x28, 0x4a, 0xba, 0xba,
  0xe4, 0x2e, 0x5d, 0xbe, 0x74, 0x26, 0x3c, 0x3e, 0x6e, 0xb7, 0x9a, 0x3d,
  0x93, 0xfd, 0x2f, 0x3d, 0xf4, 0xca, 0x4c, 0xbe, 0x78, 0x1b, 0xc3, 0x3d,
  0xd8, 0xef, 0xd9, 0x3d, 0xd0, 0x2b, 0x64, 0xbd, 0x68, 0x86, 0x17, 0xbd,
  0x6a, 0xcd, 0xcb, 0x3c, 0x28, 0x95, 0x8a, 0x3d, 0x5a, 0x4d, 0x51, 0xbe,
  0x49, 0x04, 0xc2, 0x3d, 0x0c, 0x3b, 0x26, 0x3d, 0x2c, 0x1d, 0x04, 0x3e,
  0xfa, 0xbe, 0x0a, 0x3c, 0x1f, 0x8b, 0x2f, 0xbe, 0xe7, 0x57, 0x36, 0xbd,
  0x20, 0x0d, 0x71, 0x3e, 0x96, 0x76, 0xf9, 0xbd, 0x49, 0xb7, 0x91, 0xbd,
  0xbc, 0x33, 0x38, 0xbe, 0x8c, 0xaa, 0x11, 0xbe, 0xd1, 0x85, 0x3b, 0x3e,
  0xbb, 0x1c, 0x11, 0xbe, 0x5f, 0x42, 0x4a, 0x3c, 0x15, 0x50, 0x6b, 0x3c,
  0x5c, 0xac, 0xd5, 0x3d, 0xe1, 0x1f, 0x23, 0xbc, 0xc5, 0xea, 0xf1, 0xbc,
  0x35, 0x69, 0x6b, 0x3e, 0x76, 0xaf, 0x3d, 0xbd, 0x66, 0x03, 0x63, 0xbd,
  0xb2, 0x18, 0x2b, 0x3e, 0x6c, 0xcb, 0x0f, 0x3e, 0x08, 0x44, 0xf4, 0x3d,
  0x0e, 0x58, 0x19, 0xbe, 0x68, 0x6d, 0x89, 0xbd, 0xfa, 0x4a, 0x2a, 0x3e,
  0x24, 0x67, 0x04, 0x3e, 0x2c, 0x6e, 0x73, 0x3e, 0xaa, 0x85, 0x1c, 0x3e,
  0x9b, 0xb5, 0x97, 0x3d, 0x1d, 0x35, 0x4a, 0x3e, 0x7b, 0x65, 0x52, 0xbd,
  0x41, 0x93, 0x36, 0xbe, 0x9a, 0x81, 0xef, 0xbc, 0xc7, 0x93, 0x27, 0xbe,
  0x9a, 0x6d, 0xfd, 0xbd, 0x30, 0xe6, 0x3f, 0xbe, 0x51, 0x4c, 0x7c, 0xbe,
  0x4d, 0x1c, 0xbe, 0x3d, 0xfd, 0x85, 0xfc, 0x3d, 0x8b, 0xf9, 0x45, 0x3b,
  0x65, 0xd1, 0x0d, 0xbe, 0x68, 0x19, 0xa0, 0x3d, 0xba, 0x6f, 0xcc, 0xba,
  0xf6, 0xa9, 0x33, 0xbd, 0x55, 0x44, 0xd4, 0xbd, 0x13, 0x0e, 0x45, 0x3d,
  0xf8, 0xb2, 0x01, 0xbd, 0x48, 0x0c, 0x25, 0x3d, 0x13, 0xfb, 0x7b, 0xbd,
  0x96, 0x91, 0xb8, 0x3c, 0xf5, 0x46, 0x4b, 0x3e, 0xf9, 0x4a, 0x69, 0x3e,
  0x6c, 0x2c, 0x39, 0xbb, 0x61, 0x57, 0x3d, 0x3e, 0x37, 0x35, 0x5a, 0x3e,
  0xb6, 0x7f, 0xcc, 0xbd, 0x20, 0x86, 0x1e, 0xbe, 0xd7, 0xca, 0x75, 0xbe,
  0xf5, 0x38, 0x41, 0x3e, 0x43, 0xa4, 0x6c, 0xbe, 0x75, 0xf9, 0x0c, 0x3e,
  0xdf, 0xd3, 0x7f, 0xbe, 0xa4, 0xfe, 0x4b, 0x3e, 0x23, 0x6d, 0x4b, 0xbe,
  0xbf, 0x06, 0xb3, 0xbd, 0x57, 0x85, 0xc1, 0xbc, 0x38, 0x59, 0x1d, 0x3e,
  0x09, 0x2e, 0x69, 0x3e, 0x8b, 0xc6, 0x7d, 0x3d, 0x1a, 0x4b, 0x23, 0xbd,
  0x95, 0xf6, 0x6d, 0xbe, 0x20, 0x0d, 0x33, 0x3e, 0x7a, 0xf5, 0x1a, 0x3b,
  0x54, 0xc5, 0x88, 0x3c, 0x0d, 0x2e, 0x9b, 0xbd, 0x53, 0xd1, 0x7a, 0xbc,
  0xdd, 0x55, 0x0a, 0xbe, 0x48, 0x50, 0x5a, 0x3e, 0x0c, 0x29, 0x82, 0xbe,
  0xd1, 0xb3, 0x72, 0x3e, 0x5a, 0x46, 0x88, 0x3d, 0xb2, 0x1d, 0x8b, 0xbd,
  0x31, 0x5f, 0xad, 0xbd, 0x39, 0x1d, 0x5d, 0x3e, 0xec, 0x15, 0x41, 0xbe,
  0x2a, 0xb6, 0xdd, 0x3d, 0x93, 0x3b, 0xe0, 0x3d, 0x2d, 0xda, 0xf4, 0xbd,
  0x21, 0xf9, 0xbe, 0xbd, 0x12, 0x2c, 0x8c, 0x3d, 0xe3, 0x6d, 0x30, 0x3e,
  0xe5, 0xf8, 0xdb, 0xbd, 0x84, 0x4f, 0x25, 0x3e, 0x38, 0x5c, 0x4a, 0x3d,
  0xa8, 0x55, 0x6c, 0x3d, 0x11, 0x86, 0xea, 0x3d, 0x34, 0x75, 0x65, 0xbe,
  0xd4, 0x80, 0x0a, 0xbd, 0xfa, 0xb9, 0x7c, 0x3e, 0x61, 0xf8, 0xd7, 0xbd,
  0x67, 0x13, 0x7b, 0x3d, 0x7c, 0xc8, 0xfe, 0xbc, 0x53, 0x65, 0x39, 0x3e,
  0x11, 0x84, 0x2d, 0xbe, 0x3c, 0xa5, 0xf3, 0x3d, 0x6d, 0x8c, 0x3a, 0x3e,
  0x15, 0x46, 0x6d, 0xbe, 0xb6, 0xe7, 0x6b, 0x3e, 0xd0, 0x47, 0x30, 0xbe,
  0x56, 0x23, 0x81, 0xbd, 0x53, 0x8c, 0xd6, 0xbc, 0x62, 0x7b, 0x5a, 0x3e,
  0x38, 0xa4, 0xa0, 0xbd, 0x08, 0xd8, 0x5a, 0xbe, 0xd4, 0x9c, 0x2d, 0xbe,
  0xb3, 0x24, 0xf9, 0xbd, 0xaa, 0x49, 0x18, 0x3e, 0x35, 0xfc, 0x84, 0xbc,
  0x60, 0x2c, 0x70, 0xb9, 0x73, 0x20, 0x6c, 0x3c, 0xac, 0x7b, 0xf4, 0x3d,
  0xe8, 0x0a, 0x14, 0xbe, 0xed, 0x3c, 0xd0, 0x3d, 0x91, 0x34, 0x11, 0x3e,
  0x5c, 0x4e, 0x3a, 0x3e, 0xa0, 0x59, 0x42, 0x3e, 0x2f, 0xf1, 0x28, 0x3e,
  0x7e, 0xbc, 0x70, 0x3e, 0xbf, 0x8e, 0x5e, 0xbe, 0xdf, 0xb9, 0x4c, 0x3e,
  0xd5, 0xb8, 0xbb, 0xbd, 0x85, 0x03, 0xdd, 0x3d, 0xe4, 0xd2, 0x05, 0x3e,
  0x75, 0x19, 0x48, 0x3d, 0x08, 0xb2, 0xeb, 0xbc, 0x1f, 0xc6, 0x1d, 0xbe,
  0x4e, 0xf6, 0x63, 0x3e, 0x04, 0xb7, 0x4c, 0x3e, 0x3f, 0x21, 0x6f, 0x3d,
  0xc4, 0x8e, 0x3b, 0x3e, 0x17, 0x26, 0x71, 0x3e, 0xb6, 0xa3, 0x5b, 0x3e,
  0x28, 0x1f, 0x6e, 0x3e, 0xb7, 0xd5, 0x32, 0x3e, 0x0b, 0x1e, 0x4a, 0xbd,
  0x96, 0xd0, 0x2e, 0xbe, 0x80, 0x18, 0x58, 0xbe, 0xa1, 0x7b, 0x8c, 0x3d,
  0x93, 0x89, 0x99, 0x3c, 0xef, 0xd3, 0xc9, 0xbd, 0xf4, 0xb8, 0x14, 0x3e,
  0xb8, 0x51, 0x75, 0x3e, 0x98, 0x02, 0xe9, 0xbd, 0x54, 0xee, 0xc6, 0xbd,
  0xe9, 0x9e, 0x4c, 0xbe, 0xfc, 0x29, 0x15, 0x3d, 0xee, 0x17, 0x18, 0xbe,
  0xd7, 0x99, 0xbf, 0x3b, 0x01, 0x69, 0x6e, 0x3e, 0x01, 0x7d, 0x3c, 0xbe,
  0x91, 0x62, 0x51, 0x3e, 0x10, 0xca, 0xd6, 0xbd, 0xf0, 0x41, 0xda, 0x3d,
  0x1f, 0xd5, 0x66, 0xbc, 0xed, 0x69, 0x4b, 0xbe, 0xbe, 0x8b, 0x6b, 0x3e,
  0x32, 0x57, 0xbf, 0x3d, 0x94, 0x61, 0x80, 0x3c, 0xaf, 0x08, 0x78, 0xbe,
  0x6e, 0x11, 0x3c, 0xbe, 0xec, 0x76, 0x31, 0xbe, 0x4f, 0x2f, 0x4f, 0xbe,
  0x3f, 0xd6, 0x33, 0x3d, 0x09, 0xe3, 0x2d, 0x3e, 0x08, 0xaf, 0xfe, 0xbd,
  0x4b, 0x04, 0xc2, 0xbd, 0x5b, 0x68, 0xab, 0x3d, 0xe9, 0xab, 0xf9, 0x3d,
  0xea, 0xad, 0xa2, 0x3d, 0xa9, 0x83, 0x5c, 0xbe, 0xc5, 0xfd, 0x4d, 0x3e,
  0x78, 0x53, 0x10, 0xbe, 0x35, 0x9f, 0x77, 0xbe, 0xf1, 0x5b, 0x38, 0x3d,
  0x1f, 0xbf, 0x09, 0xbd, 0x1d, 0x4d, 0x2a, 0xbe, 0x72, 0x2a, 0x4b, 0x3e,
  0x0f, 0x66, 0xda, 0xbd, 0xad, 0xe6, 0xe1, 0x3d, 0xef, 0xa0, 0xc3, 0xbd,
  0x01, 0x28, 0xc1, 0xbd, 0x51, 0x9f, 0x6d, 0xbe, 0xcc, 0xe7, 0x08, 0xbe,
  0x7c, 0xf9, 0xd7, 0xbd, 0x63, 0x8e, 0xda, 0x3d, 0x37, 0x44, 0xad, 0xbd,
  0x2a, 0xcc, 0x25, 0x3e, 0x1e, 0x33, 0x9d, 0x3d, 0xcc, 0xf2, 0xe7, 0x3d,
  0xb5, 0x70, 0x1f, 0x3e, 0x52, 0x02, 0x30, 0xbe, 0xaa, 0xf9, 0xf7, 0x3c,
  0x8d, 0x77, 0xf5, 0xbd, 0xd0, 0xfc, 0x1b, 0x3e, 0xd6, 0x12, 0x8c, 0x3d,
  0x6c, 0x05, 0x59, 0x3d, 0x10, 0x22, 0x7c, 0x3e, 0xcc, 0xf3, 0x99, 0x3d,
  0xe9, 0xc0, 0x20, 0x3e, 0xfa, 0x6a, 0xe9, 0x3d, 0x89, 0xb3, 0x42, 0xbe,
  0xa7, 0xbb, 0x3f, 0x3e, 0xb1, 0xff, 0x43, 0x3e, 0x86, 0xfa, 0x0a, 0xbe,
  0x1b, 0x93, 0x8b, 0x3d, 0x87, 0xd7, 0x9e, 0xbd, 0x38, 0xbe, 0x41, 0xbe,
  0xd5, 0x0c, 0x48, 0xbd, 0x22, 0xf5, 0x15, 0xbe, 0x48, 0x60, 0x71, 0x3e,
  0xf1, 0xe0, 0x78, 0xbd, 0x06, 0xb2, 0xcc, 0x3d, 0x02, 0xf2, 0x59, 0xbe,
  0x54, 0x4e, 0x08, 0x3e, 0xb9, 0x07, 0x6d, 0xbe, 0xe3, 0x68, 0x8b, 0x3c,
  0x6a, 0xaf, 0x52, 0x3e, 0xf8, 0x18, 0x70, 0xbe, 0x09, 0xd1, 0x2e, 0x3e,
  0x9c, 0xbf, 0x2d, 0xbe, 0x61, 0x81, 0xbb, 0x3d, 0x2c, 0x52, 0xad, 0x3d,
  0x69, 0x39, 0x1d, 0x3c, 0x18, 0x48, 0x2b, 0x3e, 0x01, 0x22, 0x17, 0xbe,
  0x04, 0xf2, 0x83, 0x3b, 0xd3, 0x4f, 0x70, 0xbe, 0x0f, 0x5c, 0x24, 0x3d,
  0x50, 0x1d, 0xdb, 0x3d, 0x53, 0x59, 0x6b, 0x3e, 0x47, 0xa8, 0x40, 0x3e,
  0xf3, 0x67, 0x3c, 0x3e, 0xed, 0xcc, 0x9d, 0x3d, 0x0d, 0x54, 0x3d, 0x3e,
  0xdb, 0xda, 0xb9, 0xbd, 0x59, 0x30, 0x76, 0xbe, 0x57, 0x05, 0x43, 0x3e,
  0xcd, 0xa4, 0xe7, 0x3d, 0xec, 0x6f, 0x5a, 0xbe, 0x12, 0x83, 0x3f, 0x3e,
  0xf0, 0x51, 0x1a, 0x3e, 0xf0, 0xd2, 0x26, 0xbd, 0x9f, 0x99, 0xbe, 0x3b,
  0x1a, 0x3c, 0x39, 0xbe, 0xc6, 0x22, 0x2f, 0xbe, 0xf4, 0x88, 0xde, 0xbd,
  0x50, 0x1f, 0xdd, 0xbd, 0x89, 0x7f, 0x14, 0xbe, 0x5c, 0xdd, 0x46, 0xbd,
  0xba, 0xda, 0x82, 0x3d, 0x30, 0xa5, 0x59, 0xbd, 0x10, 0x10, 0x53, 0xbe,
  0x0b, 0x29, 0x02, 0xbe, 0x9e, 0x3c, 0xc2, 0xbd, 0x98, 0x3e, 0x53, 0xbe,
  0x54, 0x0c, 0x7b, 0x3e, 0xfb, 0x6b, 0x17, 0x3e, 0xc4, 0xbb, 0x6b, 0x3e,
  0x2b, 0x98, 0xce, 0xbd, 0xb0, 0x21, 0xbb, 0x3d, 0x18, 0xbe, 0xcf, 0xbd,
  0x0a, 0x82, 0xb9, 0x3b, 0xb5, 0x45, 0x2b, 0xbb, 0x68, 0x7b, 0xea, 0xbd,
  0xf8, 0x2b, 0xad, 0xbd, 0x00, 0x10, 0xeb, 0x39, 0xb3, 0xb2, 0xe5, 0x3d,
  0x96, 0x7d, 0x48, 0xbe, 0x42, 0x1e, 0x52, 0x3e, 0x18, 0xc6, 0x74, 0xbe,
  0xf0, 0x23, 0x10, 0xbd, 0x40, 0x6a, 0xcf, 0x3c, 0x1a, 0xc5, 0x41, 0x3e,
  0xb0, 0xa3, 0xbb, 0xbd, 0x37, 0x9d, 0xa3, 0x3d, 0xb1, 0x39, 0x32, 0x3e,
  0x9c, 0xbf, 0x1d, 0x3d, 0x68, 0xbe, 0xd2, 0xbd, 0xa0, 0x51, 0x1e, 0x3e,
  0xe8, 0x55, 0x6e, 0xbd, 0xf8, 0xbd, 0x08, 0xbe, 0x91, 0xcd, 0x30, 0x3e,
  0xe5, 0x11, 0xd5, 0x3d, 0xd7, 0x07, 0x7e, 0xbe, 0x80, 0x34, 0x37, 0xbe,
  0x4c, 0x4c, 0x57, 0xbe, 0x90, 0x0c, 0x94, 0xbd, 0xa3, 0x14, 0x03, 0x3e,
  0x38, 0x3f, 0xe3, 0xbd, 0xf4, 0x6b, 0x52, 0x3d, 0x2b, 0xbb, 0x78, 0x3e,
  0xb9, 0x39, 0x46, 0x3e, 0x69, 0xc3, 0x1d, 0x3d, 0x50, 0x2a, 0x1b, 0x3e,
  0xf9, 0x22, 0x79, 0x3e, 0xb1, 0x93, 0xf9, 0xbb, 0x40, 0xa8, 0x35, 0x3c,
  0x5f, 0x16, 0x2b, 0xbe, 0xf8, 0x09, 0x94, 0xbd, 0xad, 0xf8, 0x04, 0x3e,
  0x1e, 0x41, 0x7c, 0xbe, 0x91, 0x30, 0x29, 0xbe, 0x52, 0xbd, 0x14, 0xbe,
  0x4a, 0x82, 0x20, 0xbe, 0xf8, 0x03, 0x7c, 0xbd, 0x5f, 0xc0, 0xc7, 0xbd,
  0x10, 0x47, 0x7d, 0xbe, 0xda, 0x1a, 0x40, 0x3e, 0x73, 0x0f, 0x35, 0x3c,
  0xf9, 0x89, 0x93, 0xbd, 0xf0, 0x67, 0x71, 0xbe, 0x7c, 0x41, 0x41, 0x3e,
  0x00, 0x72, 0xf8, 0xbd, 0xa9, 0xbe, 0x97, 0x3d, 0x13, 0x82, 0x10, 0x3e,
  0xcc, 0xdd, 0xba, 0xbd, 0x37, 0xa6, 0xf7, 0xbd, 0x65, 0x60, 0x33, 0xbe,
  0xad, 0xa9, 0x6d, 0x3e, 0x1f, 0xb8, 0xcd, 0xbd, 0xf8, 0xdd, 0x3c, 0x3e,
  0xd4, 0x51, 0x7a, 0xbc, 0x8a, 0x05, 0x1e, 0xbe, 0x22, 0x64, 0xd4, 0x3d,
  0x68, 0x9d, 0x1d, 0xbd, 0x9b, 0x87, 0xac, 0xbd, 0x35, 0x7d, 0x72, 0x3d,
  0x55, 0x9d, 0x9c, 0xbd, 0x22, 0xf4, 0x20, 0x3e, 0xa9, 0xa5, 0x1a, 0xbe,
  0xa1, 0x75, 0x13, 0x3e, 0x40, 0xc0, 0x41, 0xbd, 0xa9, 0x5e, 0x50, 0xbe,
  0x24, 0x29, 0x99, 0x3c, 0x10, 0x0c, 0x9a, 0xbd, 0x87, 0x95, 0x51, 0xbe,
  0xec, 0x85, 0x6f, 0x3e, 0xfb, 0xc8, 0x6f, 0xbe, 0xa6, 0xe8, 0xc2, 0xbc,
  0x7a, 0x02, 0x95, 0xbd, 0x7f, 0x02, 0x19, 0x3d, 0x4d, 0x02, 0xfc, 0xbc,
  0xf9, 0x15, 0xe7, 0xbd, 0xa7, 0x43, 0x15, 0xbe, 0xa6, 0xe4, 0x18, 0xbd,
  0x3b, 0x30, 0x6a, 0x3e, 0xd4, 0x10, 0xdf, 0x3d, 0x0f, 0xf9, 0x0f, 0x3e,
  0xdd, 0xb4, 0x38, 0x3e, 0x8d, 0xff, 0x6a, 0xbe, 0x92, 0x07, 0xd7, 0xbb,
  0xbe, 0x3d, 0x10, 0x3d, 0xdf, 0xed, 0xfb, 0x3d, 0x82, 0x2c, 0x43, 0x3d,
  0x1f, 0xaf, 0x49, 0xbd, 0x15, 0x81, 0x87, 0xbd, 0xb3, 0xc0, 0x24, 0xbd,
  0xc0, 0x54, 0x77, 0xbe, 0xf1, 0x16, 0x4b, 0xbe, 0x16, 0xac, 0x2f, 0xbd,
  0xbd, 0x8a, 0x13, 0x3e, 0xcd, 0x6b, 0xe1, 0x3d, 0xd2, 0x36, 0x2a, 0x3e,
  0x67, 0x86, 0x74, 0x3e, 0x8c, 0xab, 0x91, 0xbd, 0x8f, 0x35, 0x20, 0xbc,
  0x43, 0xc2, 0x3d, 0x3d, 0x24, 0x46, 0x06, 0xbe, 0x2c, 0x1e, 0xe8, 0xbd,
  0x42, 0x77, 0x47, 0xbe, 0xaa, 0xf1, 0x84, 0xbe, 0xd7, 0x68, 0x65, 0xbe,
  0xbc, 0xcd, 0x77, 0xbd, 0x0b, 0xe5, 0xe9, 0xbb, 0x21, 0x2f, 0x59, 0x3e,
  0x9c, 0x98, 0x83, 0xbd, 0x90, 0xc2, 0x8d, 0x3c, 0x1c, 0xca, 0xfc, 0xbb,
  0xde, 0xb4, 0xd1, 0x3d, 0xc9, 0x86, 0xcc, 0x3d, 0x50, 0x80, 0x15, 0x3e,
  0xff, 0x0d, 0x88, 0x3d, 0xb7, 0x26, 0x52, 0xbe, 0x8c, 0x06, 0xef, 0xbd,
  0x3f, 0x97, 0x32, 0x3e, 0x36, 0xe7, 0xa8, 0x3d, 0x97, 0x7b, 0xbe, 0xbd,
  0x70, 0x29, 0xdc, 0x3d, 0x5c, 0xbe, 0x05, 0xbe, 0x5a, 0xea, 0x5b, 0xbe,
  0xcf, 0xeb, 0x18, 0xbe, 0x56, 0x5c, 0x5d, 0x3e, 0x3d, 0x55, 0x60, 0xbe,
  0xf8, 0xba, 0x14, 0x3e, 0xce, 0x03, 0x1c, 0xbe, 0x35, 0x64, 0xac, 0xbd,
  0x68, 0x1d, 0x43, 0x3e, 0xa3, 0xd4, 0x76, 0x3e, 0x0a, 0x81, 0x66, 0x3c,
  0x8d, 0xce, 0x74, 0x3d, 0x6b, 0xeb, 0x23, 0xbd, 0x6f, 0xd6, 0x3a, 0x3e,
  0xf2, 0x4b, 0xae, 0xbc, 0x12, 0x9f, 0x4f, 0xbe, 0xa5, 0x77, 0x7b, 0x3e,
  0xe7, 0xa1, 0x3b, 0xbe, 0x0f, 0x6b, 0x4d, 0xbe, 0x82, 0xc5, 0x32, 0xbe,
  0x19, 0x9e, 0x9f, 0xbd, 0xe2, 0xf3, 0x08, 0x3e, 0xde, 0x9d, 0x3a, 0xbe,
  0xe9, 0xed, 0x05, 0x3e, 0xa3, 0xd2, 0xc5, 0x3d, 0x96, 0x56, 0x57, 0xbe,
  0x94, 0x94, 0xde, 0x3d, 0x2b, 0x14, 0x4f, 0xbd, 0x01, 0xb0, 0x1e, 0x3e,
  0xd1, 0x52, 0x58, 0xbd, 0xc8, 0x4c, 0x72, 0x3e, 0x52, 0x71, 0x3e, 0x3e,
  0x49, 0xd4, 0x3c, 0x3e, 0x0c, 0x2a, 0xf8, 0x3d, 0x5d, 0x64, 0xa7, 0xbd,
  0xe5, 0x07, 0x01, 0x3e, 0xa4, 0xe6, 0xd4, 0x3d, 0x10, 0xb3, 0x98, 0x3b,
  0xfe, 0xa4, 0x92, 0x3d, 0xda, 0x44, 0xf5, 0xbd, 0xab, 0x71, 0xbd, 0xbd,
  0xbb, 0x55, 0x6c, 0xbe, 0x89, 0x96, 0xda, 0xbd, 0xa1, 0x25, 0x5f, 0x3e,
  0xf7, 0x0b, 0x52, 0xbe, 0x53, 0x45, 0x22, 0x3e, 0x76, 0x24, 0x1e, 0xbe,
  0x58, 0x04, 0x5c, 0xbe, 0xac, 0x4f, 0x6b, 0x3e, 0x96, 0x81, 0xd1, 0x3d,
  0x75, 0xd0, 0x07, 0x3d, 0xca, 0x1c, 0x7e, 0x3e, 0x31, 0x68, 0x8f, 0x3b,
  0xb6, 0x63, 0x29, 0x3e, 0xd5, 0xd7, 0x02, 0x3d, 0x0d, 0x8f, 0x2b, 0xbd,
  0x1a, 0xc0, 0x19, 0xbe, 0xfa, 0x6e, 0x3f, 0x3e, 0xfd, 0x3f, 0x55, 0xbd,
  0x09, 0x72, 0x02, 0xbd, 0xa1, 0x52, 0x32, 0xbe, 0x5d, 0xf0, 0x6d, 0x3c,
  0x9e, 0xb3, 0x20, 0xbe, 0x30, 0x91, 0x98, 0xbd, 0x30, 0x8d, 0x17, 0x3d,
  0xf0, 0xfa, 0x0b, 0x3e, 0x99, 0x9b, 0x08, 0xbe, 0xc1, 0x33, 0x8e, 0xbd,
  0xf7, 0x64, 0x8d, 0x3d, 0xd7, 0x4f, 0x6c, 0x3e, 0xb7, 0x93, 0x67, 0x3e,
  0x30, 0x12, 0x6d, 0xbd, 0x3c, 0xd7, 0x6d, 0x3e, 0x62, 0xee, 0x29, 0x3e,
  0xd6, 0x76, 0x79, 0x3e, 0xdd, 0x68, 0xce, 0xbd, 0xa3, 0x4e, 0xe4, 0x3d,
  0x02, 0xb8, 0x14, 0xbd, 0x14, 0xc3, 0x8c, 0x3d, 0x8c, 0x4d, 0x0d, 0x3d,
  0xdb, 0xcd, 0x41, 0xbe, 0x4b, 0x21, 0x47, 0x3e, 0xa2, 0xa8, 0x54, 0xbe,
  0x7e, 0xab, 0x25, 0xbb, 0xb2, 0x14, 0x75, 0x3e, 0x88, 0x17, 0x38, 0xbd,
  0x3f, 0xfb, 0xfa, 0x3c, 0x8a, 0x68, 0x6f, 0x3e, 0x3f, 0x59, 0x02, 0x3d,
  0x8f, 0x36, 0x33, 0x3d, 0x99, 0x08, 0xb7, 0xbc, 0x86, 0xe6, 0xf4, 0x3d,
  0xe6, 0xa7, 0xf9, 0x3d, 0xf7, 0x5b, 0x6a, 0xbe, 0x83, 0x03, 0x5f, 0xbd,
  0x4a, 0x1a, 0x54, 0xbd, 0x68, 0x42, 0x9c, 0x3d, 0x87, 0x54, 0x91, 0x3d,
  0x0b, 0xfd, 0xea, 0x3c, 0x42, 0xfc, 0x1a, 0x3e, 0x23, 0x8b, 0x70, 0x3e,
  0xaf, 0x7e, 0x67, 0xbe, 0xa2, 0xd5, 0x74, 0x3e, 0xe4, 0x48, 0x72, 0x3e,
  0xfe, 0x86, 0xa2, 0xbc, 0x1a, 0xf1, 0x97, 0x3d, 0xe7, 0x22, 0x0d, 0xbc,
  0xa0, 0xbd, 0x87, 0xbd, 0xa6, 0x90, 0xd7, 0xbd, 0x08, 0xa9, 0x7f, 0x3e,
  0xe5, 0xc6, 0x52, 0xbe, 0x4c, 0x66, 0xe1, 0x3d, 0x4e, 0x63, 0x50, 0xbe,
  0x55, 0x4b, 0x1a, 0x3e, 0x78, 0x74, 0x13, 0xbe, 0xd5, 0x02, 0x3a, 0xbe,
  0x34, 0x9e, 0x2a, 0xbe, 0xb2, 0x60, 0x52, 0x3e, 0xb7, 0x4f, 0xc6, 0xbd,
  0x68, 0x05, 0xb6, 0xbd, 0x02, 0x8c, 0x63, 0xbe, 0x60, 0xc2, 0xbb, 0x3b,
  0x49, 0x87, 0xe1, 0xbd, 0xb8, 0xc5, 0x70, 0x3e, 0x5b, 0x82, 0x58, 0x3e,
  0xe2, 0x5a, 0x11, 0xbe, 0xd0, 0x4c, 0x0c, 0x3d, 0x94, 0x42, 0xd0, 0xbb,
  0x4d, 0x48, 0xc8, 0xbd, 0x7a, 0xc4, 0x14, 0x3e, 0xe8, 0x1e, 0xa1, 0x3d,
  0xef, 0x20, 0x38, 0x3e, 0x8f, 0xb2, 0x73, 0x3e, 0x5f, 0x45, 0x2c, 0xbd,
  0xe6, 0x6f, 0x6a, 0x3e, 0xe0, 0xc2, 0x17, 0x3e, 0x8c, 0xaf, 0x09, 0x3e,
  0xe1, 0x84, 0x3e, 0xbe, 0xf0, 0xb4, 0x96, 0x3d, 0x82, 0x12, 0x13, 0xbe,
  0x1d, 0x4d, 0xa0, 0xbc, 0x8c, 0xb0, 0xdb, 0x3b, 0xa2, 0x19, 0x4b, 0xbe,
  0xe2, 0xa8, 0xec, 0x3d, 0xf4, 0x8c, 0x80, 0x3a, 0x7d, 0x4c, 0x21, 0x3d,
  0x0e, 0xd3, 0xcd, 0xbd, 0x31, 0x0d, 0xa4, 0xbd, 0xe3, 0xd3, 0x72, 0xbe,
  0x3d, 0x06, 0x0d, 0x3e, 0xe3, 0x07, 0x42, 0xbe, 0xe7, 0x60, 0x5d, 0x3e,
  0xa6, 0x2f, 0x1a, 0xbd, 0xb6, 0x58, 0x1e, 0x3d, 0xa7, 0x9f, 0x4f, 0x3e,
  0xd2, 0x88, 0x5b, 0x3e, 0xae, 0x73, 0x76, 0x3e, 0x54, 0x60, 0x4d, 0xbd,
  0x15, 0x91, 0xcd, 0x3d, 0x20, 0x87, 0x32, 0x3a, 0x7e, 0x44, 0xa4, 0x3d,
  0x88, 0xb4, 0x91, 0xbd, 0xca, 0x68, 0xa0, 0xbd, 0xe4, 0xb4, 0x85, 0xbd,
  0x31, 0xfb, 0x69, 0xbe, 0x95, 0x30, 0x83, 0xbe, 0xec, 0x5a, 0x0a, 0xbe,
  0x8a, 0x89, 0x80, 0xbe, 0xa3, 0xeb, 0xf8, 0x3d, 0x73, 0xb1, 0x4d, 0xbe,
  0x88, 0xd0, 0xa8, 0x3d, 0x18, 0x08, 0x6d, 0xbe, 0x64, 0x1f, 0x2e, 0xbe,
  0x5a, 0xe3, 0x20, 0x3e, 0xc6, 0x8f, 0x8d, 0xbd, 0x6c, 0xb8, 0x57, 0xbe,
  0x7b, 0xdf, 0x88, 0xbd, 0xd2, 0x21, 0x83, 0xbd, 0x9e, 0x7d, 0x1f, 0xbd,
  0x3c, 0xdc, 0x4e, 0xbe, 0xe4, 0x96, 0x01, 0x3e, 0x7c, 0x3e, 0xbe, 0x3d,
  0x9e, 0x3e, 0x0d, 0xbe, 0x5c, 0xf6, 0x86, 0x3b, 0x8b, 0xc3, 0x31, 0x3e,
  0x7e, 0xec, 0xb9, 0xbd, 0x61, 0xde, 0x2c, 0x3e, 0x1e, 0x4d, 0x38, 0x3e,
  0xb4, 0xfd, 0x73, 0xbe, 0x7d, 0xd3, 0x26, 0x3e, 0x68, 0xc6, 0x16, 0x3e,
  0x43, 0x4b, 0x0d, 0xbe, 0x43, 0xcd, 0x49, 0x3e, 0x19, 0x05, 0x05, 0x3e,
  0x1a, 0x43, 0xed, 0xbb, 0x56, 0x92, 0x55, 0xbc, 0x42, 0xa0, 0x8e, 0xbb,
  0x3f, 0x88, 0xe6, 0x3a, 0xde, 0x57, 0xfa, 0x3d, 0x2b, 0x4f, 0xfa, 0x3c,
  0x8c, 0xc4, 0xc1, 0xbd, 0xa7, 0x48, 0xef, 0xbd, 0x44, 0x84, 0xfe, 0xbc,
  0x51, 0x3c, 0x32, 0x3e, 0xb9, 0x6c, 0x29, 0xbd, 0x6e, 0x88, 0x17, 0xbe,
  0x7e, 0x62, 0xbd, 0xbc, 0x80, 0x52, 0xda, 0xbc, 0x5d, 0xcb, 0x7f, 0x3d,
  0x22, 0x16, 0xe3, 0xbd, 0x41, 0x37, 0xbd, 0x3c, 0x2d, 0x0e, 0xd8, 0xbc,
  0x7a, 0xc1, 0x8a, 0x3d, 0x4f, 0xf7, 0x06, 0xbd, 0xb2, 0xcb, 0x41, 0x3d,
  0xee, 0x2a, 0x38, 0x3e, 0x77, 0xb9, 0xae, 0xbd, 0xa3, 0xc1, 0xb5, 0x3d,
  0x7c, 0x0a, 0x0f, 0x3e, 0xe1, 0x7e, 0x6f, 0xbe, 0xd6, 0xaf, 0x3c, 0x3d,
  0xad, 0xbf, 0x62, 0x3e, 0xa8, 0x22, 0x29, 0x3e, 0xd5, 0x30, 0xbf, 0xbd,
  0x3b, 0xc5, 0x0f, 0x3e, 0x9a, 0x01, 0x7d, 0x3d, 0xb5, 0x0b, 0xbb, 0xbd,
  0xe8, 0x09, 0xa0, 0x3d, 0x24, 0x64, 0x3f, 0xbe, 0x58, 0x60, 0x33, 0x3e,
  0xe6, 0xfe, 0xff, 0x3d, 0x06, 0x7e, 0xe1, 0x3d, 0x34, 0x70, 0x05, 0x3e,
  0xac, 0x69, 0x7e, 0x3d, 0x42, 0x58, 0x33, 0x3e, 0xac, 0x14, 0xe1, 0xbd,
  0xd0, 0x5e, 0x6c, 0x3e, 0xba, 0xbb, 0x10, 0x3d, 0x33, 0xdc, 0x66, 0xbe,
  0xf6, 0x0f, 0x22, 0x3e, 0x28, 0x53, 0x9a, 0xbd, 0x30, 0xba, 0xfd, 0xbd,
  0xdd, 0x23, 0x32, 0xbc, 0x92, 0xff, 0x03, 0xbe, 0xc9, 0x2c, 0x1b, 0xbd,
  0x05, 0xd1, 0x73, 0xbd, 0x5a, 0x10, 0x9f, 0xbd, 0xb7, 0x58, 0x0d, 0xbe,
  0x39, 0x0b, 0x52, 0xbd, 0xf7, 0x26, 0x08, 0xbe, 0x0a, 0x4d, 0xb8, 0xbc,
  0x0d, 0x26, 0x45, 0xbd, 0x4c, 0x65, 0x31, 0xbc, 0x70, 0xad, 0x9c, 0x3d,
  0x3e, 0xca, 0xa7, 0x3d, 0x3c, 0x14, 0xfa, 0xbd, 0x17, 0xd9, 0x1c, 0x3e,
  0x6c, 0xcc, 0x4a, 0xbe, 0x90, 0x18, 0xdb, 0x3d, 0x28, 0x12, 0xad, 0xbd,
  0xd0, 0x10, 0x99, 0x3d, 0x84, 0xf6, 0xfd, 0x3d, 0x8e, 0x88, 0x53, 0xbe,
  0x68, 0xb9, 0xe3, 0x3d, 0x10, 0x95, 0x06, 0x3e, 0x39, 0xe6, 0xa9, 0xbd,
  0xac, 0x74, 0x2c, 0xbe, 0x20, 0x61, 0x5c, 0x3e, 0x57, 0xb8, 0x73, 0xbd,
  0x05, 0xb6, 0x1a, 0xbc, 0x2b, 0xd7, 0x88, 0xbd, 0x6f, 0x9f, 0xf2, 0x3c,
  0x69, 0x40, 0x92, 0xbd, 0x53, 0x29, 0xac, 0x3d, 0x58, 0xe5, 0x02, 0xbe,
  0xd9, 0x8a, 0x56, 0x3d, 0x8f, 0xce, 0xca, 0x3d, 0xf2, 0xf1, 0x19, 0x3e,
  0x3a, 0xcd, 0xb7, 0x3c, 0xcc, 0x49, 0x5d, 0xbe, 0x08, 0xfc, 0xcc, 0xbd,
  0x1e, 0x6a, 0x52, 0xbe, 0xd4, 0x04, 0x5f, 0xbd, 0x28, 0xfa, 0xd4, 0x3d,
  0xd9, 0xca, 0x93, 0x3d, 0x9f, 0x4b, 0x29, 0xbe, 0x3d, 0xd8, 0x35, 0x3e,
  0x6b, 0x9d, 0x5d, 0x3e, 0x1a, 0x07, 0x3b, 0x3e, 0x7d, 0xb6, 0x09, 0xbe,
  0x62, 0x77, 0xa9, 0x3c, 0xaf, 0x08, 0x2e, 0xba, 0x8d, 0x2b, 0x7e, 0xbe,
  0x5a, 0x73, 0x2d, 0x3e, 0x62, 0x46, 0x5e, 0xbe, 0xbe, 0x3c, 0x05, 0x3d,
  0xe4, 0xab, 0x60, 0xbe, 0x51, 0x2d, 0x5c, 0xbe, 0xeb, 0x52, 0xab, 0xbd,
  0x3b, 0x48, 0xdc, 0x3d, 0x3d, 0xc6, 0xc3, 0xbc, 0xfa, 0xdb, 0x03, 0xbe,
  0x76, 0xb0, 0x41, 0x3e, 0xa9, 0x71, 0x58, 0xbe, 0x3e, 0x12, 0x2b, 0xbd,
  0x0f, 0x8d, 0xc5, 0x3d, 0x2a, 0xa4, 0x00, 0x3e, 0x2c, 0xaf, 0x8a, 0x3d,
  0x95, 0xcd, 0x64, 0x3d, 0x21, 0xb1, 0x55, 0xbd, 0x68, 0xc0, 0x76, 0xbd,
  0x57, 0x4a, 0xeb, 0xbd, 0x8a, 0x1e, 0x2a, 0xbe, 0x1a, 0x10, 0x5d, 0x3e,
  0x77, 0xbc, 0x3c, 0x3e, 0x0b, 0x50, 0x24, 0xbe, 0x78, 0x11, 0xc9, 0x3d,
  0xa4, 0x79, 0xea, 0xbd, 0x96, 0x30, 0xe1, 0x3d, 0x06, 0xf2, 0xad, 0xbd,
  0x5a, 0x78, 0xc5, 0xbd, 0x4e, 0xa2, 0x50, 0x3e, 0xb7, 0x1d, 0xfc, 0xbd,
  0x79, 0xd6, 0x2f, 0xbe, 0x3c, 0x9a, 0xc6, 0xba, 0xd8, 0x8f, 0x7b, 0xbe,
  0x05, 0x30, 0x1b, 0xbc, 0x90, 0xd9, 0xfe, 0x3d, 0xfc, 0xbd, 0xdb, 0x3d,
  0x35, 0xdc, 0x03, 0x3e, 0xa5, 0xd8, 0x2d, 0x3e, 0x90, 0x50, 0x37, 0xbe,
  0xa7, 0xd9, 0x4d, 0x3e, 0xef, 0xde, 0x13, 0x3e, 0x21, 0x55, 0xe3, 0x3d,
  0xf7, 0x0a, 0xa5, 0x3d, 0x5e, 0x55, 0x01, 0xbd, 0x99, 0xe2, 0x06, 0x3e,
  0x97, 0xc7, 0xb9, 0xbd, 0x08, 0x26, 0xc8, 0x3b, 0x1e, 0xac, 0x62, 0x3e,
  0x19, 0x77, 0xa2, 0x3d, 0xfb, 0x08, 0x36, 0xbe, 0xd6, 0xb2, 0x5c, 0xbe,
  0xeb, 0x64, 0x85, 0xbd, 0x50, 0x4a, 0x75, 0x3d, 0x66, 0x40, 0x0e, 0xbe,
  0x64, 0xf5, 0x2a, 0x3c, 0xfd, 0xfb, 0xfd, 0xbc, 0xce, 0x1d, 0x2b, 0x3d,
  0x83, 0x29, 0x54, 0xbe, 0xb6, 0x71, 0xa3, 0x3d, 0x1a, 0x4e, 0x0e, 0xbe,
  0x2b, 0xd6, 0x83, 0x3e, 0xf9, 0x05, 0x9d, 0xbd, 0x3b, 0x13, 0xb7, 0xbd,
  0x1d, 0xde, 0x6b, 0x3e, 0x1a, 0xfe, 0x4c, 0xbd, 0xe9, 0xed, 0x15, 0x3e,
  0xd5, 0xd9, 0xfe, 0x3d, 0x03, 0x98, 0x3e, 0x3e, 0x98, 0x97, 0x73, 0xbd,
  0x70, 0x14, 0x03, 0x38, 0xcc, 0x70, 0x70, 0x3e, 0x61, 0xb3, 0x28, 0xbe,
  0xf3, 0xfc, 0xaf, 0xbd, 0x7e, 0x38, 0x80, 0x3d, 0xec, 0xb9, 0x0a, 0xbe,
  0xc4, 0xef, 0xe3, 0x3d, 0xee, 0x32, 0x12, 0x3e, 0xec, 0xe0, 0x60, 0xbe,
  0x17, 0x47, 0x66, 0x3e, 0x76, 0xa7, 0x6f, 0xbd, 0xd3, 0x87, 0xdf, 0xbc,
  0x3a, 0x84, 0xa6, 0xbd, 0x4a, 0x66, 0x9d, 0x3d, 0xfd, 0x87, 0x47, 0xbd,
  0xa1, 0x5d, 0x7b, 0x3d, 0x19, 0x16, 0x38, 0x3e, 0x0a, 0xa5, 0x9b, 0x3d,
  0x50, 0xec, 0xfa, 0xbd, 0x80, 0x25, 0x11, 0xbe, 0x93, 0x91, 0x0d, 0xbe,
  0x92, 0x47, 0x6d, 0xbe, 0xa7, 0x05, 0x2a, 0x3d, 0x3a, 0x47, 0xed, 0xbd,
  0x25, 0x3f, 0x86, 0x3d, 0x4e, 0x90, 0x97, 0x3d, 0xfd, 0x9e, 0x41, 0xbd,
  0xd6, 0xdb, 0x19, 0x3d, 0x6e, 0x2d, 0xef, 0xbc, 0x98, 0x9c, 0x3b, 0xbd,
  0x86, 0x0d, 0x02, 0xbe, 0xba, 0xf2, 0x68, 0xbe, 0x6a, 0x3b, 0xa3, 0x3d,
  0x90, 0x43, 0x42, 0x3e, 0x89, 0xbc, 0x92, 0xbd, 0xef, 0xfb, 0x15, 0xbe,
  0x38, 0x31, 0x20, 0xbe, 0x68, 0x3b, 0xb9, 0xbc, 0xe9, 0xdc, 0xc9, 0x3d,
  0x7b, 0x42, 0x04, 0xbd, 0x5f, 0x82, 0xeb, 0x3c, 0xe2, 0xe5, 0x21, 0xbe,
  0xd2, 0x37, 0xa4, 0x3d, 0x1f, 0x56, 0xe8, 0xbd, 0xac, 0x31, 0xf7, 0xbd,
  0x3b, 0x27, 0x22, 0x3e, 0x3b, 0x72, 0x08, 0x3e, 0xad, 0x3f, 0x30, 0x3d,
  0x0a, 0xc9, 0xaf, 0xbd, 0xd5, 0x57, 0x15, 0xbd, 0x7f, 0x0b, 0xc2, 0x3d,
  0x4e, 0x54, 0x07, 0x3e, 0x48, 0x06, 0xe7, 0x3d, 0x35, 0xfa, 0xa2, 0xbd,
  0x9f, 0xf2, 0xfd, 0xbc, 0x2f, 0x70, 0x1f, 0x3e, 0xe0, 0x5f, 0x4b, 0x3e,
  0x04, 0xb9, 0x45, 0xbe, 0xb7, 0xc5, 0x1d, 0xbe, 0xdc, 0x33, 0x23, 0xbe,
  0xc2, 0x16, 0x41, 0x3e, 0x16, 0xd6, 0xf5, 0x3d, 0x28, 0x59, 0x1a, 0x3e,
  0xe6, 0x50, 0x09, 0x3c, 0x37, 0x46, 0x31, 0xbe, 0x15, 0x2a, 0x82, 0x3e,
  0x28, 0x34, 0x56, 0xbc, 0xb9, 0x73, 0x6d, 0x3e, 0x84, 0xeb, 0x06, 0xbe,
  0x42, 0xed, 0xe1, 0x3a, 0x60, 0x46, 0x2c, 0x3e, 0x2f, 0x17, 0x3f, 0xbe,
  0x46, 0x85, 0x64, 0xbc, 0x5a, 0x95, 0x2d, 0xbe, 0xc7, 0x12, 0x3a, 0xbe,
  0xb4, 0xc5, 0x56, 0xbe, 0x96, 0x66, 0x9b, 0xbd, 0x44, 0x76, 0x70, 0xbe,
  0x00, 0x8f, 0xce, 0xbd, 0xd1, 0xa9, 0x79, 0x3e, 0xd2, 0xe5, 0xfe, 0xbd,
  0xb9, 0x8f, 0xb1, 0x3a, 0xe4, 0x63, 0xc8, 0x3c, 0x17, 0x1a, 0x7b, 0xbe,
  0xb3, 0x61, 0x99, 0x3d, 0x48, 0xda, 0x24, 0x3e, 0x17, 0x79, 0x0b, 0xbe,
  0x8b, 0x49, 0x4e, 0xbe, 0x49, 0xbf, 0x35, 0xbe, 0xe1, 0x7d, 0x8b, 0x3c,
  0xee, 0xfd, 0x1e, 0x3d, 0x15, 0xd9, 0xd2, 0x3d, 0xdd, 0xeb, 0x1c, 0x3e,
  0xf8, 0xb9, 0x08, 0x3e, 0x8a, 0x68, 0xb7, 0xbb, 0x0c, 0x8a, 0x46, 0x3e,
  0xe4, 0x05, 0x0b, 0x3e, 0xc1, 0x60, 0x45, 0xbe, 0xe0, 0x7d, 0xf6, 0xbc,
  0x96, 0xf9, 0x06, 0xbe, 0xf5, 0x26, 0x2a, 0xbd, 0x30, 0x32, 0x49, 0xbe,
  0x5c, 0x3a, 0x94, 0xbb, 0x90, 0x0c, 0x3c, 0x3b, 0x79, 0x9d, 0x1a, 0x3e,
  0xe0, 0xc7, 0xf9, 0xbc, 0x7e, 0x62, 0x5f, 0x3e, 0x94, 0x13, 0x7b, 0xbe,
  0x36, 0x2b, 0x47, 0xbe, 0xad, 0xc7, 0x39, 0x3e, 0x50, 0xe6, 0x6d, 0x3d,
  0x6d, 0x20, 0x84, 0xbe, 0x28, 0xf9, 0x54, 0xbb, 0x23, 0xb1, 0x3d, 0x3d,
  0x04, 0x61, 0xe0, 0x3d, 0x1e, 0x19, 0x65, 0x3e, 0xa5, 0x35, 0xcc, 0xbd,
  0xcb, 0x88, 0x70, 0xbd, 0x85, 0x4e, 0x33, 0xbe, 0xa5, 0x54, 0x13, 0x3e,
  0x91, 0xe3, 0x46, 0x3e, 0x87, 0x58, 0xe4, 0x3d, 0x4e, 0xb3, 0x70, 0xbe,
  0xeb, 0x04, 0x83, 0x3d, 0x5e, 0xf8, 0xa0, 0x3d, 0xc9, 0x43, 0x92, 0xbd,
  0xdd, 0x12, 0x19, 0x3d, 0xe7, 0xfa, 0x9b, 0xbb, 0x38, 0x7d, 0x56, 0xbc,
  0x78, 0x4d, 0xfd, 0x3d, 0x58, 0x37, 0x34, 0xbe, 0x82, 0xe5, 0xb8, 0x3b,
  0xcd, 0x78, 0x7b, 0x3e, 0x67, 0x6e, 0xde, 0xbd, 0x2e, 0x7b, 0x7b, 0xbd,
  0x1a, 0x52, 0x29, 0xbe, 0x10, 0x90, 0x80, 0xbe, 0x27, 0x4a, 0x85, 0x3d,
  0xb1, 0x17, 0xfb, 0xbd, 0xe2, 0x9d, 0x8b, 0x3c, 0x53, 0x76, 0x11, 0xbd,
  0x23, 0x2a, 0xdd, 0xbd, 0x3e, 0x39, 0x25, 0x3d, 0x28, 0x77, 0x83, 0x3e,
  0x7e, 0x9f, 0x41, 0x3e, 0x29, 0x18, 0x58, 0x3e, 0x4b, 0x70, 0x1b, 0xbe,
  0xc1, 0x5c, 0x5a, 0x3e, 0x06, 0x6e, 0xb0, 0x3d, 0x67, 0xe5, 0x1e, 0xbe,
  0xb2, 0xe6, 0x75, 0x3e, 0xf7, 0xd3, 0x42, 0xbc, 0x0a, 0xf6, 0xf6, 0x3c,
  0x7a, 0xd6, 0x55, 0xbe, 0x40, 0x8d, 0x44, 0x3c, 0x29, 0xc2, 0x8a, 0x3c,
  0xfc, 0x6e, 0x14, 0x3e, 0x55, 0xa0, 0x95, 0x3d, 0x94, 0xa5, 0x6c, 0x3e,
  0xd9, 0xca, 0x24, 0x3e, 0xdc, 0x0a, 0x62, 0xbe, 0x50, 0x37, 0xba, 0x3d,
  0xdc, 0xd4, 0x3a, 0x3e, 0xf9, 0x38, 0x5a, 0xbe, 0x40, 0x29, 0xe3, 0xbd,
  0x13, 0xc4, 0x58, 0x3e, 0xad, 0x29, 0x33, 0x3e, 0xe2, 0xff, 0x6d, 0xbe,
  0x88, 0x9e, 0x71, 0xbe, 0x11, 0xac, 0x82, 0x3e, 0xe9, 0x55, 0xbd, 0xbd,
  0x0b, 0x5e, 0x36, 0xbe, 0x69, 0xca, 0xa3, 0x3c, 0x57, 0xb0, 0x0c, 0xbe,
  0x00, 0x18, 0xf9, 0x3a, 0xaf, 0x02, 0xd3, 0x3d, 0xf5, 0xd3, 0xc0, 0xbd,
  0x02, 0x60, 0x46, 0xbe, 0x43, 0x83, 0xcc, 0xbd, 0x4e, 0x80, 0xcd, 0xbd,
  0xf3, 0xe5, 0xc5, 0x3d, 0x7d, 0xaf, 0x4e, 0xbe, 0x88, 0xef, 0xb5, 0x3d,
  0xf2, 0xf4, 0x4f, 0xbe, 0xfd, 0xc1, 0x6d, 0x3e, 0xf8, 0x0c, 0x2f, 0x3b,
  0x00, 0x2a, 0x3f, 0xbb, 0xda, 0xa6, 0x5d, 0x3e, 0x55, 0xff, 0x10, 0xbd,
  0xeb, 0xb9, 0x70, 0xbe, 0xa5, 0x78, 0x03, 0xbd, 0xc0, 0x97, 0x40, 0xbe,
  0xa4, 0xa1, 0x5a, 0xbe, 0xd5, 0xd5, 0x55, 0xbe, 0x35, 0xd9, 0xe9, 0x3c,
  0x30, 0xc3, 0xee, 0xbd, 0x22, 0x91, 0x32, 0xbe, 0xf3, 0x2a, 0x32, 0x3c,
  0xe8, 0x41, 0x53, 0x3d, 0xe1, 0xa6, 0x37, 0xbe, 0x70, 0x99, 0x8e, 0xbd,
  0x86, 0x87, 0x81, 0x3e, 0x98, 0x2f, 0x00, 0x3e, 0x8f, 0x23, 0xce, 0x3b,
  0x4c, 0xe6, 0xd1, 0xbd, 0xc0, 0xd6, 0x54, 0xbc, 0x3e, 0x2b, 0x32, 0xbe,
  0x98, 0x70, 0x2f, 0x3e, 0x71, 0xa3, 0x08, 0xbe, 0xeb, 0xcb, 0xd2, 0x3c,
  0xdc, 0x00, 0xf4, 0xbd, 0x76, 0x84, 0xf9, 0xbd, 0xfc, 0x39, 0xa7, 0xbc,
  0x8c, 0x27, 0x14, 0x3d, 0x37, 0x1d, 0x4a, 0xbe, 0x60, 0x30, 0x08, 0xbe,
  0xfc, 0x9e, 0x52, 0xbc, 0x7a, 0x25, 0x58, 0xbe, 0x8c, 0x9c, 0x11, 0x3e,
  0x8e, 0xd2, 0x29, 0xbe, 0xaa, 0x7d, 0x5f, 0x3e, 0x8d, 0xd4, 0x2b, 0xbe,
  0x34, 0x41, 0x0a, 0x3e, 0xe2, 0xf8, 0xc5, 0x3d, 0xc0, 0x90, 0xff, 0x3c,
  0x82, 0x30, 0x17, 0x3e, 0x62, 0x42, 0xf1, 0xbd, 0x1b, 0x3c, 0xf2, 0x3d,
  0x7d, 0x86, 0x47, 0xbe, 0x10, 0x59, 0x59, 0xbd, 0x7d, 0x9c, 0x38, 0xbe,
  0xd2, 0x69, 0x22, 0x3e, 0x44, 0xb9, 0x9d, 0x3d, 0x0b, 0xab, 0x3e, 0x3d,
  0xd5, 0xc4, 0x6e, 0xbe, 0x1f, 0xf7, 0xc7, 0xbd, 0x74, 0x9f, 0x20, 0x3e,
  0x36, 0xe3, 0xb2, 0x3d, 0xe0, 0xc7, 0x5b, 0x3e, 0x77, 0x90, 0x52, 0x3e,
  0x13, 0x19, 0x3b, 0x3e, 0x21, 0xbe, 0x80, 0xbd, 0x8a, 0xc9, 0x4a, 0x3d,
  0xe3, 0x8e, 0xcf, 0xbd, 0xc0, 0xed, 0x1a, 0x3e, 0xbf, 0xae, 0x82, 0x3e,
  0xe1, 0x17, 0x9f, 0xbd, 0x9b, 0xc2, 0x5f, 0xbd, 0x7f, 0x3b, 0x4d, 0x3e,
  0x65, 0x31, 0xfd, 0x3d, 0xbf, 0xa8, 0x83, 0x3e, 0xc8, 0x0a, 0xd3, 0xbd,
  0x14, 0x44, 0x43, 0xbe, 0x90, 0x11, 0x2a, 0xbe, 0x6f, 0xc5, 0x71, 0x3d,
  0xcd, 0xa8, 0xfe, 0xbd, 0x1a, 0x29, 0xb7, 0x3d, 0x34, 0x2f, 0x4a, 0x3d,
  0x42, 0xa3, 0x2c, 0xbe, 0xbb, 0x08, 0x1d, 0xbd, 0xf8, 0x30, 0xf8, 0x3d,
  0xd3, 0xf7, 0xd6, 0xbd, 0xb7, 0xfd, 0xc4, 0x3c, 0x16, 0x2d, 0x4b, 0x3e,
  0xe9, 0x3b, 0x22, 0xbe, 0x98, 0x06, 0x14, 0x3e, 0xc0, 0xdb, 0x70, 0xbe,
  0x0c, 0x52, 0x2f, 0xbe, 0xc0, 0xf1, 0x07, 0xbd, 0xf8, 0xb2, 0x94, 0x3d,
  0x17, 0x44, 0xb7, 0x3b, 0xad, 0x37, 0x74, 0x3e, 0x09, 0x0f, 0x53, 0x3e,
  0xec, 0x74, 0x58, 0xbe, 0x9d, 0x8f, 0x5d, 0xbd, 0x57, 0x93, 0x07, 0xbe,
  0xd4, 0xbd, 0x01, 0xbe, 0xe4, 0x50, 0x3c, 0xbe, 0x90, 0xcb, 0x46, 0xbc,
  0xc2, 0x80, 0xe8, 0x3d, 0xe0, 0x1b, 0xee, 0xbc, 0x89, 0xf7, 0x30, 0xbe,
  0x93, 0xb8, 0xe0, 0xbd, 0x3c, 0xc8, 0x24, 0xbe, 0xf5, 0xe5, 0x61, 0xbe,
  0xb8, 0xcb, 0x03, 0x3e, 0x78, 0x07, 0x3d, 0xbe, 0x55, 0xfa, 0x5d, 0xbe,
  0x80, 0x4b, 0x95, 0x3d, 0xa9, 0xe2, 0xd1, 0x3d, 0x00, 0x53, 0x05, 0xbe,
  0xf2, 0x94, 0x75, 0xbe, 0x74, 0x95, 0xf0, 0xbd, 0xbd, 0xf9, 0x2d, 0x3d,
  0x87, 0x52, 0x5f, 0x3e, 0xa4, 0xb9, 0x52, 0x3e, 0xbc, 0x06, 0x55, 0xbe,
  0xec, 0xb1, 0x17, 0xbe, 0x18, 0x39, 0xb1, 0xbd, 0x00, 0x41, 0x7c, 0x3c,
  0xfb, 0x1d, 0x74, 0xbc, 0x9f, 0x2f, 0x0b, 0x3e, 0xb2, 0x28, 0xfb, 0xbd,
  0x73, 0xa9, 0x21, 0x3d, 0x56, 0x6e, 0x25, 0x3d, 0x0a, 0x5f, 0x57, 0x3e,
  0xe6, 0x85, 0x1b, 0x3d, 0xa4, 0xb4, 0x84, 0x3e, 0x70, 0x1d, 0xef, 0xbd,
  0xa6, 0xcd, 0xfc, 0xbd, 0x80, 0x88, 0x53, 0x3d, 0x75, 0x06, 0x74, 0x3e,
  0x19, 0xd0, 0x58, 0xbe, 0xc8, 0xb9, 0x19, 0x3e, 0x17, 0x7d, 0xea, 0x3d,
  0x35, 0xef, 0x42, 0x3d, 0xf3, 0xf9, 0x92, 0xbd, 0xb2, 0xf5, 0x81, 0xbe,
  0x30, 0xd3, 0x6c, 0x3d, 0x85, 0xe9, 0x3c, 0xbd, 0x02, 0x4e, 0x80, 0x3d,
  0x10, 0x87, 0xe5, 0xbd, 0x30, 0x37, 0x7e, 0x3d, 0x60, 0xdc, 0x9f, 0xbd,
  0xc4, 0x3c, 0xf3, 0xbd, 0xa8, 0x23, 0x1f, 0xbe, 0x8a, 0xf7, 0x64, 0x3e,
  0x41, 0xda, 0xdd, 0x3d, 0xf0, 0xd3, 0x32, 0xbe, 0x64, 0xf8, 0xb7, 0xbd,
  0xc6, 0x3f, 0x45, 0xbe, 0x9c, 0x5a, 0xf4, 0xbd, 0xc4, 0xbc, 0x0a, 0x3d,
  0x70, 0xc3, 0x43, 0xbd, 0x26, 0x97, 0x4e, 0xbe, 0x31, 0x9f, 0x11, 0xbe,
  0xac, 0xb5, 0x24, 0xbe, 0xc0, 0x86, 0xcd, 0xbc, 0xa2, 0xd9, 0x61, 0xbe,
  0x84, 0x07, 0xfb, 0xbd, 0x2f, 0xf6, 0x8b, 0x3d, 0x4c, 0x42, 0x99, 0x3d,
  0x18, 0x2e, 0xf1, 0x3d, 0xf7, 0xf1, 0x1f, 0x3e, 0xe9, 0xfb, 0x73, 0xbd,
  0xd7, 0x5f, 0x4a, 0xbe, 0x9b, 0x03, 0xba, 0x3c, 0xc8, 0x5b, 0x08, 0x3e,
  0x59, 0xf3, 0xe9, 0x3d, 0x9b, 0x52, 0x99, 0xbd, 0xde, 0xca, 0x00, 0x3d,
  0x00, 0xf7, 0x2b, 0x3c, 0x28, 0xca, 0xe7, 0xbd, 0x04, 0x8c, 0xd9, 0xbc,
  0x84, 0xfd, 0x10, 0x3e, 0xd0, 0x2b, 0xac, 0x3d, 0xed, 0xdf, 0x79, 0xbd,
  0xc0, 0xc3, 0xe7, 0x3c, 0x80, 0xdf, 0x28, 0x3d, 0x10, 0x23, 0x45, 0xbe,
  0xbe, 0x38, 0x0b, 0x3e, 0x1d, 0x24, 0x3b, 0x3e, 0x02, 0xe9, 0x82, 0xbe,
  0xe0, 0xbe, 0xcb, 0xbb, 0x30, 0xe1, 0x41, 0x3e, 0x09, 0x08, 0x5e, 0x3e,
  0x6f, 0x69, 0x14, 0x3e, 0xe4, 0x35, 0x02, 0x3e, 0x58, 0x87, 0xe4, 0xbd,
  0x0c, 0x8e, 0xd5, 0xbc, 0xc0, 0x87, 0x42, 0x3d, 0xa0, 0x07, 0xc0, 0x3d,
  0x30, 0xde, 0x2c, 0xbd, 0x67, 0xfa, 0xeb, 0x3d, 0xeb, 0xaf, 0x02, 0x3e,
  0x58, 0x60, 0xe4, 0xbd, 0xfa, 0x2e, 0x08, 0xbe, 0xe0, 0x40, 0x78, 0xbe,
  0xc9, 0xfd, 0x24, 0xbd, 0x3a, 0x00, 0x65, 0x3e, 0xc0, 0x8b, 0x02, 0x3c,
  0x74, 0x75, 0x50, 0xbe, 0xca, 0x1c, 0x42, 0x3c, 0xc0, 0x42, 0x52, 0xbe,
  0xc7, 0x52, 0x4c, 0xbe, 0x81, 0xf4, 0x80, 0xbe, 0x83, 0xee, 0xa8, 0xbd,
  0x10, 0xa0, 0x7e, 0x3e, 0x95, 0x9e, 0x52, 0x3e, 0xf4, 0x08, 0x06, 0xbe,
  0x80, 0x99, 0x19, 0x3d, 0x3e, 0x51, 0xa9, 0xbd, 0x00, 0x07, 0x86, 0x3d,
  0x3c, 0x02, 0xc5, 0x3d, 0xb9, 0xc9, 0x02, 0x3d, 0x10, 0x18, 0x44, 0xbe,
  0xe8, 0x05, 0x8f, 0x3d, 0x35, 0x51, 0x8d, 0x3d, 0x2f, 0xfa, 0xaa, 0x3d,
  0x5f, 0x7e, 0x64, 0xbe, 0x53, 0x27, 0x6e, 0xbd, 0x23, 0x4e, 0xe1, 0xbd,
  0x77, 0xcf, 0x49, 0x3e, 0x30, 0xa8, 0x88, 0x3d, 0x06, 0xa5, 0x65, 0x3e,
  0xf0, 0x63, 0x75, 0xbe, 0x65, 0xe6, 0x40, 0xbb, 0x2f, 0xc4, 0x5c, 0x3e,
  0x75, 0x23, 0xa5, 0xbd, 0xf8, 0x4f, 0xd1, 0xbd, 0x00, 0xcc, 0x80, 0x3d,
  0x1e, 0xfa, 0xc5, 0x3d, 0x84, 0x10, 0x5a, 0xbe, 0x3f, 0x01, 0x52, 0xbe,
  0xe7, 0x96, 0xa8, 0xbd, 0x02, 0x2b, 0x1d, 0x3d, 0x5e, 0x72, 0x22, 0x3e,
  0x09, 0x32, 0xf7, 0x3d, 0xd0, 0x14, 0x00, 0x3e, 0x35, 0x7e, 0x33, 0x3d,
  0xa0, 0x38, 0x1f, 0xbe, 0x47, 0x9a, 0x04, 0xbc, 0x64, 0xd4, 0x74, 0xbe,
  0x78, 0xa1, 0xd5, 0xbd, 0x8e, 0x78, 0x6b, 0xbe, 0xa2, 0xc1, 0xf5, 0xbd,
  0xaa, 0x38, 0xea, 0x3d, 0x52, 0x74, 0x68, 0x3d, 0xc8, 0x5b, 0x18, 0x3e,
  0x8c, 0x27, 0x59, 0x3e, 0xf9, 0x6c, 0x6d, 0xbe, 0x2b, 0xbd, 0x17, 0x3e,
  0xb0, 0x46, 0x86, 0xbd, 0x12, 0xce, 0xd6, 0xbd, 0xda, 0x9e, 0x89, 0x3d,
  0xbd, 0x31, 0x3b, 0x3d, 0x8b, 0x92, 0x7f, 0xbe, 0x64, 0x58, 0x71, 0xbe,
  0x4a, 0x68, 0x81, 0x3e, 0x18, 0x04, 0x59, 0xbd, 0xa4, 0x4e, 0x98, 0x3c,
  0xa0, 0x0a, 0x53, 0xbe, 0xa2, 0xe7, 0xa7, 0xbd, 0x90, 0xac, 0x1a, 0x3d,
  0x1f, 0x0f, 0x54, 0xbe, 0x35, 0xc6, 0x5f, 0x3e, 0x47, 0xaf, 0x90, 0x3d,
  0x1c, 0x8d, 0x14, 0x3e, 0xf4, 0xbc, 0x43, 0xbe, 0x66, 0x5b, 0x75, 0x3b,
  0xd7, 0xfb, 0x48, 0x3c, 0xc7, 0x42, 0x0d, 0xbe, 0x01, 0x37, 0xc4, 0xbd,
  0xdc, 0x8b, 0x38, 0xbe, 0x5d, 0x2b, 0x05, 0x3e, 0x69, 0xe2, 0xf3, 0x3c,
  0xea, 0x9d, 0x28, 0xbe, 0xb4, 0x25, 0x66, 0x3c, 0xfe, 0x1b, 0xd4, 0x3c,
  0x0c, 0xac, 0x7b, 0x3e, 0x3e, 0xfe, 0x71, 0xbe, 0xd9, 0x90, 0x3e, 0xbe,
  0x71, 0xc2, 0xc3, 0xbd, 0x97, 0xf1, 0xd4, 0xbd, 0x4f, 0xa5, 0xcd, 0x3d,
  0x03, 0x52, 0xc0, 0xbd, 0x64, 0xbc, 0x3b, 0x3e, 0x77, 0x10, 0x0c, 0xbd,
  0xb9, 0xd2, 0x01, 0x3e, 0xe3, 0xce, 0x3d, 0x3e, 0x34, 0xb2, 0xf4, 0x3d,
  0x87, 0xaf, 0xe5, 0xbd, 0x77, 0x1d, 0x62, 0xbe, 0x90, 0x39, 0xb5, 0xbc,
  0x1c, 0x77, 0x72, 0x3e, 0x17, 0x8b, 0xa4, 0xbd, 0x6b, 0x89, 0x1a, 0x3d,
  0xcd, 0x0d, 0x38, 0x3e, 0xa2, 0x04, 0x5b, 0x3e, 0xea, 0xa2, 0x73, 0xbe,
  0x44, 0x75, 0x55, 0xbe, 0x5a, 0xba, 0x6b, 0xbe, 0xde, 0x8d, 0x25, 0x3e,
  0x66, 0xe1, 0xc9, 0xbd, 0x27, 0xfa, 0x62, 0xbd, 0x75, 0x89, 0x0b, 0x3e,
  0x91, 0x12, 0x55, 0xbe, 0xb6, 0xca, 0xf6, 0x3d, 0x85, 0xd0, 0xb9, 0x3d,
  0xcb, 0x36, 0x16, 0xbd, 0x76, 0xe8, 0x53, 0x3e, 0xc3, 0xcc, 0x81, 0xbd,
  0x7f, 0x2c, 0x7f, 0x3d, 0x4b, 0x09, 0x9c, 0xbd, 0xc9, 0x4a, 0x5d, 0x3e,
  0x8d, 0x13, 0x2e, 0x3e, 0x21, 0x5e, 0xab, 0xbc, 0x2f, 0xa6, 0x23, 0xbe,
  0x6e, 0xb2, 0xf2, 0x3d, 0xcf, 0xcf, 0x3d, 0xbe, 0x55, 0x87, 0x15, 0xbd,
  0x2e, 0x40, 0x77, 0x3d, 0x52, 0x2c, 0x4d, 0x3e, 0x38, 0xfa, 0x05, 0xbe,
  0xa2, 0x4c, 0xe7, 0xbd, 0x49, 0x42, 0x2e, 0xbd, 0x6f, 0xb3, 0x10, 0xbe,
  0xf7, 0x97, 0x7c, 0xbd, 0xa3, 0xb6, 0xf9, 0x3c, 0x3a, 0x35, 0xdb, 0xbd,
  0xb3, 0xc3, 0x58, 0xbe, 0xb0, 0xee, 0x36, 0x3e, 0xf5, 0xd3, 0xc4, 0x3c,
  0xf4, 0x74, 0x10, 0xbe, 0x6e, 0xa1, 0x56, 0x3e, 0x1b, 0x68, 0x4e, 0xbe,
  0x63, 0xe2, 0x08, 0xbd, 0xfb, 0xff, 0x34, 0x3e, 0x45, 0x3c, 0x92, 0xbd,
  0x90, 0xac, 0x2f, 0x3e, 0x39, 0x3a, 0x0f, 0x3e, 0x1f, 0xbe, 0x58, 0x3e,
  0xb8, 0x4a, 0x0e, 0x3e, 0xc3, 0x96, 0xb1, 0x3d, 0x28, 0x3b, 0xdb, 0xbd,
  0x25, 0x31, 0xa7, 0xbc, 0xcc, 0x32, 0x3b, 0xbe, 0xb8, 0x9b, 0x67, 0xbc,
  0xa0, 0xe9, 0x87, 0xbd, 0x98, 0x86, 0x76, 0x3e, 0x58, 0xff, 0xc7, 0x3d,
  0x88, 0x84, 0x40, 0xbe, 0x28, 0x26, 0xfc, 0xbd, 0x64, 0x93, 0x4b, 0xbe,
  0x25, 0xb3, 0x8b, 0xbd, 0xa3, 0xd2, 0x21, 0xbe, 0x22, 0x66, 0x23, 0x3e,
  0x96, 0x7a, 0x73, 0x3e, 0xb0, 0xde, 0x5d, 0x3e, 0x0d, 0x23, 0x9f, 0xbc,
  0x02, 0xfb, 0x8f, 0x3d, 0xc0, 0xc7, 0x61, 0xbd, 0xf6, 0x09, 0x68, 0xbe,
  0x42, 0x93, 0x55, 0xbe, 0x80, 0xdd, 0xee, 0xbb, 0xe2, 0x9b, 0xaa, 0xbd,
  0x79, 0x5f, 0x78, 0xbe, 0x53, 0x53, 0x43, 0x3e, 0x4b, 0xa5, 0x3c, 0xbe,
  0x9f, 0xe9, 0x50, 0xbe, 0x04, 0xfd, 0x2e, 0xbd, 0x96, 0x13, 0xae, 0x3d,
  0xe0, 0x4f, 0xaf, 0x3d, 0x8b, 0x1a, 0x68, 0x3e, 0xc4, 0x94, 0x20, 0xbe,
  0xc8, 0x78, 0xf9, 0x3d, 0xd9, 0x0d, 0x58, 0x3e, 0x89, 0x0c, 0x13, 0xbe,
  0x46, 0x53, 0x83, 0x3e, 0xc1, 0x30, 0x31, 0x3e, 0xa7, 0x16, 0x0b, 0xbe,
  0x85, 0x4c, 0x4c, 0xbe, 0x4f, 0x7d, 0x6c, 0xbe, 0xd7, 0xa2, 0x36, 0xbd,
  0xe9, 0x98, 0x22, 0x3e, 0x1b, 0x93, 0x94, 0x3d, 0x68, 0x8f, 0xc4, 0xbd,
  0xdb, 0x91, 0xe8, 0x3d, 0xdc, 0xc2, 0x0b, 0x3e, 0x5f, 0x0a, 0xe6, 0xbd,
  0x88, 0x36, 0x60, 0xbe, 0x59, 0x98, 0xb9, 0xbd, 0x21, 0xc4, 0x43, 0xbe,
  0x15, 0x13, 0x60, 0x3e, 0x00, 0x8e, 0x1f, 0xbd, 0x2a, 0xf5, 0x49, 0xbe,
  0xa9, 0x65, 0x87, 0xbc, 0x5c, 0xb0, 0x73, 0xbe, 0x01, 0x36, 0x7f, 0xbe,
  0x4e, 0xf5, 0x3b, 0x3e, 0xd0, 0x34, 0xed, 0x3d, 0xe5, 0x18, 0x3d, 0xbd,
  0x40, 0x44, 0x59, 0x3d, 0x06, 0xda, 0xee, 0x3d, 0x4f, 0x23, 0x6d, 0x3a,
  0xb7, 0x0e, 0x42, 0x3e, 0x6b, 0x6e, 0x54, 0xbe, 0xf9, 0xc1, 0x92, 0x3d,
  0x13, 0x65, 0x8d, 0x3d, 0xef, 0xce, 0x05, 0xbe, 0x94, 0xd2, 0xef, 0x3d,
  0x85, 0xdb, 0x07, 0x3e, 0x3d, 0x90, 0x3c, 0x3e, 0xff, 0xb0, 0xf2, 0xbd,
  0x1c, 0xd4, 0x5b, 0x3d, 0x89, 0xd5, 0xf2, 0x3c, 0x9f, 0x55, 0x6f, 0x3e,
  0x17, 0x88, 0x4a, 0x3d, 0xee, 0xc4, 0x4f, 0x3e, 0x1a, 0xc7, 0x57, 0xbe,
  0x92, 0x94, 0x46, 0x3e, 0xf1, 0x04, 0xf6, 0xbb, 0xb5, 0xae, 0x89, 0x3d,
  0x5b, 0xe3, 0x73, 0xbc, 0x26, 0x72, 0x6c, 0x3e, 0xf9, 0x88, 0xd2, 0x3d,
  0x70, 0xa8, 0xdb, 0xbc, 0xb4, 0x91, 0x8a, 0x3c, 0x10, 0xac, 0xed, 0x3d,
  0x74, 0xb5, 0x6a, 0x3e, 0x60, 0x32, 0xbc, 0xbd, 0xeb, 0x53, 0x4f, 0xbe,
  0xfc, 0x0e, 0x5a, 0xbe, 0xab, 0x52, 0xb9, 0x3c, 0xc5, 0x21, 0x8c, 0xbd,
  0x79, 0x24, 0x10, 0x3e, 0xfc, 0x7a, 0x89, 0xbd, 0xfa, 0xd1, 0x56, 0xbe,
  0x82, 0x79, 0xf2, 0xbc, 0x84, 0xcc, 0x32, 0xbb, 0x69, 0xec, 0x7d, 0xbe,
  0x2e, 0x89, 0x0c, 0x3e, 0xc7, 0xb1, 0x67, 0xbd, 0xc5, 0x51, 0x0f, 0x3e,
  0x4d, 0x86, 0xe7, 0x3d, 0xe6, 0x01, 0x38, 0x3e, 0x8d, 0x61, 0x75, 0xbb,
  0xf6, 0xeb, 0x40, 0x3e, 0x87, 0xa8, 0x00, 0x3e, 0x86, 0xb4, 0x04, 0xbe,
  0xb3, 0x7a, 0x3b, 0xbe, 0xff, 0xef, 0xe3, 0xbd, 0x96, 0xea, 0x24, 0x3e,
  0xc5, 0x3a, 0x8b, 0x3d, 0x25, 0x16, 0x52, 0xbd, 0xa4, 0x99, 0xe1, 0x3a,
  0xb6, 0xa3, 0x7f, 0xbe, 0x00, 0x5f, 0x49, 0xbe, 0x38, 0x9f, 0x9b, 0xbc,
  0xdf, 0x9c, 0x53, 0x3d, 0xff, 0xd5, 0x18, 0x3d, 0x75, 0x1a, 0x2c, 0xbe,
  0x4a, 0x04, 0x45, 0x3e, 0xea, 0x1e, 0xbd, 0x3d, 0x03, 0x48, 0xcd, 0xbd,
  0x26, 0xd5, 0x9d, 0xbd, 0x45, 0xbf, 0xc5, 0x3d, 0x71, 0x85, 0x94, 0xbc,
  0x6d, 0x70, 0x7c, 0x3d, 0x9f, 0xd4, 0xff, 0xbc, 0x83, 0x9b, 0x6e, 0xbe,
  0xff, 0x7f, 0x23, 0x3e, 0x0d, 0xbe, 0x42, 0xbe, 0xf2, 0x75, 0x68, 0x3d,
  0x97, 0x7d, 0x7f, 0x3d, 0xf6, 0x46, 0x15, 0x3e, 0x56, 0x7b, 0xec, 0xbd,
  0xe2, 0x5e, 0x39, 0x3e, 0xc4, 0xf5, 0x7c, 0x3e, 0xa1, 0x65, 0x76, 0x3e,
  0x7c, 0x93, 0x70, 0x3e, 0xd6, 0x62, 0x1b, 0xbe, 0xb7, 0x85, 0x38, 0x3e,
  0xcd, 0x07, 0xc1, 0x3d, 0xf2, 0x84, 0xd8, 0xbd, 0x59, 0xa9, 0x8b, 0xbd,
  0x84, 0xfe, 0x53, 0x3e, 0xca, 0xf2, 0xf2, 0xbd, 0x7d, 0x37, 0x3b, 0x3e,
  0x15, 0xa4, 0x3e, 0x3d, 0x61, 0xf4, 0x1b, 0x3e, 0x2c, 0x3d, 0xb9, 0xbc,
  0x71, 0x9d, 0x28, 0xbe, 0x7b, 0x94, 0x65, 0x3e, 0xbe, 0xca, 0x5d, 0x3e,
  0x57, 0xe4, 0x53, 0x3e, 0xd5, 0xec, 0x26, 0x3e, 0x19, 0xf4, 0xee, 0x3d,
  0xc7, 0xa5, 0x46, 0xbe, 0x85, 0x4d, 0x1a, 0x3e, 0x0b, 0x50, 0x08, 0x3e,
  0xa1, 0xf9, 0x3d, 0xbd, 0xa1, 0x10, 0x2c, 0x3d, 0x08, 0xd6, 0xfe, 0xbd,
  0xf5, 0xff, 0x56, 0xbe, 0x74, 0xc4, 0x8a, 0x3c, 0x94, 0xa7, 0x01, 0xbe,
  0xe2, 0xee, 0x6d, 0x3e, 0x82, 0xaa, 0xca, 0xbd, 0x66, 0xa6, 0x21, 0x3d,
  0xb5, 0xf4, 0x2b, 0xbe, 0xbf, 0xd5, 0x0c, 0xbe, 0x02, 0xe6, 0x8f, 0xbd,
  0x37, 0x0d, 0x35, 0x3e, 0xea, 0x09, 0x5c, 0x3d, 0x0a, 0x8e, 0x21, 0x3e,
  0x6e, 0x1c, 0x86, 0x3d, 0x91, 0xdd, 0x16, 0x3e, 0x51, 0x02, 0x91, 0x3c,
  0xc7, 0x4d, 0x48, 0x3e, 0x73, 0xb9, 0x54, 0x3e, 0x46, 0x1c, 0xe1, 0xbd,
  0x53, 0x62, 0x73, 0x3e, 0x0d, 0x49, 0x5a, 0xbe, 0xba, 0x9e, 0x35, 0x3e,
  0x88, 0xc3, 0xb3, 0x3d, 0xc2, 0x81, 0x45, 0x3e, 0x54, 0xfd, 0x59, 0x3e,
  0x1a, 0x2d, 0x1a, 0x3e, 0x42, 0x47, 0x4a, 0xbe, 0x2e, 0x6a, 0x65, 0x3e,
  0xce, 0x44, 0x74, 0x3e, 0x54, 0xae, 0xbb, 0xbc, 0x6d, 0xd1, 0x4c, 0xbe,
  0xf1, 0xd9, 0xea, 0x3d, 0xce, 0xeb, 0x76, 0x3d, 0xfa, 0x62, 0x49, 0xbd,
  0x0c, 0x06, 0xb0, 0xbd, 0x2d, 0xd2, 0x74, 0x3e, 0x2b, 0x24, 0x3e, 0x3c,
  0x23, 0xea, 0x09, 0xbe, 0x33, 0xf3, 0xc3, 0x3c, 0x81, 0x53, 0xdf, 0x3d,
  0xd7, 0x9c, 0x40, 0xbe, 0x93, 0xfc, 0x5b, 0x3e, 0xda, 0x01, 0xe0, 0xbd,
  0x4e, 0xe8, 0x72, 0x3e, 0x56, 0xd7, 0x07, 0x3e, 0x93, 0x3f, 0x5a, 0xbe,
  0x4f, 0x25, 0x2a, 0x3c, 0x88, 0xc5, 0x3f, 0xbd, 0x52, 0xb7, 0x50, 0xbd,
  0xfe, 0x39, 0x8a, 0x3b, 0x4d, 0xb8, 0x05, 0xbe, 0x4a, 0x98, 0x2c, 0xbe,
  0x93, 0xb2, 0xa8, 0x3d, 0x2b, 0x17, 0x71, 0x3d, 0xc0, 0x5b, 0xf8, 0xbc,
  0x0e, 0x60, 0x1e, 0x3c, 0xd9, 0x4d, 0xef, 0x3d, 0x41, 0xe4, 0x01, 0xbe,
  0x62, 0xf7, 0x2e, 0xbe, 0x40, 0x79, 0x52, 0xbb, 0x7a, 0x52, 0x1a, 0xbe,
  0xe9, 0x71, 0x2c, 0x3e, 0x0f, 0xcd, 0xef, 0xbc, 0x60, 0x59, 0x81, 0xbe,
  0x78, 0x72, 0xcb, 0xbd, 0xcd, 0xce, 0x5a, 0xbc, 0x6b, 0xa5, 0x1e, 0xbd,
  0x25, 0xf3, 0x4b, 0x3d, 0x08, 0xf7, 0xfd, 0xbd, 0x01, 0x6b, 0x38, 0xbe,
  0x48, 0xfc, 0x5f, 0xbe, 0xf8, 0x43, 0xee, 0xbd, 0xa7, 0x4c, 0x36, 0x3e,
  0x06, 0xcc, 0xf5, 0xbd, 0xe4, 0xed, 0x45, 0x3e, 0x5b, 0x78, 0x23, 0x3d,
  0x37, 0x6e, 0x03, 0x3e, 0xf7, 0xf0, 0x51, 0xbd, 0xb3, 0x6a, 0x1d, 0x3e,
  0x79, 0x0d, 0x98, 0x3c, 0xe7, 0xcc, 0xc5, 0xbd, 0x9e, 0xd5, 0xf8, 0x3d,
  0xd3, 0x41, 0x61, 0xbe, 0x77, 0xb1, 0xd0, 0x3d, 0x22, 0x1e, 0xb7, 0xbd,
  0x4d, 0xe6, 0xd5, 0xbc, 0x11, 0xc7, 0xb1, 0xbd, 0x9d, 0x35, 0x77, 0x3d,
  0x98, 0x11, 0x18, 0x3e, 0xd0, 0x75, 0x49, 0xbe, 0x0e, 0x4b, 0x87, 0x3c,
  0x3e, 0x49, 0x56, 0xbc, 0x37, 0x60, 0x6d, 0x3e, 0x70, 0x71, 0x6e, 0xbc,
  0x0a, 0x48, 0x72, 0x3e, 0x08, 0x60, 0xee, 0x3d, 0x06, 0xb1, 0x18, 0x3d,
  0x25, 0x60, 0x0f, 0xbd, 0xff, 0xb2, 0xaa, 0x3c, 0x89, 0xed, 0xed, 0xbd,
  0x4d, 0x62, 0x4c, 0x3e, 0x2c, 0x49, 0x0b, 0xbe, 0x01, 0x50, 0xa5, 0xbd,
  0xd3, 0xc0, 0x9f, 0x3d, 0x3c, 0x83, 0x85, 0xbc, 0x7d, 0x5f, 0x8d, 0x3d,
  0x52, 0x12, 0xb3, 0x3d, 0x52, 0x8d, 0x10, 0xbe, 0x5e, 0xd9, 0xfe, 0xbd,
  0xca, 0x3a, 0xa7, 0x3d, 0x2f, 0x55, 0x5d, 0x3d, 0x1d, 0x3c, 0x94, 0xbd,
  0x3b, 0x4f, 0x18, 0x3e, 0x14, 0x91, 0xe5, 0x3c, 0x70, 0x4f, 0x8f, 0xbd,
  0x41, 0x83, 0x4c, 0x3e, 0x41, 0x7a, 0x84, 0xbe, 0x10, 0x68, 0xf4, 0x3b,
  0x63, 0x2d, 0x60, 0x3e, 0xdf, 0x1b, 0x2f, 0x3e, 0x7c, 0x8f, 0x25, 0x3e,
  0x4e, 0xf3, 0x0c, 0xbe, 0xcd, 0x15, 0x02, 0xbe, 0xd3, 0x32, 0xfd, 0x3d,
  0x6e, 0xe5, 0x54, 0x3e, 0xe6, 0x90, 0x43, 0xbd, 0xde, 0xf3, 0x45, 0x3c,
  0xbb, 0xa2, 0xfc, 0x3d, 0xef, 0x59, 0xdb, 0x3d, 0x3f, 0x41, 0x27, 0x3e,
  0xb2, 0x6c, 0x62, 0xbe, 0x46, 0xa6, 0x6d, 0xbe, 0x09, 0xc2, 0x24, 0x3e,
  0x5a, 0x4c, 0x05, 0xbc, 0xdc, 0x7c, 0x6b, 0x3d, 0x6a, 0xc8, 0xe6, 0x3c,
  0x89, 0x49, 0x60, 0xbe, 0xf0, 0xd3, 0xd8, 0x3c, 0xc8, 0xc9, 0x12, 0x3e,
  0x9e, 0x5b, 0xcf, 0x3d, 0xcb, 0x71, 0x93, 0x3d, 0x50, 0xd2, 0x06, 0xbe,
  0x5f, 0x9e, 0xf6, 0xbc, 0xb0, 0x57, 0xc4, 0x3d, 0xe5, 0xa1, 0xd3, 0xbb,
  0xf6, 0x7f, 0xcd, 0xbd, 0x08, 0x99, 0x31, 0x3e, 0xb5, 0x93, 0x20, 0xbd,
  0x45, 0x73, 0x18, 0x3d, 0x2f, 0x42, 0x70, 0xbd, 0x43, 0x27, 0x1e, 0x3e,
  0x35, 0x0e, 0x7d, 0xbd, 0x20, 0x09, 0x5c, 0xbd, 0xfa, 0x92, 0x69, 0x3e,
  0xf7, 0x81, 0x64, 0x3e, 0xb3, 0xce, 0x6f, 0xbe, 0x0c, 0xdc, 0x47, 0xbd,
  0x86, 0x40, 0x8f, 0xbd, 0xec, 0x2d, 0x41, 0xbe, 0x86, 0xfa, 0x0f, 0xbe,
  0x1a, 0x0a, 0x9c, 0x3d, 0x75, 0xfe, 0x8a, 0x3d, 0xc2, 0x37, 0x6d, 0xbe,
  0x07, 0xef, 0xff, 0xbd, 0x88, 0x34, 0x52, 0xbe, 0x3a, 0xb5, 0x52, 0x3c,
  0x79, 0xa9, 0x66, 0x3e, 0x4e, 0x5e, 0x52, 0xbe, 0xeb, 0x93, 0x4d, 0x3e,
  0xfe, 0x9a, 0x1f, 0xbd, 0xd9, 0xc3, 0x55, 0x3d, 0xbd, 0x62, 0x1c, 0x3d,
  0xba, 0x2f, 0x7d, 0xbd, 0x1a, 0xd1, 0x71, 0x3e, 0x36, 0x0b, 0x6f, 0x3e,
  0xbe, 0xf1, 0xf2, 0x3c, 0xad, 0xde, 0x5c, 0xbe, 0xe9, 0x0c, 0xca, 0xbd,
  0x4e, 0x7a, 0x03, 0x3e, 0xa4, 0x39, 0x07, 0x3e, 0xe9, 0x08, 0x54, 0x3e,
  0x1c, 0xf7, 0x63, 0xbe, 0x8c, 0xa0, 0x41, 0xbe, 0xdf, 0x45, 0x20, 0x3e,
  0x42, 0xba, 0x2a, 0x3e, 0xaa, 0x83, 0x18, 0xbd, 0x92, 0x89, 0x62, 0x3e,
