unsigned char model_tflite[] = {
  0x1c, 0x00, 0x00, 0x00, 0x54, 0x46, 0x4c, 0x33, 0x14, 0x00, 0x20, 0x00,
  0x1c, 0x00, 0x18, 0x00, 0x14, 0x00, 0x10, 0x00, 0x0c, 0x00, 0x00, 0x00,
  0x08, 0x00, 0x04, 0x00, 0x14, 0x00, 0x00, 0x00, 0x1c, 0x00, 0x00, 0x00,
  0x98, 0x00, 0x00, 0x00, 0xf0, 0x00, 0x00, 0x00, 0xa0, 0x2c, 0x00, 0x00,
  0xb0, 0x2c, 0x00, 0x00, 0x50, 0x32, 0x00, 0x00, 0x03, 0x00, 0x00, 0x00,
  0x01, 0x00, 0x00, 0x00, 0x10, 0x00, 0x00, 0x00, 0x00, 0x00, 0x0a, 0x00,
  0x10, 0x00, 0x0c, 0x00, 0x08, 0x00, 0x04, 0x00, 0x0a, 0x00, 0x00, 0x00,
  0x0c, 0x00, 0x00, 0x00, 0x1c, 0x00, 0x00, 0x00, 0x3c, 0x00, 0x00, 0x00,
  0x0f, 0x00, 0x00, 0x00, 0x73, 0x65, 0x72, 0x76, 0x69, 0x6e, 0x67, 0x5f,
  0x64, 0x65, 0x66, 0x61, 0x75, 0x6c, 0x74, 0x00, 0x01, 0x00, 0x00, 0x00,
  0x04, 0x00, 0x00, 0x00, 0x90, 0xff, 0xff, 0xff, 0x0a, 0x00, 0x00, 0x00,
  0x04, 0x00, 0x00, 0x00, 0x08, 0x00, 0x00, 0x00, 0x6f, 0x75, 0x74, 0x70,
  0x75, 0x74, 0x5f, 0x30, 0x00, 0x00, 0x00, 0x00, 0x01, 0x00, 0x00, 0x00,
  0x04, 0x00, 0x00, 0x00, 0x46, 0xd3, 0xff, 0xff, 0x04, 0x00, 0x00, 0x00,
  0x0c, 0x00, 0x00, 0x00, 0x6b, 0x65, 0x72, 0x61, 0x73, 0x5f, 0x74, 0x65,
  0x6e, 0x73, 0x6f, 0x72, 0x00, 0x00, 0x00, 0x00, 0x02, 0x00, 0x00, 0x00,
  0x34, 0x00, 0x00, 0x00, 0x04, 0x00, 0x00, 0x00, 0xdc, 0xff, 0xff, 0xff,
  0x0d, 0x00, 0x00, 0x00, 0x04, 0x00, 0x00, 0x00, 0x13, 0x00, 0x00, 0x00,
  0x43, 0x4f, 0x4e, 0x56, 0x45, 0x52, 0x53, 0x49, 0x4f, 0x4e, 0x5f, 0x4d,
  0x45, 0x54, 0x41, 0x44, 0x41, 0x54, 0x41, 0x00, 0x08, 0x00, 0x0c, 0x00,
  0x08, 0x00, 0x04, 0x00, 0x08, 0x00, 0x00, 0x00, 0x0c, 0x00, 0x00, 0x00,
  0x04, 0x00, 0x00, 0x00, 0x13, 0x00, 0x00, 0x00, 0x6d, 0x69, 0x6e, 0x5f,
  0x72, 0x75, 0x6e, 0x74, 0x69, 0x6d, 0x65, 0x5f, 0x76, 0x65, 0x72, 0x73,
  0x69, 0x6f, 0x6e, 0x00, 0x0e, 0x00, 0x00, 0x00, 0xac, 0x2b, 0x00, 0x00,
  0xa4, 0x2b, 0x00, 0x00, 0x94, 0x29, 0x00, 0x00, 0x84, 0x09, 0x00, 0x00,
  0x64, 0x09, 0x00, 0x00, 0xd4, 0x08, 0x00, 0x00, 0xc4, 0x07, 0x00, 0x00,
  0xb4, 0x00, 0x00, 0x00, 0xac, 0x00, 0x00, 0x00, 0xa4, 0x00, 0x00, 0x00,
  0x9c, 0x00, 0x00, 0x00, 0x94, 0x00, 0x00, 0x00, 0x74, 0x00, 0x00, 0x00,
  0x04, 0x00, 0x00, 0x00, 0xfa, 0xd3, 0xff, 0xff, 0x04, 0x00, 0x00, 0x00,
  0x60, 0x00, 0x00, 0x00, 0x10, 0x00, 0x00, 0x00, 0x00, 0x00, 0x00, 0x00,
  0x08, 0x00, 0x0e, 0x00, 0x08, 0x00, 0x04, 0x00, 0x08, 0x00, 0x00, 0x00,
  0x10, 0x00, 0x00, 0x00, 0x24, 0x00, 0x00, 0x00, 0x00, 0x00, 0x06, 0x00,
  0x08, 0x00, 0x04, 0x00, 0x06, 0x00, 0x00, 0x00, 0x04, 0x00, 0x00, 0x00,
  0x00, 0x00, 0x00, 0x00, 0x0c, 0x00, 0x18, 0x00, 0x14, 0x00, 0x10, 0x00,
  0x0c, 0x00, 0x04, 0x00, 0x0c, 0x00, 0x00, 0x00, 0xa5, 0xdb, 0xb5, 0x19,
  0x05, 0xa3, 0x78, 0x60, 0x02, 0x00, 0x00, 0x00, 0x02, 0x00, 0x00, 0x00,
  0x04, 0x00, 0x00, 0x00, 0x06, 0x00, 0x00, 0x00, 0x32, 0x2e, 0x31, 0x38,
  0x2e, 0x30, 0x00, 0x00, 0x66, 0xd4, 0xff, 0xff, 0x04, 0x00, 0x00, 0x00,
  0x10, 0x00, 0x00, 0x00, 0x31, 0x2e, 0x35, 0x2e, 0x30, 0x00, 0x00, 0x00,
  0x00, 0x00, 0x00, 0x00, 0x00, 0x00, 0x00, 0x00, 0x90, 0xcf, 0xff, 0xff,
  0x94, 0xcf, 0xff, 0xff, 0x98, 0xcf, 0xff, 0xff, 0x9c, 0xcf, 0xff, 0xff,
  0x92, 0xd4, 0xff, 0xff, 0x04, 0x00, 0x00, 0x00, 0x00, 0x07, 0x00, 0x00,
  0x64, 0x48, 0x48, 0x3d, 0xd4, 0xe9, 0x18, 0x3e, 0x7a, 0xb9, 0x99, 0x3e,
  0x2c, 0x35, 0x72, 0xbe, 0x2d, 0xa3, 0x91, 0x3e, 0x12, 0x49, 0xe0, 0x3d,
  0x36, 0xd6, 0x70, 0x3e, 0x42, 0x50, 0xfa, 0x3d, 0x3c, 0x84, 0x9b, 0x3e,
  0xe9, 0x46, 0x91, 0xbe, 0xe3, 0xcd, 0x56, 0x3c, 0x08, 0xc6, 0x7c, 0xbe,
  0xd0, 0x39, 0x6d, 0xbe, 0x4f, 0x99, 0x96, 0x3e, 0xfc, 0xe1, 0xf2, 0xbd,
  0xf2, 0x0b, 0x9d, 0xbd, 0xae, 0xc4, 0x2e, 0x3e, 0xfe, 0xe5, 0xa5, 0xbd,
  0x5d, 0xe5, 0x0a, 0x3c, 0x82, 0xbb, 0x1b, 0xbe, 0x52, 0x95, 0x7e, 0xbe,
  0xf6, 0x25, 0x5c, 0x3d, 0xfd, 0x4f, 0x1f, 0xbd, 0xd0, 0x49, 0x5a, 0xbd,
  0xd1, 0x4d, 0x03, 0xbe, 0x9e, 0x3b, 0xe2, 0xbd, 0x0b, 0x9d, 0x8e, 0x3b,
  0xb6, 0x16, 0xa4, 0x3d, 0xc7, 0x82, 0xd0, 0xbc, 0x4c, 0xd0, 0x4a, 0x3e,
  0x92, 0xb0, 0x28, 0x3c, 0xd5, 0xa8, 0x50, 0xbe, 0x72, 0xea, 0x82, 0x3e,
  0xa3, 0x49, 0x96, 0xbd, 0x6b, 0x33, 0x38, 0xbe, 0xea, 0x81, 0x04, 0xbe,
  0x70, 0x15, 0x01, 0xbe, 0xfe, 0x83, 0x4e, 0x3e, 0xc1, 0x1b, 0x59, 0xbe,
  0xcd, 0x4f, 0x52, 0x39, 0x5e, 0xa4, 0x17, 0xbe, 0x02, 0x13, 0x04, 0x3d,
  0xad, 0x29, 0xf8, 0xbd, 0xce, 0x1f, 0x64, 0x3d, 0x5e, 0x9b, 0x69, 0x3e,
  0x37, 0xbd, 0x53, 0x3e, 0x01, 0x64, 0x10, 0xbe, 0x26, 0x7c, 0xed, 0x3d,
  0x5f, 0x10, 0x14, 0x3e, 0x80, 0x49, 0x3c, 0x3e, 0x3f, 0x4a, 0x81, 0xbe,
  0xde, 0xa8, 0xe2, 0xbd, 0x0b, 0x47, 0x7e, 0x3d, 0x8a, 0xbd, 0x61, 0xbe,
  0xe0, 0x66, 0xbe, 0x3c, 0xaa, 0x6b, 0x28, 0xbe, 0x77, 0x3d, 0xb7, 0x3d,
  0x32, 0x46, 0xaa, 0x3d, 0xfb, 0x89, 0x2a, 0xbd, 0x8c, 0x48, 0x17, 0x3d,
  0x40, 0x60, 0x70, 0xbe, 0x50, 0x4b, 0xa2, 0xbc, 0x7a, 0x3c, 0x3d, 0x3d,
  0x4e, 0x74, 0xec, 0x3d, 0xf5, 0xf6, 0x74, 0x3e, 0x85, 0xa6, 0x73, 0x3d,
  0x49, 0x18, 0x81, 0x3d, 0x5d, 0x0f, 0x4f, 0x3e, 0xd4, 0x29, 0x4d, 0x3e,
  0x7b, 0x22, 0x7f, 0x3e, 0x99, 0xef, 0xc7, 0x3e, 0x67, 0xb1, 0x43, 0xbe,
  0x31, 0xff, 0x22, 0x3e, 0xb3, 0x80, 0x42, 0xbd, 0x53, 0x35, 0x1b, 0x3e,
  0x81, 0x51, 0x88, 0x3e, 0x7b, 0x1c, 0x4b, 0x3e, 0x9e, 0x76, 0xa5, 0x3e,
  0x33, 0x77, 0x9d, 0x3b, 0x96, 0x9b, 0x48, 0x3e, 0x3b, 0x67, 0x4a, 0xbe,
  0xf5, 0xaf, 0x0a, 0xbe, 0x65, 0xf1, 0x62, 0x3e, 0xf3, 0x32, 0x5e, 0xbc,
  0x59, 0x00, 0x07, 0xbe, 0x82, 0xf5, 0x3b, 0xbe, 0xc3, 0xfd, 0x48, 0x3d,
  0x1c, 0x03, 0x16, 0xbe, 0xac, 0x8f, 0x53, 0x3e, 0x08, 0x42, 0xb8, 0x3d,
  0xa6, 0x18, 0x05, 0xbe, 0xf0, 0x92, 0x54, 0x3e, 0x83, 0xad, 0x7a, 0xbd,
  0xde, 0xf2, 0xae, 0xbc, 0xe0, 0xbd, 0xba, 0xbd, 0x34, 0xbb, 0x95, 0x3e,
  0xb1, 0x86, 0x55, 0x3e, 0x3c, 0x50, 0x9f, 0x3e, 0x3b, 0x99, 0xbc, 0x3d,
  0x34, 0xc7, 0x5c, 0x3e, 0x5b, 0x58, 0x0e, 0x3e, 0xe8, 0x2b, 0x45, 0x3e,
  0xcc, 0x86, 0x39, 0xbd, 0x73, 0x1a, 0x61, 0x3d, 0x28, 0x56, 0xa0, 0xbe,
  0x52, 0x7e, 0xa0, 0xbe, 0x50, 0xa9, 0x4c, 0xbe, 0x8d, 0x47, 0x16, 0x3e,
  0x67, 0xd0, 0x68, 0x3e, 0x4a, 0x7c, 0x16, 0xbe, 0x70, 0x74, 0x7d, 0xbe,
  0xc6, 0x89, 0xdd, 0xbd, 0x74, 0xb2, 0x0d, 0xbd, 0xbe, 0x45, 0x0e, 0x3d,
  0x10, 0x1a, 0x10, 0xbe, 0x81, 0x68, 0x06, 0x3e, 0xfc, 0xcf, 0xab, 0xbd,
  0xb9, 0x1f, 0x44, 0x3e, 0xd0, 0x91, 0x8b, 0x3d, 0x3e, 0xf8, 0x90, 0x3c,
  0x19, 0xae, 0x13, 0x3e, 0xf6, 0x42, 0xc0, 0x3d, 0x4e, 0x43, 0xd0, 0x3d,
  0x93, 0xdc, 0x87, 0xbe, 0xc7, 0x54, 0x84, 0xbe, 0xfd, 0xae, 0xa7, 0x3d,
  0xdb, 0x0d, 0x00, 0xbe, 0xf9, 0x7a, 0xf3, 0x3c, 0x8e, 0x70, 0x23, 0xbe,
  0x74, 0xc2, 0x1e, 0xbe, 0x5b, 0x49, 0x21, 0xbd, 0x34, 0xa7, 0x6c, 0x3e,
  0xdb, 0x8d, 0x5b, 0x3e, 0x0e, 0x58, 0x20, 0x3e, 0xec, 0x98, 0x25, 0x3e,
  0x2a, 0x12, 0x5f, 0x3e, 0x49, 0xc3, 0xfa, 0x3d, 0x31, 0x74, 0xa5, 0x3d,
  0xd4, 0x0e, 0x6d, 0x3c, 0xa4, 0x0c, 0x9a, 0x3e, 0x15, 0x0c, 0x80, 0x3e,
  0x20, 0xc4, 0x89, 0xbd, 0x7d, 0xaf, 0x45, 0x3d, 0x36, 0x49, 0x76, 0x3e,
  0x3e, 0x46, 0xac, 0xbd, 0xec, 0x4c, 0xae, 0x3d, 0x3c, 0xce, 0x44, 0xbd,
  0x32, 0xd1, 0xd9, 0x3d, 0xdf, 0x6a, 0xc6, 0xbd, 0xae, 0x07, 0x59, 0xbe,
  0x17, 0x7b, 0x31, 0xbe, 0x34, 0x8b, 0x14, 0xbe, 0x0a, 0xf8, 0x5d, 0xbe,
  0x21, 0x66, 0x6c, 0xbe, 0x6c, 0xf9, 0x19, 0xbd, 0x3b, 0x16, 0x5e, 0xbe,
  0xa1, 0xa9, 0x22, 0xbe, 0x72, 0xbd, 0x08, 0xbe, 0x8c, 0x43, 0xb8, 0xbd,
  0xa1, 0x66, 0x45, 0xbe, 0xb3, 0xf5, 0x16, 0xbd, 0x2a, 0xdf, 0xea, 0xbd,
  0x64, 0x82, 0xf3, 0xbd, 0x28, 0x72, 0x40, 0xbe, 0xae, 0x8e, 0xbb, 0x3d,
  0xb1, 0xd2, 0x92, 0x3c, 0x52, 0x77, 0x7e, 0x3d, 0x28, 0x06, 0xd3, 0x3d,
  0xd9, 0xcc, 0x1e, 0xbe, 0x6f, 0xc9, 0x2e, 0x3e, 0x3d, 0xc9, 0x8f, 0xbe,
  0xba, 0x87, 0x89, 0xbe, 0x52, 0xb8, 0x2b, 0xbe, 0x57, 0x48, 0x4e, 0x3e,
  0x32, 0x41, 0xf3, 0x3d, 0x78, 0xa2, 0x88, 0x3e, 0xf5, 0x93, 0xb5, 0xbd,
  0x0a, 0x19, 0x2f, 0x3e, 0x73, 0x48, 0x8f, 0x3e, 0xf1, 0x13, 0xae, 0xbc,
  0x60, 0x61, 0x2e, 0xbe, 0x6f, 0x3a, 0xb7, 0x3d, 0xe5, 0x9f, 0x80, 0x3e,
  0x02, 0x33, 0xe0, 0x3c, 0xd3, 0x7c, 0x0a, 0xbe, 0x04, 0x8c, 0x85, 0xbe,
  0x81, 0x12, 0x40, 0x3e, 0xf9, 0xbd, 0x9f, 0x3d, 0x2e, 0x5b, 0x80, 0x3e,
  0xe4, 0x8e, 0xc2, 0x3d, 0x1d, 0x1f, 0x62, 0xbd, 0xff, 0xaa, 0x15, 0xbe,
  0xff, 0xed, 0xff, 0x3d, 0x5f, 0x09, 0x43, 0x3e, 0x01, 0xa5, 0xbe, 0x3c,
  0xa9, 0xd4, 0x05, 0x3e, 0x50, 0x47, 0x9b, 0xbe, 0x2e, 0xc6, 0x85, 0x3e,
  0x03, 0x1d, 0x56, 0xbe, 0x17, 0x36, 0xe1, 0x3d, 0xc6, 0xe3, 0x0d, 0xbd,
  0x58, 0x17, 0xe2, 0x3d, 0x05, 0xd0, 0x14, 0xbe, 0x2f, 0x9a, 0x82, 0x3e,
  0xa5, 0xce, 0x46, 0x3e, 0x45, 0xf2, 0x4f, 0xbd, 0xcd, 0x2f, 0x13, 0xbe,
  0x2c, 0x67, 0x6c, 0x3e, 0x63, 0xb4, 0x95, 0x3e, 0x53, 0xe1, 0x90, 0xbe,
  0x80, 0x2f, 0x2b, 0xbe, 0x14, 0x4f, 0x92, 0x3d, 0x22, 0x63, 0xe0, 0xbd,
  0xef, 0xbe, 0x0b, 0x3d, 0x0c, 0x5c, 0x9b, 0xbe, 0x18, 0x64, 0xfc, 0xba,
  0x79, 0xa8, 0x24, 0x3e, 0x1d, 0x5a, 0x55, 0x3e, 0x1f, 0x21, 0x88, 0x3e,
  0x48, 0x75, 0x39, 0x3d, 0xc0, 0x29, 0x49, 0xbe, 0x48, 0xa2, 0xfd, 0xbd,
  0x61, 0x0c, 0x51, 0x3e, 0xe6, 0x70, 0x9f, 0x3d, 0x57, 0xd6, 0xc9, 0xbe,
  0x99, 0x1d, 0xf9, 0xbd, 0x05, 0x83, 0x8e, 0x3e, 0xe3, 0x01, 0x84, 0xbe,
  0xda, 0x10, 0xa4, 0xbc, 0x1c, 0x08, 0x54, 0x3d, 0xe2, 0x30, 0x0f, 0xbe,
  0x20, 0x49, 0x86, 0x3d, 0x6d, 0x62, 0x8e, 0xbe, 0xc6, 0xe2, 0x8b, 0xbe,
  0x62, 0xb0, 0x89, 0x3e, 0x0b, 0x88, 0x91, 0x3e, 0xe6, 0x52, 0x38, 0xbe,
  0xf5, 0xd6, 0xad, 0x3d, 0x93, 0x51, 0x2a, 0xbe, 0x59, 0x47, 0x5b, 0x3d,
  0x7c, 0xcf, 0x09, 0xbe, 0x48, 0x69, 0x88, 0x3e, 0x36, 0xfa, 0x3c, 0x3d,
  0x4b, 0x68, 0x06, 0x3e, 0x92, 0xdb, 0xac, 0x3e, 0x0b, 0x6c, 0x90, 0x3d,
  0xad, 0xa2, 0xc2, 0xbd, 0x29, 0x74, 0x75, 0xbe, 0x8b, 0xd3, 0xc8, 0x3d,
  0xce, 0x69, 0x40, 0xbe, 0x96, 0xd0, 0x58, 0x3e, 0x6c, 0xad, 0xf7, 0xbd,
  0xa3, 0x76, 0x35, 0xbe, 0x85, 0x25, 0x9a, 0x3d, 0x77, 0x38, 0x30, 0x3e,
  0xa0, 0xb2, 0x88, 0xbe, 0x3d, 0x0a, 0xaa, 0xbd, 0xa2, 0x0c, 0x92, 0x3e,
  0xea, 0xc5, 0x8b, 0xbe, 0xfe, 0xf1, 0x94, 0x3e, 0x82, 0xe2, 0x9c, 0x3d,
  0x98, 0xe6, 0x46, 0xbe, 0x64, 0x74, 0x00, 0x3e, 0x74, 0x2e, 0x37, 0xbe,
  0xcd, 0xf8, 0x93, 0xbe, 0x1e, 0x2c, 0x2a, 0x3e, 0xfd, 0x60, 0x12, 0x3e,
  0xed, 0x20, 0xc5, 0x3e, 0x2a, 0x64, 0x81, 0xbe, 0x7f, 0xe9, 0x35, 0xbd,
  0x60, 0x85, 0x91, 0xbe, 0x7a, 0xba, 0x94, 0xbd, 0x5e, 0xa6, 0xdc, 0x3d,
  0x1e, 0x81, 0xef, 0x3c, 0xf9, 0x24, 0xf4, 0x3d, 0x97, 0x9c, 0x61, 0xbe,
  0x31, 0xa0, 0x14, 0xbe, 0x76, 0x7f, 0x79, 0xbe, 0x22, 0xec, 0x9c, 0x3c,
  0x89, 0x6f, 0x4c, 0x3e, 0x9c, 0xab, 0x06, 0xbd, 0x65, 0xba, 0xa0, 0x3d,
  0xd1, 0x68, 0xc9, 0x3d, 0x70, 0xb3, 0x55, 0xbe, 0x70, 0xaf, 0xa0, 0x3d,
  0x4c, 0xa5, 0x3c, 0x3e, 0x85, 0x90, 0x3b, 0xbd, 0xcd, 0x6b, 0xb6, 0xbe,
  0x3e, 0xba, 0x5e, 0xbe, 0x35, 0x94, 0x59, 0x3e, 0x67, 0xb9, 0x3a, 0xbe,
  0x7f, 0x34, 0x96, 0xbd, 0xc5, 0x7b, 0x1f, 0xbe, 0xf1, 0x71, 0xce, 0x3d,
  0xad, 0x76, 0x9c, 0x3e, 0xd2, 0x70, 0x5a, 0xbb, 0x33, 0xd1, 0xb6, 0x3e,
  0xb3, 0x1b, 0x87, 0xbe, 0xa7, 0x33, 0xf1, 0x3d, 0xdd, 0xbc, 0xd0, 0xbd,
  0xa2, 0xb2, 0xad, 0x3d, 0xe3, 0xd6, 0xf1, 0xbd, 0xc1, 0x90, 0xc0, 0xbc,
  0x48, 0x1d, 0x7a, 0xbe, 0xcb, 0x2a, 0x04, 0xbd, 0x9f, 0x78, 0x65, 0x3e,
  0x3c, 0x96, 0x02, 0x3e, 0xd9, 0xa9, 0x5e, 0xbd, 0x6a, 0xf0, 0x21, 0x3c,
  0x05, 0xf2, 0xbb, 0x3e, 0x42, 0x2c, 0x8d, 0x3e, 0x72, 0x91, 0xa4, 0x3d,
  0x8f, 0x86, 0x34, 0xbc, 0xd2, 0x4b, 0x39, 0x3e, 0x19, 0x7f, 0xf9, 0x3d,
  0x03, 0x74, 0x28, 0x3e, 0x57, 0xb7, 0x1c, 0x3e, 0x24, 0x6a, 0x2e, 0xbd,
  0x7e, 0x1b, 0xe0, 0x3d, 0x19, 0xdd, 0xe6, 0xbd, 0xcd, 0x9d, 0x4e, 0xbc,
  0x37, 0xce, 0xad, 0x3d, 0x7d, 0x69, 0x01, 0x3d, 0xad, 0x09, 0x24, 0xbe,
  0xa7, 0x5b, 0xf3, 0xbd, 0x8e, 0xd5, 0x83, 0x3c, 0x3f, 0xd9, 0x87, 0xbd,
  0xc4, 0x21, 0x89, 0x3e, 0xdd, 0xeb, 0x59, 0x3e, 0xba, 0x1a, 0x11, 0xbe,
  0x5a, 0xc0, 0x4f, 0x3e, 0x63, 0x6f, 0x9f, 0x3d, 0xf2, 0x72, 0x98, 0xbe,
  0x55, 0x0c, 0x21, 0x3c, 0x5c, 0x97, 0x5b, 0xbe, 0x1d, 0x99, 0x6e, 0xbd,
  0x71, 0x1e, 0x80, 0xbe, 0x2b, 0xe6, 0x13, 0xbe, 0x93, 0x7b, 0xbb, 0x3a,
  0x42, 0xaf, 0x24, 0xbe, 0x3b, 0x6d, 0x38, 0x3e, 0x11, 0xd6, 0x0d, 0xbe,
  0x06, 0x8f, 0x55, 0x3e, 0x1a, 0x3d, 0x9a, 0x3d, 0x3d, 0xba, 0x18, 0xbe,
  0xf1, 0x0f, 0x92, 0x3e, 0x3a, 0xcb, 0x76, 0xbe, 0x78, 0x18, 0x6d, 0x3e,
  0xee, 0xd3, 0x6e, 0x3e, 0xcb, 0x1b, 0xa3, 0xbd, 0x2b, 0xdf, 0xac, 0x3d,
  0x10, 0x6e, 0x74, 0xbd, 0x8d, 0x7a, 0x2c, 0x3e, 0xe3, 0x0c, 0x56, 0x3d,
  0xcb, 0x33, 0x7a, 0x3e, 0xd3, 0x87, 0x15, 0x3e, 0xb0, 0xb0, 0x85, 0xbd,
  0xb4, 0xff, 0x62, 0xbe, 0x01, 0x61, 0x1d, 0x3e, 0xb6, 0x5a, 0xd5, 0xbd,
  0xce, 0x4a, 0x49, 0x3e, 0xa0, 0x8d, 0x90, 0xbe, 0xfc, 0x73, 0x5b, 0xbd,
  0x0f, 0x4e, 0x1f, 0xbd, 0x59, 0x59, 0x17, 0x3e, 0x51, 0xcf, 0xb0, 0xbe,
  0xba, 0xde, 0x88, 0x3e, 0x4d, 0x2c, 0x36, 0x3e, 0xb7, 0x79, 0xfa, 0xbc,
  0x14, 0xc1, 0x63, 0xbc, 0xa2, 0xb2, 0xac, 0xbd, 0x4b, 0x43, 0x16, 0x3e,
  0xa0, 0xbf, 0xff, 0x3c, 0x53, 0xa3, 0x89, 0xbd, 0xd5, 0x8a, 0xd4, 0x3d,
  0x7e, 0x27, 0x96, 0x3e, 0x62, 0xe1, 0xee, 0xbd, 0xf3, 0x7e, 0xf0, 0xbd,
  0x32, 0x5e, 0x68, 0xbe, 0x49, 0x55, 0xaf, 0x3e, 0xb1, 0x6e, 0x11, 0xbe,
  0xbb, 0xd8, 0xa0, 0x3d, 0x5e, 0x17, 0x5a, 0x3d, 0x57, 0x46, 0xce, 0xbd,
  0xe4, 0xab, 0x84, 0xbe, 0x74, 0xc3, 0xf9, 0x3d, 0x2c, 0x3b, 0x91, 0x3e,
  0x21, 0x59, 0x38, 0xbe, 0x67, 0x71, 0xdd, 0xbc, 0x85, 0x7f, 0x60, 0xbe,
  0x2d, 0xc2, 0x72, 0xbe, 0x9f, 0x88, 0x9e, 0x3d, 0x5d, 0x7e, 0x9f, 0x3c,
  0xb4, 0x2b, 0x29, 0x3d, 0x57, 0x4b, 0x0e, 0x3d, 0xdf, 0x73, 0x56, 0xbe,
  0x9f, 0x85, 0x97, 0xbd, 0x0b, 0x70, 0xb5, 0x3d, 0x30, 0x5f, 0x12, 0xbd,
  0xc9, 0x35, 0x03, 0xbb, 0x6b, 0xd7, 0xa6, 0x3e, 0x6a, 0x45, 0x8a, 0xbe,
  0xc4, 0x94, 0x7f, 0xbe, 0xc0, 0xc7, 0x0a, 0x3e, 0xa9, 0xc6, 0x19, 0xbb,
  0x37, 0xb3, 0x8d, 0xbd, 0x56, 0xab, 0x1e, 0x3e, 0x12, 0xab, 0xae, 0x3e,
  0x5b, 0xca, 0x49, 0xbe, 0x1d, 0xe0, 0x59, 0x3e, 0xdc, 0x6a, 0x80, 0x3e,
  0xd6, 0x33, 0xf6, 0x3d, 0x4a, 0xfc, 0x6f, 0x3e, 0x56, 0x80, 0x78, 0x3e,
  0xe4, 0xc3, 0xa1, 0x3e, 0x1b, 0x35, 0x2e, 0x3e, 0xd9, 0xd9, 0x94, 0xbd,
  0xbf, 0xa6, 0x03, 0x3e, 0xfa, 0x21, 0x64, 0xbb, 0xfb, 0x77, 0x24, 0x3e,
  0x8a, 0xd3, 0x03, 0x3d, 0x08, 0x01, 0xb2, 0x3d, 0xa6, 0xc9, 0x09, 0xbe,
  0x2f, 0x41, 0x08, 0x3e, 0x91, 0x46, 0xa8, 0x3d, 0x62, 0xa7, 0x90, 0x3e,
  0x28, 0xa0, 0x0b, 0xbe, 0x0c, 0x30, 0xe8, 0x3c, 0x79, 0x5e, 0xbc, 0x3e,
  0x09, 0xb1, 0x66, 0x3c, 0x0e, 0x19, 0x18, 0x3d, 0x7e, 0x55, 0x86, 0x3d,
  0x7e, 0xf8, 0x49, 0xbc, 0x47, 0xcc, 0x1f, 0x3e, 0xd5, 0x67, 0xba, 0xbe,
  0x43, 0x38, 0x67, 0xbe, 0x4f, 0x5a, 0x23, 0xbd, 0xaf, 0x54, 0x08, 0xbe,
  0x22, 0x29, 0x11, 0x3d, 0x02, 0x23, 0x29, 0x3e, 0x48, 0xe3, 0xbc, 0xbd,
  0xb5, 0x7c, 0xab, 0x3d, 0x9b, 0x20, 0x45, 0x3e, 0x5d, 0xac, 0x04, 0xbe,
  0x10, 0xac, 0x44, 0x3e, 0x94, 0x86, 0x73, 0xbd, 0xf6, 0x29, 0x04, 0xbe,
  0x47, 0xe4, 0x3b, 0xbe, 0x9e, 0xdb, 0xff, 0xff, 0x04, 0x00, 0x00, 0x00,
  0x00, 0x01, 0x00, 0x00, 0x12, 0xfb, 0xa5, 0x3d, 0x33, 0x33, 0xcf, 0x3b,
  0xf6, 0xae, 0xde, 0x3a, 0x94, 0x8a, 0x82, 0xbd, 0x5f, 0x60, 0xd2, 0x3b,
  0x6f, 0xd4, 0x2f, 0xbd, 0x65, 0xba, 0x40, 0x3c, 0x4a, 0x01, 0x94, 0x3c,
  0xad, 0xe4, 0x03, 0x3c, 0xd2, 0x38, 0x28, 0xbd, 0x35, 0x8f, 0xe3, 0x3d,
  0x19, 0xdd, 0x3e, 0x3d, 0x74, 0x84, 0xa5, 0x3c, 0xf7, 0xe6, 0x8e, 0x3d,
  0x39, 0x3b, 0xd9, 0x3c, 0x63, 0x7a, 0x2a, 0xbd, 0xa2, 0xe7, 0x35, 0xbd,
  0xc8, 0xc9, 0x23, 0x3d, 0xc4, 0x71, 0xb7, 0xbc, 0x8c, 0xe2, 0x90, 0x3b,
  0xef, 0xe2, 0xe8, 0xba, 0xc1, 0xf6, 0x6f, 0xbd, 0xd0, 0xa8, 0x3a, 0xbd,
  0x7e, 0x1e, 0xdd, 0xbc, 0xc4, 0x27, 0xd3, 0x3b, 0xa9, 0x7e, 0x43, 0x3c,
  0x7d, 0x5f, 0x18, 0x3d, 0xfd, 0x14, 0xe2, 0x3c, 0x06, 0x7f, 0x72, 0x3d,
  0x6a, 0x71, 0x1e, 0x3d, 0x5d, 0x9c, 0xc9, 0xbc, 0x91, 0xdd, 0xfd, 0xbc,
  0x54, 0x73, 0x83, 0x3d, 0xee, 0x00, 0x12, 0xbb, 0xad, 0xb2, 0x1f, 0x3d,
  0x65, 0xa8, 0x92, 0xbc, 0x86, 0xb3, 0x69, 0x3c, 0xaf, 0xd9, 0x38, 0x3c,
  0xbd, 0x1f, 0xec, 0x3d, 0x04, 0x9e, 0x5c, 0xbd, 0x9d, 0x79, 0x51, 0xbd,
  0xf3, 0x65, 0xe0, 0xbb, 0x91, 0xda, 0xa3, 0x3d, 0x6d, 0x3e, 0xeb, 0x3b,
  0xcb, 0x72, 0x89, 0x3d, 0xa8, 0xb6, 0xd5, 0x3c, 0x53, 0x23, 0x0e, 0xbd,
  0xdb, 0x1b, 0xc8, 0xbc, 0xbe, 0xed, 0x8d, 0x38, 0xd0, 0x2c, 0x5c, 0xbd,
  0x7d, 0xde, 0xf2, 0x3c, 0xa7, 0x59, 0x03, 0xbc, 0x18, 0x63, 0xc8, 0x3c,
  0x28, 0x67, 0x1a, 0xbd, 0x9e, 0x1a, 0x9c, 0x3d, 0x8f, 0xba, 0x27, 0xbd,
  0x94, 0x5d, 0x36, 0x3d, 0xc1, 0x01, 0xc3, 0x3b, 0xc0, 0x7f, 0xa2, 0x3d,
  0x7d, 0x15, 0x95, 0xbc, 0xe8, 0x4a, 0x10, 0xbc, 0x8c, 0xf7, 0x25, 0x3d,
  0x4a, 0x06, 0x23, 0x3d, 0xf7, 0xb4, 0x0f, 0xbc, 0xaa, 0xdc, 0xff, 0xff,
  0x04, 0x00, 0x00, 0x00, 0x80, 0x00, 0x00, 0x00, 0x34, 0x6a, 0xa3, 0xbc,
  0x28, 0xe4, 0xb4, 0xbb, 0x45, 0x07, 0x79, 0x3d, 0x46, 0xc0, 0x40, 0x3d,
  0x22, 0xad, 0x2a, 0xbb, 0xcd, 0x3f, 0xa1, 0x3c, 0x1f, 0xb1, 0x0b, 0x3d,
  0xbe, 0xd6, 0xc7, 0x3a, 0x1b, 0xf8, 0x08, 0xbd, 0xb8, 0x15, 0xed, 0xbc,
  0xee, 0x59, 0x42, 0xbc, 0x75, 0xf6, 0x13, 0x3c, 0x78, 0x80, 0x9b, 0x3b,
  0x00, 0x3c, 0xde, 0x3c, 0xcc, 0x19, 0x8c, 0x3a, 0x41, 0xdb, 0x45, 0x3d,
  0x38, 0x60, 0x77, 0xbc, 0x76, 0xf9, 0xd2, 0xbc, 0xfb, 0x4e, 0x08, 0xbd,
  0x32, 0x21, 0x0f, 0xbd, 0xd5, 0xf8, 0xbd, 0x3d, 0xfb, 0x24, 0xa8, 0x3d,
  0xf8, 0x61, 0xf0, 0xbc, 0x0b, 0xb1, 0xce, 0xbc, 0xf8, 0x50, 0x83, 0xbc,
  0x46, 0xfa, 0x4e, 0x3c, 0x5f, 0xa3, 0xdf, 0xbc, 0x38, 0x79, 0x9a, 0x3c,
  0xb2, 0x82, 0xdd, 0xbc, 0x42, 0xe8, 0x8a, 0x3c, 0x65, 0xa7, 0xbb, 0x3b,
  0xb1, 0x6f, 0x2e, 0x3d, 0x36, 0xdd, 0xff, 0xff, 0x04, 0x00, 0x00, 0x00,
  0x10, 0x00, 0x00, 0x00, 0xd8, 0x23, 0x50, 0x3d, 0xf0, 0x10, 0xfa, 0xbc,
  0x7e, 0x4a, 0x1a, 0x3c, 0x79, 0xfc, 0x82, 0xbc, 0x52, 0xdd, 0xff, 0xff,
  0x04, 0x00, 0x00, 0x00, 0x00, 0x20, 0x00, 0x00, 0xc0, 0xdf, 0x0e, 0x3c,
  0xeb, 0xdd, 0x2a, 0x3e, 0xc4, 0x10, 0x4d, 0xbe, 0xd5, 0x88, 0xc6, 0xbc,
  0x5a, 0x77, 0x5c, 0x3c, 0x9f, 0x09, 0x01, 0xbe, 0x0f, 0x50, 0x8c, 0xbe,
  0x45, 0x97, 0x2d, 0x3e, 0x60, 0xd9, 0x41, 0x3e, 0x00, 0xca, 0xab, 0xbd,
  0x80, 0xcc, 0x7a, 0x3d, 0x0e, 0x7a, 0x81, 0xbd, 0x49, 0x53, 0x0e, 0xbe,
  0xf7, 0x00, 0xc9, 0x3d, 0xc4, 0xcb, 0x2f, 0xbd, 0xec, 0x11, 0x34, 0x3e,
  0xb0, 0x56, 0x06, 0x3e, 0x34, 0x8d, 0x61, 0x3c, 0xdf, 0x28, 0x45, 0x3e,
  0x26, 0xe9, 0x6f, 0xbd, 0x55, 0x47, 0x65, 0x3e, 0x16, 0xd8, 0x1e, 0x3e,
  0x6d, 0xaa, 0x1c, 0xbd, 0xae, 0xac, 0x04, 0x3c, 0x12, 0x17, 0x51, 0xbe,
  0x59, 0x5f, 0x75, 0x3e, 0x65, 0x1d, 0x54, 0xbd, 0xee, 0x9c, 0x1b, 0xbe,
  0x3e, 0x91, 0x4c, 0xbd, 0x1a, 0xd6, 0x09, 0xbd, 0x74, 0xa4, 0x17, 0x3e,
  0x70, 0x34, 0x2b, 0x3d, 0x65, 0x70, 0x3f, 0xbe, 0x44, 0x57, 0x39, 0xbe,
  0x39, 0xa3, 0xe2, 0xbd, 0xa3, 0xd3, 0x51, 0x3e, 0x7f, 0x06, 0x2c, 0xbe,
  0x84, 0xb5, 0x8f, 0xbd, 0xd6, 0xa1, 0x65, 0xbd, 0x57, 0x0b, 0x2b, 0x3e,
  0x03, 0x87, 0x14, 0xbe, 0x17, 0xfe, 0xae, 0x3b, 0xb2, 0xda, 0x69, 0xba,
  0x7f, 0x81, 0xbe, 0x3d, 0xed, 0x21, 0x8a, 0x3d, 0xd4, 0x9c, 0x6f, 0xbe,
  0xe9, 0x34, 0xce, 0xbd, 0xe7, 0x21, 0x05, 0xbe, 0x19, 0xaf, 0x5d, 0xbc,
  0x66, 0x6e, 0x71, 0x3d, 0xd6, 0x5d, 0x69, 0x3e, 0xe3, 0xd4, 0x48, 0x3d,
  0x4c, 0xdf, 0x11, 0x3e, 0x68, 0xba, 0x07, 0xbe, 0xc2, 0x05, 0x66, 0xbe,
  0xb6, 0xfc, 0xb4, 0xbd, 0xf8, 0x6e, 0xf3, 0xbd, 0x5f, 0x73, 0x29, 0xbe,
  0x4d, 0xa1, 0x2c, 0x3e, 0x66, 0x75, 0x7e, 0xbc, 0x95, 0x78, 0x68, 0xbc,
  0x98, 0x61, 0x63, 0xbe, 0x24, 0x6d, 0xba, 0xbd, 0x6f, 0x18, 0x13, 0xbe,
  0x47, 0x6f, 0x1b, 0x3e, 0xe7, 0x3f, 0x34, 0xbd, 0xa8, 0xf1, 0xc8, 0xbd,
  0x8c, 0xa2, 0x5c, 0xbe, 0x6b, 0x4f, 0x1b, 0xbe, 0xa7, 0xf5, 0x4b, 0xbd,
  0xe9, 0x86, 0xb5, 0x3c, 0xa0, 0xec, 0x06, 0x3d, 0xda, 0x6d, 0x64, 0xbe,
  0xab, 0x4d, 0x5d, 0x3e, 0x20, 0x58, 0x77, 0x3e, 0xb0, 0xdd, 0xed, 0x3c,
  0x58, 0x06, 0x64, 0xbe, 0x1c, 0x41, 0x00, 0xbe, 0xf9, 0xf2, 0x49, 0xbe,
  0xf3, 0xf1, 0x9d, 0x3c, 0x8c, 0x1e, 0x42, 0xbe, 0x6e, 0x29, 0x2d, 0xbd,
  0x61, 0xc2, 0x9b, 0x3d, 0x6f, 0x37, 0x85, 0xbd, 0x50, 0xe0, 0x5c, 0x3e,
  0xed, 0x76, 0x5b, 0xbd, 0xed, 0xac, 0x80, 0x3d, 0xb6, 0xb9, 0x9b, 0x3c,
  0xe4, 0xca, 0x31, 0x3c, 0xee, 0xbe, 0xe4, 0x3c, 0x44, 0xe4, 0x1f, 0x3d,
  0x52, 0x6d, 0x07, 0xbe, 0x81, 0x61, 0x87, 0xbd, 0x7d, 0x5c, 0x1c, 0x3d,
  0x29, 0x47, 0x58, 0x3e, 0x36, 0x41, 0x14, 0x3e, 0x00, 0xd2, 0xf2, 0x3d,
  0x96, 0x4f, 0x33, 0x3e, 0x46, 0x70, 0x39, 0x3e, 0xeb, 0x69, 0x0f, 0x3e,
  0x3c, 0x64, 0x0b, 0xbe, 0x5f, 0x3c, 0xbd, 0xbb, 0x11, 0x7f, 0x80, 0xbb,
  0xe1, 0x78, 0xa6, 0x3d, 0xe9, 0x5c, 0x58, 0x3e, 0xdc, 0xd9, 0x1f, 0x3e,
  0xdd, 0x09, 0xb7, 0xbd, 0x4b, 0x46, 0x00, 0xbe, 0x9f, 0x57, 0x07, 0x3c,
  0xa3, 0xf0, 0x94, 0xbd, 0x5c, 0x98, 0x34, 0x3e, 0x01, 0xb2, 0x1a, 0x3e,
  0xe1, 0x02, 0x26, 0xbe, 0xa9, 0x75, 0x0a, 0xbd, 0x8c, 0x5e, 0x45, 0xbe,
  0x09, 0x8d, 0x8d, 0x3c, 0xaa, 0x5c, 0x88, 0xbe, 0x29, 0x35, 0x80, 0x3d,
  0xbd, 0xb9, 0xb0, 0x3d, 0x96, 0x61, 0x5d, 0x3e, 0x97, 0x23, 0x78, 0xbe,
  0x5c, 0xfb, 0xe0, 0x3d, 0x21, 0x38, 0x45, 0xbe, 0x81, 0xaf, 0x00, 0xbe,
  0xa8, 0xcf, 0x67, 0xbe, 0x2f, 0x2b, 0x11, 0xbe, 0x09, 0xd1, 0x65, 0x3e,
  0xfe, 0x9b, 0x55, 0x3e, 0x83, 0xa7, 0x5c, 0x3e, 0x16, 0x4a, 0x74, 0x3e,
  0xd7, 0xb2, 0xee, 0xbd, 0xac, 0x11, 0x38, 0x3e, 0x7f, 0x0a, 0x94, 0x3e,
  0x8e, 0x5e, 0x85, 0xbd, 0x00, 0xff, 0x45, 0x3e, 0x9a, 0x0f, 0xb2, 0xbd,
  0x6a, 0xb4, 0xa9, 0xbd, 0x2b, 0x8b, 0xf9, 0xbc, 0x5d, 0xd0, 0x21, 0xbe,
  0x74, 0x98, 0xeb, 0x3b, 0x0c, 0xda, 0x6c, 0xbe, 0xaa, 0x0f, 0xbb, 0x3c,
  0xf3, 0x46, 0x89, 0x3e, 0xd2, 0x06, 0x43, 0x3d, 0xb5, 0xa5, 0x3d, 0xbe,
  0x39, 0x0a, 0x99, 0xbd, 0x07, 0xae, 0x82, 0x3e, 0x35, 0x01, 0x4a, 0x3e,
  0x3b, 0xc7, 0x00, 0xbe, 0x4b, 0x67, 0x0c, 0x3e, 0xa7, 0x9e, 0x80, 0xbe,
  0xc2, 0xf2, 0x16, 0x3e, 0x3c, 0xcb, 0x1f, 0x3d, 0x78, 0x26, 0xf5, 0xbd,
  0x9a, 0x00, 0xb1, 0x3c, 0x1f, 0x5b, 0x11, 0x3e, 0xcb, 0x79, 0xb1, 0x3d,
  0x4b, 0x33, 0x29, 0xbd, 0x2c, 0x22, 0xa1, 0xbd, 0xf0, 0x2e, 0x0a, 0x3e,
  0x7d, 0xe3, 0x2d, 0xbe, 0x3b, 0xdf, 0x3e, 0xbd, 0xba, 0x41, 0xef, 0xbd,
  0x8f, 0x25, 0xc1, 0xbd, 0x65, 0x06, 0x29, 0xbe, 0x2e, 0x17, 0x18, 0xbd,
  0x9d, 0xed, 0xf0, 0x3d, 0x9d, 0xa6, 0x94, 0x3d, 0x46, 0xa1, 0x2d, 0x3c,
  0xe3, 0xa8, 0xdc, 0xbd, 0x72, 0x25, 0x47, 0xbe, 0x8e, 0x35, 0x88, 0x3d,
  0xce, 0x0c, 0xc7, 0x3d, 0xf4, 0x1e, 0x27, 0xbd, 0x65, 0x80, 0xd1, 0x3d,
  0x64, 0x35, 0x96, 0xbd, 0x40, 0x60, 0x92, 0xbd, 0x00, 0xe1, 0xf2, 0x3b,
  0xad, 0x16, 0x28, 0xbe, 0x41, 0x8f, 0x36, 0xbe, 0xfe, 0xcc, 0x69, 0xbe,
  0x80, 0xcd, 0x16, 0x3e, 0x10, 0xcc, 0x1a, 0xbd, 0x0e, 0xb7, 0x5e, 0x3e,
  0x79, 0xfe, 0x9e, 0x3d, 0xf1, 0x76, 0x8f, 0xbd, 0x4c, 0x0b, 0x90, 0xbd,
  0xfb, 0xff, 0x91, 0x3e, 0x89, 0xf3, 0x8a, 0x3d, 0x0b, 0x69, 0xac, 0xbc,
  0xb0, 0x5c, 0x61, 0x3e, 0xba, 0x8d, 0xcb, 0x3c, 0x28, 0x81, 0x32, 0x3e,
  0x88, 0xcc, 0x72, 0x3e, 0x6a, 0x57, 0x4c, 0xbd, 0x95, 0x58, 0x53, 0xbd,
  0xd7, 0x6d, 0xb0, 0x3c, 0x7a, 0x36, 0x26, 0x3d, 0xa3, 0x9f, 0x35, 0x3e,
  0x48, 0x13, 0x0d, 0x3d, 0xac, 0x8b, 0xc2, 0x3d, 0x2d, 0x80, 0x53, 0xbe,
  0x2c, 0xf9, 0x43, 0xbe, 0xaf, 0x56, 0x51, 0xbe, 0x6f, 0xae, 0x8a, 0x3e,
  0x9d, 0x4c, 0x32, 0x3e, 0x83, 0x41, 0x05, 0x3d, 0xae, 0x43, 0xdd, 0xbd,
  0x26, 0x22, 0x32, 0xbe, 0xd1, 0xc0, 0x03, 0x3e, 0xa1, 0xfb, 0xc1, 0x3d,
  0x15, 0x3b, 0x74, 0xbe, 0x3e, 0x68, 0x62, 0xbe, 0xa8, 0x6e, 0x07, 0xbe,
  0x0f, 0x64, 0x35, 0xbe, 0x41, 0x32, 0x42, 0xbd, 0xff, 0x08, 0x1f, 0xbd,
  0xcd, 0xe7, 0x22, 0x3e, 0x4f, 0x28, 0xd6, 0xbd, 0x40, 0xf8, 0x06, 0x3d,
  0x6f, 0xaf, 0xb7, 0x3d, 0x28, 0xf3, 0x3f, 0xbe, 0x75, 0x9c, 0x1f, 0x3c,
  0x9b, 0x92, 0x07, 0xbd, 0xf1, 0xfd, 0xc9, 0x3d, 0xfa, 0xd9, 0x8c, 0xbd,
  0x5d, 0x4c, 0x47, 0x3e, 0x23, 0x7c, 0x32, 0xbe, 0xb7, 0x7c, 0x66, 0x3e,
  0xb7, 0x79, 0x69, 0xbe, 0x00, 0x09, 0x4d, 0x3d, 0x48, 0x0c, 0x1f, 0xbe,
  0xe4, 0xe6, 0xf7, 0x3c, 0x33, 0xdc, 0x80, 0x3e, 0xf5, 0xfc, 0x58, 0xbe,
  0x9c, 0x22, 0x92, 0xbd, 0x12, 0x97, 0x19, 0x3e, 0x3b, 0x1e, 0x27, 0xbe,
  0x46, 0x3a, 0x23, 0xbd, 0x4a, 0x19, 0x9e, 0x3d, 0x7d, 0xd7, 0x54, 0x3e,
  0x23, 0x6f, 0x50, 0xbe, 0xc5, 0xd7, 0x51, 0x3e, 0xd5, 0xaa, 0x84, 0x3d,
  0x4d, 0x26, 0x1a, 0x3d, 0x10, 0xc0, 0x61, 0xbe, 0xfb, 0xf1, 0x9f, 0x3d,
  0x5c, 0x98, 0x47, 0xbe, 0xaf, 0x5e, 0x1f, 0xbb, 0x37, 0xa1, 0x02, 0x3e,
  0x61, 0x3b, 0x3e, 0x3e, 0x9a, 0x1c, 0x70, 0x3c, 0x06, 0xb5, 0x21, 0x3e,
  0x57, 0x70, 0x2c, 0x3e, 0x56, 0x93, 0x10, 0x3c, 0x24, 0x53, 0x62, 0x3e,
  0xfd, 0xba, 0x08, 0x3d, 0x20, 0x0b, 0xf9, 0x3d, 0x2c, 0x84, 0xad, 0x3d,
  0xb5, 0x17, 0x5d, 0xbe, 0x87, 0x6e, 0xf7, 0x3c, 0x6b, 0xac, 0x8d, 0xbd,
  0x98, 0x1c, 0xd7, 0xbd, 0x6f, 0xfd, 0x1b, 0x3d, 0x94, 0x95, 0x05, 0xbe,
  0x77, 0xfa, 0x4f, 0x3e, 0x40, 0x69, 0x96, 0x3c, 0xff, 0xa3, 0x18, 0x3c,
  0x48, 0xdf, 0x2e, 0x3c, 0xa7, 0x40, 0xba, 0x3d, 0x40, 0xc8, 0xf1, 0x3d,
  0xca, 0x40, 0xa5, 0xbd, 0x9c, 0xa1, 0x7c, 0x3e, 0x02, 0xbb, 0x39, 0xbe,
  0x95, 0x61, 0x55, 0xbe, 0xef, 0x57, 0x56, 0x3c, 0x1f, 0x5c, 0xd6, 0xbd,
  0x4d, 0xac, 0xb3, 0x3d, 0xe4, 0x9f, 0x7a, 0xbe, 0x7a, 0xf6, 0xcb, 0x3c,
  0xee, 0x3e, 0x7f, 0x3e, 0x10, 0x13, 0x70, 0xbd, 0xa4, 0x0b, 0x56, 0x3e,
  0x59, 0xed, 0xdb, 0x3c, 0xe5, 0x45, 0x17, 0x3e, 0x26, 0xfe, 0x89, 0xbc,
  0xa1, 0x3c, 0x4e, 0x3d, 0x6d, 0x20, 0x5f, 0x3e, 0xc8, 0x82, 0x82, 0x3e,
  0x37, 0xe8, 0x19, 0x3e, 0x66, 0xeb, 0x3a, 0x3e, 0x90, 0xfb, 0x5e, 0xbe,
  0x58, 0x13, 0x77, 0xbe, 0xc2, 0xe3, 0xe1, 0xbd, 0x00, 0x85, 0xe0, 0x3d,
  0x9e, 0x44, 0x06, 0xbe, 0x0d, 0x35, 0x4a, 0x3d, 0xe5, 0x47, 0x89, 0x3c,
  0x01, 0x60, 0x58, 0x3e, 0xc0, 0x24, 0x8a, 0x3e, 0x04, 0x9b, 0x07, 0x3e,
  0x75, 0x09, 0xf8, 0xbc, 0x15, 0x70, 0x34, 0xbd, 0x2d, 0x1a, 0x9b, 0xbc,
  0x98, 0x90, 0xa4, 0xbd, 0x64, 0x72, 0x7d, 0xbe, 0x79, 0xd6, 0x01, 0x3e,
  0x56, 0xae, 0x01, 0xbe, 0xde, 0x5d, 0x36, 0xbe, 0x88, 0x9f, 0x27, 0x3e,
  0x9a, 0x35, 0x40, 0xbd, 0xe4, 0x76, 0xf8, 0x3d, 0x6d, 0x8f, 0x32, 0x3e,
  0x54, 0xd5, 0x28, 0xbe, 0x08, 0x9c, 0x47, 0xbe, 0xfd, 0x31, 0x5b, 0x3e,
  0x0e, 0xb2, 0xec, 0xbd, 0x06, 0x9b, 0x0b, 0xbe, 0x34, 0x65, 0x0b, 0x3e,
  0xda, 0x93, 0x45, 0xbe, 0xa0, 0xba, 0x40, 0xbe, 0xa7, 0xe7, 0x23, 0x3c,
  0x8c, 0x7c, 0x90, 0xbd, 0x54, 0x30, 0x5d, 0xbe, 0x22, 0x3e, 0xc4, 0xbc,
  0x8c, 0x27, 0x37, 0xbe, 0xb5, 0x05, 0xb6, 0x3c, 0xa9, 0x95, 0x60, 0x3d,
  0xf5, 0x34, 0x1f, 0x3e, 0xa9, 0x43, 0x34, 0xbe, 0x03, 0x67, 0xe8, 0x3b,
  0xc6, 0xc5, 0xee, 0x3d, 0xfc, 0xac, 0x72, 0x3c, 0xbf, 0x85, 0xee, 0x3c,
  0xe9, 0xc1, 0xb1, 0xbc, 0xf6, 0xcb, 0xbf, 0xbd, 0xce, 0xdb, 0x5b, 0x3e,
  0x94, 0xe5, 0x06, 0x3e, 0xa7, 0x16, 0x6b, 0x3e, 0x48, 0x19, 0x27, 0xbe,
  0xb9, 0x35, 0x16, 0x3e, 0xfb, 0xe0, 0xc7, 0xbc, 0x64, 0x5e, 0x68, 0x3c,
  0x25, 0xda, 0x17, 0xbe, 0x43, 0xfc, 0x4b, 0xbe, 0x08, 0x96, 0x55, 0x3e,
  0x16, 0x94, 0x96, 0xbe, 0x18, 0xdb, 0x81, 0x3e, 0xdd, 0xe1, 0x7f, 0xbe,
  0x29, 0x19, 0x2e, 0x3e, 0xed, 0xed, 0xfb, 0xbd, 0x56, 0x30, 0x57, 0xbe,
  0x5d, 0x2e, 0xde, 0x3d, 0xdb, 0xd4, 0x82, 0x3d, 0x02, 0x4b, 0x20, 0xbe,
  0xb5, 0x64, 0x02, 0x3e, 0x84, 0xff, 0xe4, 0x3d, 0x7d, 0x93, 0x62, 0x3e,
  0x5c, 0xfd, 0x17, 0xbd, 0xf7, 0xed, 0x27, 0x3e, 0x7e, 0x96, 0x20, 0xbe,
  0x71, 0x44, 0xe5, 0xbd, 0x2e, 0xdf, 0x8a, 0x3e, 0x20, 0xb3, 0xff, 0xbc,
  0x7a, 0x11, 0x0f, 0x3d, 0x02, 0xe8, 0x18, 0xbe, 0x34, 0xe6, 0xd0, 0x3d,
  0x5a, 0x56, 0x86, 0x3e, 0xe4, 0xe4, 0x82, 0x3a, 0xd2, 0x6d, 0xd2, 0x3d,
  0xb2, 0x50, 0x09, 0x3c, 0x00, 0x0d, 0x1b, 0x3e, 0x01, 0x74, 0xb6, 0xbd,
  0x4d, 0xc0, 0x5e, 0x3d, 0xa4, 0x64, 0x02, 0x3c, 0x9f, 0x23, 0x05, 0x3e,
  0x75, 0xe6, 0x43, 0x3c, 0x09, 0x25, 0xd5, 0xbd, 0xc4, 0x97, 0xd1, 0xbd,
  0x26, 0x7b, 0x44, 0xbe, 0x0e, 0xc2, 0xc3, 0x3d, 0xa4, 0x1a, 0xb9, 0x3c,
  0x72, 0xf3, 0x4c, 0xbe, 0x15, 0x91, 0xb8, 0xbd, 0x52, 0x51, 0xe1, 0x3a,
  0x98, 0xbd, 0x43, 0x3c, 0xea, 0xd1, 0x82, 0x3b, 0x44, 0xbb, 0x37, 0xbe,
  0xc2, 0xbd, 0x00, 0xbc, 0xa0, 0xdf, 0xcd, 0x3d, 0xef, 0x86, 0x23, 0xbe,
  0x9a, 0xaa, 0xa5, 0x3d, 0x51, 0x35, 0xc5, 0x3d, 0xcf, 0x86, 0x3f, 0xbe,
  0x0d, 0x24, 0x6d, 0x3c, 0xc8, 0x7b, 0x5c, 0xbe, 0x5d, 0x11, 0x96, 0xbd,
  0xa6, 0x24, 0xa0, 0xbd, 0x69, 0x30, 0x2d, 0xbe, 0xdf, 0x02, 0x54, 0xbe,
  0x04, 0xed, 0x18, 0xbd, 0xda, 0xd7, 0x1e, 0x3e, 0xc4, 0xe4, 0xe9, 0xbc,
  0xfe, 0x74, 0x0c, 0x3d, 0x05, 0xf4, 0x34, 0x3d, 0x96, 0x3a, 0x8b, 0xbe,
  0x03, 0xdd, 0x1d, 0xbe, 0xd1, 0x87, 0xdc, 0x3d, 0x89, 0x74, 0x9c, 0x3c,
  0x05, 0xa2, 0x9d, 0xbd, 0x8f, 0x5b, 0x14, 0xbe, 0xda, 0x67, 0xdb, 0x3d,
  0x7e, 0xae, 0xff, 0x3d, 0xc0, 0x09, 0x85, 0x3e, 0x92, 0xa9, 0xca, 0x3d,
  0x82, 0x91, 0x21, 0xbe, 0x3e, 0x32, 0xb7, 0x3d, 0xe4, 0x1d, 0x59, 0x3e,
  0xb7, 0xae, 0xa0, 0xbd, 0x70, 0x6d, 0x0a, 0x3d, 0x77, 0x8c, 0x32, 0x3e,
  0x2e, 0x19, 0xdd, 0x3c, 0xa0, 0xa5, 0x0b, 0xbe, 0x54, 0x7f, 0x8f, 0xbd,
  0x94, 0x82, 0x56, 0x3e, 0x45, 0x06, 0x35, 0x3e, 0x7c, 0x0e, 0x56, 0xbe,
  0x16, 0x32, 0xff, 0xbd, 0x98, 0x0e, 0x28, 0x3e, 0xbf, 0x60, 0x34, 0x3e,
  0x71, 0x61, 0x62, 0xbe, 0x08, 0x3a, 0x94, 0x3d, 0xa6, 0x22, 0xf8, 0x3d,
  0x64, 0x84, 0xea, 0x3c, 0x4e, 0xa2, 0xf5, 0xbd, 0x9d, 0x57, 0x2c, 0x3d,
  0x2a, 0xa7, 0x35, 0x3d, 0xcc, 0x5d, 0xf5, 0xbc, 0x40, 0xfc, 0xd4, 0xbd,
  0x73, 0x22, 0x67, 0xbe, 0x5f, 0x93, 0x4d, 0x3e, 0x10, 0x35, 0xf3, 0xbd,
  0xa6, 0x4d, 0xee, 0xbd, 0x41, 0xd3, 0xfa, 0xbd, 0x2f, 0xcc, 0x6f, 0x3d,
  0x7c, 0xa0, 0xe7, 0x3d, 0x19, 0x58, 0x6b, 0x3e, 0xda, 0xff, 0x4e, 0x39,
  0xeb, 0x6b, 0x45, 0x3e, 0x11, 0x20, 0xaa, 0xbd, 0xe5, 0x9f, 0x6f, 0xbe,
  0x66, 0x18, 0x45, 0xbe, 0xee, 0x94, 0xd8, 0x3c, 0x2b, 0xa9, 0xa4, 0x3d,
  0xb5, 0x11, 0xd8, 0xbc, 0xf8, 0x24, 0x3a, 0x3e, 0x3b, 0x1c, 0x49, 0xbc,
  0x99, 0xfb, 0x52, 0xbe, 0xb6, 0xdd, 0x1e, 0x3e, 0x70, 0x21, 0x71, 0xbd,
  0xca, 0x5f, 0x36, 0x3d, 0xf5, 0x7a, 0xe9, 0x3d, 0x97, 0x2d, 0x27, 0xbe,
  0xa5, 0xc8, 0x12, 0x3e, 0xdb, 0x0c, 0xcf, 0xbd, 0x68, 0x3e, 0x43, 0x3e,
  0xa4, 0x3e, 0x4d, 0xbe, 0xa5, 0x96, 0xc1, 0xbd, 0x84, 0xd7, 0x24, 0x3e,
  0x3d, 0xec, 0xc7, 0xbd, 0x62, 0x8a, 0x49, 0x3d, 0x48, 0x43, 0x4c, 0xbd,
  0xf8, 0x6b, 0x9a, 0xbd, 0x2a, 0x9d, 0x81, 0xbd, 0x0f, 0xc3, 0x20, 0xbe,
  0xcb, 0xda, 0x9b, 0xbc, 0x1c, 0xe9, 0x6b, 0xbe, 0x07, 0x1c, 0xb3, 0x3b,
  0x96, 0xa7, 0x7b, 0x3e, 0xdd, 0x51, 0x53, 0x3e, 0x5f, 0x5f, 0xde, 0xbd,
  0x8f, 0xfd, 0xd7, 0x3d, 0x16, 0x7c, 0x57, 0x3d, 0xb7, 0x85, 0xba, 0xbd,
  0x42, 0x68, 0x51, 0xbe, 0x55, 0x83, 0x68, 0x3e, 0x90, 0x0c, 0x14, 0x3e,
  0x73, 0xfa, 0x01, 0xbe, 0xdb, 0xd4, 0x62, 0x3d, 0x60, 0x05, 0x98, 0x3d,
  0x89, 0xca, 0x1d, 0xbe, 0xc9, 0x44, 0x84, 0xbe, 0xea, 0xc7, 0x3a, 0x3e,
  0x6c, 0x8e, 0x18, 0x3e, 0x29, 0x10, 0xa9, 0x3d, 0x58, 0xe2, 0x30, 0xbd,
  0x5c, 0xd0, 0xa6, 0xbd, 0xa2, 0xb0, 0x27, 0xbe, 0x78, 0xcd, 0x66, 0xbe,
  0x08, 0x22, 0x66, 0xbd, 0x75, 0x2e, 0x09, 0xbe, 0x24, 0x54, 0x0a, 0xbe,
  0xf0, 0xd9, 0x02, 0xbe, 0x7b, 0x38, 0x32, 0xbe, 0x61, 0x26, 0x23, 0x3a,
  0x02, 0x60, 0x42, 0x3e, 0x79, 0x9a, 0xe8, 0x3d, 0xec, 0xe0, 0xf2, 0x3d,
  0xb9, 0xad, 0x48, 0x3e, 0x6a, 0xdb, 0x0f, 0xbe, 0x04, 0x17, 0x3a, 0xbe,
  0x62, 0x93, 0x26, 0x3e, 0x88, 0xc6, 0xf2, 0x3d, 0x72, 0x80, 0x76, 0xbe,
  0x44, 0xb3, 0x5f, 0x3d, 0x6d, 0xbc, 0xde, 0xbd, 0x7b, 0x63, 0xda, 0xbd,
  0x3d, 0xd2, 0xea, 0xbd, 0x7e, 0x48, 0x76, 0xbd, 0x4c, 0x54, 0x2f, 0xbd,
  0x2b, 0x38, 0xb7, 0xbd, 0x66, 0x9d, 0x9a, 0xbc, 0x7e, 0x3c, 0xde, 0xbd,
  0xb3, 0xbc, 0x0d, 0xbe, 0x4a, 0xeb, 0x8e, 0xbd, 0x95, 0x94, 0xad, 0x3d,
  0x59, 0x72, 0xd7, 0x3d, 0xed, 0x26, 0x2d, 0xbd, 0xeb, 0x57, 0x32, 0x3e,
  0xc3, 0x6d, 0x0f, 0xbe, 0x9d, 0x25, 0x10, 0x3e, 0x8f, 0x53, 0x20, 0xbe,
  0x11, 0x05, 0xb3, 0x3d, 0xe5, 0xd5, 0xef, 0xbc, 0xd7, 0x8a, 0x2a, 0x3e,
  0x45, 0x81, 0xc1, 0x3c, 0x2b, 0xc6, 0xd6, 0xbb, 0x32, 0xd0, 0xb8, 0xbd,
  0xcd, 0xb0, 0x73, 0x3e, 0x1c, 0x58, 0x21, 0xbe, 0x02, 0x99, 0x51, 0x3e,
  0x45, 0xd0, 0x03, 0xbe, 0xb5, 0xe1, 0xf6, 0x3d, 0xda, 0x36, 0xa6, 0xbd,
  0x16, 0xed, 0x27, 0xbd, 0x4e, 0xf4, 0x56, 0xbe, 0xfd, 0xa7, 0x04, 0xbe,
  0xca, 0x33, 0xfb, 0x3d, 0xe4, 0x01, 0x77, 0xbd, 0x02, 0x27, 0x80, 0xbe,
  0x7a, 0x59, 0x25, 0xbe, 0xfe, 0xfa, 0x1f, 0x3e, 0xc0, 0xba, 0xdd, 0x3d,
  0x2e, 0x85, 0x4e, 0x3e, 0x51, 0xdd, 0x1e, 0xbe, 0xfe, 0xe4, 0x42, 0xbe,
  0xd7, 0x3e, 0x0c, 0xbe, 0x6a, 0x9b, 0x37, 0x3e, 0x98, 0x9f, 0xbc, 0x3d,
  0xab, 0x7a, 0x2e, 0x3e, 0xf0, 0x15, 0x04, 0xbe, 0xab, 0xa5, 0xf7, 0x3c,
  0x35, 0x5a, 0x8d, 0x3d, 0xbf, 0x68, 0x26, 0xbe, 0x8e, 0xbd, 0x46, 0x3c,
  0x5d, 0x05, 0xca, 0xbd, 0xb7, 0x36, 0x08, 0xbe, 0xae, 0xd0, 0x41, 0x3d,
  0xf1, 0xbb, 0xe2, 0xbd, 0x43, 0xb4, 0x61, 0xbd, 0xe6, 0x75, 0x45, 0xbe,
  0xb1, 0xec, 0xc2, 0x3d, 0xbe, 0x1b, 0x77, 0xbd, 0x2b, 0x70, 0x3a, 0x3e,
  0x34, 0x8d, 0x46, 0xbe, 0xe3, 0x41, 0x51, 0xbe, 0xc8, 0xf6, 0x04, 0x3d,
  0x25, 0x2b, 0x13, 0xbd, 0xc6, 0xec, 0x5b, 0x3e, 0x76, 0x05, 0x2c, 0xbe,
  0x4e, 0xdb, 0x32, 0x3e, 0x3e, 0xec, 0x1a, 0x3e, 0xa1, 0x13, 0x09, 0x3e,
  0x6f, 0x2b, 0xcb, 0x3d, 0x84, 0x94, 0x61, 0x3c, 0xc6, 0xa4, 0x2c, 0xbe,
  0xbf, 0x70, 0xa2, 0xbb, 0xe3, 0xcc, 0x58, 0xbe, 0xae, 0xc9, 0x6d, 0xbe,
  0xf9, 0x41, 0xb6, 0xbd, 0x82, 0x74, 0x61, 0xbe, 0x78, 0x51, 0x5a, 0x3e,
  0x09, 0xfe, 0x7f, 0x3e, 0x2b, 0xd7, 0x4f, 0xbe, 0x34, 0xfd, 0xa6, 0x3d,
  0xda, 0xb4, 0xd3, 0x3d, 0xc8, 0xc5, 0x00, 0xbc, 0x03, 0x76, 0x17, 0x3d,
  0x74, 0x32, 0x86, 0xbe, 0x69, 0x32, 0x81, 0x3e, 0x6f, 0x66, 0x88, 0x3d,
  0x2a, 0x0f, 0x49, 0x3e, 0xb4, 0x0d, 0xa9, 0x3d, 0x29, 0x5c, 0x05, 0xbe,
  0x3b, 0x61, 0x81, 0x3e, 0xbe, 0x80, 0x63, 0x3e, 0x8a, 0x94, 0xb3, 0xbd,
  0xd6, 0x4d, 0x46, 0xbe, 0x6f, 0x9f, 0x90, 0x3d, 0x3b, 0xcb, 0xa3, 0xbc,
  0xeb, 0x3f, 0x98, 0xbc, 0x24, 0x3c, 0xa5, 0x3d, 0xd8, 0x93, 0x59, 0xbe,
  0x83, 0xf8, 0x2c, 0x3d, 0xcc, 0x38, 0x76, 0x3e, 0x8b, 0x0c, 0x21, 0x3d,
  0xde, 0xf4, 0x6e, 0x3e, 0xd2, 0xa3, 0xf1, 0x3d, 0xe0, 0x9f, 0x67, 0xbe,
  0x3a, 0x08, 0x82, 0xbe, 0xba, 0x84, 0xff, 0xbc, 0xe5, 0x84, 0x6c, 0xbe,
  0x53, 0xc1, 0x39, 0xbd, 0x05, 0x71, 0xbe, 0xbd, 0xb0, 0xeb, 0xee, 0x3d,
  0x41, 0x36, 0x79, 0x3d, 0x55, 0xdb, 0x7e, 0x3c, 0x0d, 0x1b, 0x82, 0x3d,
  0x5f, 0xc8, 0xf2, 0xbd, 0xee, 0x68, 0x3a, 0x3e, 0x58, 0x42, 0x64, 0x3e,
  0x50, 0x80, 0x27, 0x3e, 0xe8, 0xc4, 0x3f, 0xbe, 0x9b, 0x2a, 0x56, 0x3e,
  0x10, 0x9e, 0x8e, 0xbd, 0xc2, 0xde, 0x04, 0x3e, 0xc4, 0x36, 0x12, 0xbe,
  0xb6, 0xf7, 0x66, 0x3e, 0xc7, 0x93, 0x2b, 0xbe, 0x4c, 0x3d, 0x30, 0x3d,
  0xe6, 0x02, 0x4c, 0xbe, 0xdb, 0xe7, 0x9a, 0x3c, 0x58, 0x7f, 0x7c, 0xbe,
  0x12, 0x15, 0x14, 0x3e, 0x85, 0xd8, 0x10, 0x3e, 0x31, 0xba, 0x32, 0x3e,
  0x30, 0xb6, 0xf0, 0xbc, 0xb3, 0xe4, 0xb6, 0x3d, 0xf3, 0x35, 0xef, 0x3d,
  0xb4, 0x76, 0x61, 0x3e, 0xc0, 0xda, 0xec, 0x3d, 0x82, 0x2b, 0x0a, 0x3e,
  0x7e, 0x33, 0xcf, 0xbd, 0x32, 0x8d, 0xb6, 0x3d, 0xde, 0x0c, 0x97, 0x3d,
  0x4a, 0xe0, 0x2e, 0x3e, 0x34, 0x74, 0x75, 0x3e, 0xf7, 0xaa, 0x71, 0xbe,
  0x73, 0xe0, 0x4b, 0x3e, 0x57, 0x94, 0x73, 0x3c, 0x12, 0x7e, 0x33, 0x3e,
  0x49, 0x45, 0xf7, 0xbd, 0x26, 0xc0, 0x0d, 0x3d, 0x76, 0xb4, 0xb7, 0x3d,
  0xd5, 0x63, 0xfa, 0xbd, 0x11, 0x6b, 0xd4, 0x3d, 0x14, 0xff, 0x0f, 0x3e,
  0x99, 0x56, 0x21, 0x3e, 0x78, 0x74, 0x8c, 0x3e, 0xd4, 0x96, 0x46, 0xbd,
  0xf6, 0xc9, 0x61, 0x3e, 0xd3, 0x76, 0x12, 0x3e, 0x73, 0x3c, 0x31, 0xbd,
  0xb4, 0x5e, 0x2f, 0x3c, 0x9a, 0x6a, 0xeb, 0xbd, 0x0d, 0x31, 0x43, 0x3d,
  0x7b, 0x35, 0x1a, 0xbe, 0x30, 0x2b, 0x6c, 0xbe, 0xe7, 0xef, 0x03, 0x3e,
  0x77, 0xc1, 0xf0, 0x3c, 0x66, 0xc5, 0x64, 0xbe, 0xc3, 0x01, 0x33, 0x3e,
  0x61, 0x87, 0x94, 0xbd, 0x1d, 0x7f, 0x7d, 0x3e, 0x27, 0x40, 0xdc, 0x3d,
  0x2b, 0x76, 0xeb, 0xbd, 0xba, 0x7b, 0x82, 0x3d, 0x14, 0xc6, 0x8c, 0x3d,
  0xc5, 0x72, 0xf7, 0x3d, 0x6e, 0x2b, 0x27, 0x3d, 0x06, 0x81, 0x41, 0x3d,
  0xf1, 0xee, 0x22, 0xbe, 0xd5, 0x8a, 0x5f, 0xbe, 0xd5, 0xce, 0x30, 0x3e,
  0x5b, 0x59, 0x29, 0x3e, 0xfe, 0x2c, 0xb6, 0x3d, 0x78, 0x57, 0x83, 0xbe,
  0x03, 0x72, 0x91, 0x3d, 0xba, 0x65, 0x7f, 0x3e, 0x19, 0xef, 0x82, 0x3d,
  0x32, 0x54, 0x4b, 0xbe, 0x5d, 0x1f, 0x17, 0xbe, 0xec, 0x0d, 0x07, 0x3d,
  0xd7, 0xa3, 0x70, 0x3d, 0xc0, 0x13, 0xed, 0x3d, 0x1e, 0x4c, 0xf5, 0xba,
  0xe8, 0x94, 0x85, 0xbd, 0xd8, 0x4c, 0xd6, 0x3d, 0x1c, 0xcd, 0xfe, 0x3d,
  0x5c, 0x99, 0x7a, 0xbe, 0x99, 0x2e, 0xe1, 0x3d, 0x60, 0x4f, 0x2c, 0x3e,
  0xe0, 0x78, 0xae, 0x3d, 0x42, 0x2f, 0x59, 0x3c, 0xd7, 0xbe, 0x18, 0xbe,
  0x4d, 0xe9, 0x3d, 0xbe, 0x7f, 0xea, 0xa5, 0x3d, 0x01, 0x70, 0x7e, 0xbe,
  0x97, 0x66, 0xd0, 0x3c, 0x23, 0xaf, 0x07, 0xbe, 0xd0, 0x0d, 0x8e, 0x3d,
  0x71, 0x11, 0x1f, 0xbe, 0x5b, 0xef, 0xcc, 0x3d, 0x01, 0xf8, 0x1b, 0x3d,
  0x72, 0x00, 0xcd, 0xbc, 0xb5, 0x99, 0x1a, 0xbe, 0x05, 0x12, 0x59, 0x3e,
  0xb6, 0x63, 0x01, 0x3e, 0x0f, 0x20, 0x3e, 0x3d, 0x39, 0x31, 0x44, 0x3e,
  0xe9, 0x44, 0x1b, 0xbe, 0x8e, 0x8e, 0x46, 0x3e, 0x5e, 0xdf, 0xad, 0xbc,
  0xc0, 0xa0, 0x9f, 0x39, 0x0f, 0xa9, 0xee, 0x3b, 0x85, 0x12, 0x15, 0x3e,
  0x11, 0xb1, 0x30, 0x3e, 0xb1, 0x65, 0x95, 0xbc, 0x99, 0xe9, 0x75, 0x3d,
  0xe3, 0xe6, 0x1e, 0xbe, 0xe8, 0xba, 0x3a, 0x3e, 0x7a, 0x58, 0x06, 0x3e,
  0x73, 0x21, 0x2f, 0x3e, 0x1a, 0x9b, 0xb9, 0x3d, 0x57, 0x0f, 0xb6, 0xbd,
  0x46, 0xf0, 0x93, 0x3d, 0x39, 0xee, 0x06, 0xbd, 0x8f, 0x13, 0x77, 0xbe,
  0x03, 0x36, 0x37, 0x3e, 0x02, 0xa2, 0x25, 0x3e, 0xc0, 0xb1, 0x07, 0xbd,
  0x48, 0x16, 0xcf, 0xbc, 0xd6, 0xd4, 0x3e, 0xbe, 0x94, 0x66, 0xd4, 0x3d,
  0x84, 0xc0, 0x0a, 0xbe, 0x67, 0x04, 0x2a, 0x3d, 0x2c, 0xec, 0x87, 0xbe,
  0x5a, 0xfe, 0x0d, 0xbd, 0x1b, 0xc1, 0xec, 0x3d, 0x02, 0x10, 0x11, 0x3e,
  0xcd, 0x32, 0x7c, 0xbe, 0xe9, 0xc4, 0xcf, 0x3c, 0x95, 0xb6, 0x2e, 0x3e,
  0x62, 0x20, 0xf0, 0xbd, 0x5f, 0x4b, 0xe2, 0xbc, 0x64, 0xe3, 0x78, 0x3e,
  0x3d, 0xc5, 0x8c, 0x3d, 0xc2, 0x04, 0x89, 0x3e, 0xb3, 0xe4, 0xae, 0xbc,
  0xc1, 0xc4, 0x81, 0xbe, 0xcf, 0x3b, 0x1c, 0x3d, 0xcb, 0x68, 0x82, 0x3e,
  0xd3, 0x66, 0x34, 0xbe, 0xb4, 0xa3, 0x19, 0x3e, 0xc9, 0xdb, 0x8c, 0x3e,
  0x7e, 0x80, 0x57, 0xbd, 0x6a, 0xf1, 0x97, 0x3d, 0x06, 0x5b, 0x9b, 0x3d,
  0x55, 0x75, 0xf1, 0x3d, 0x2f, 0xaa, 0x35, 0x3e, 0x58, 0x10, 0x92, 0xbc,
  0x2d, 0x6f, 0xd8, 0xbd, 0x12, 0x4c, 0xb4, 0xbd, 0x18, 0x0f, 0x1f, 0xbc,
  0xa1, 0x1f, 0x14, 0xbe, 0xf9, 0x0b, 0x4d, 0x3d, 0x4e, 0xdc, 0x46, 0xbe,
  0x87, 0x1a, 0xc5, 0xbd, 0xb4, 0xe5, 0x47, 0x3e, 0x5f, 0x3f, 0xd2, 0x3d,
  0xcf, 0x41, 0x2a, 0x3d, 0xa9, 0x60, 0x08, 0x3e, 0xf9, 0xb1, 0x3b, 0xbe,
  0x35, 0x3e, 0x25, 0xbe, 0xca, 0xf6, 0x82, 0xbe, 0x07, 0x56, 0x74, 0x3e,
  0xbe, 0x52, 0x36, 0x3b, 0xe1, 0x72, 0x14, 0x3e, 0x3d, 0x03, 0x93, 0xbc,
  0x65, 0xf5, 0xca, 0xbd, 0xce, 0x45, 0x39, 0x3d, 0xe4, 0x82, 0xc8, 0x3d,
  0x3a, 0x05, 0x3e, 0x3e, 0x7f, 0x10, 0xce, 0xbd, 0xb7, 0x1e, 0x16, 0x3e,
  0xf6, 0x0b, 0x0e, 0x3e, 0x86, 0xc5, 0x5e, 0xbe, 0x26, 0x42, 0x69, 0x3e,
  0x7b, 0x5b, 0x55, 0x3e, 0xed, 0xde, 0xcd, 0x3c, 0x4d, 0x51, 0x44, 0xbe,
  0x30, 0x59, 0x2e, 0x3e, 0xcd, 0xed, 0x6a, 0xbe, 0x06, 0x7f, 0xb0, 0xbd,
  0xa3, 0xb6, 0x37, 0x3e, 0x3a, 0xad, 0xf4, 0x3c, 0x14, 0x6a, 0x38, 0x3e,
  0xee, 0xdc, 0x92, 0x3d, 0x5a, 0x0a, 0x4c, 0x3e, 0x83, 0xd1, 0x7c, 0xbc,
  0x1d, 0x85, 0xd1, 0x3d, 0xe6, 0x75, 0x6d, 0x3e, 0xe0, 0x11, 0x70, 0xbe,
  0xb9, 0xca, 0x52, 0x3e, 0xe5, 0x3b, 0x29, 0xbe, 0x68, 0x9d, 0x85, 0xbd,
  0x85, 0xb0, 0x2b, 0xbe, 0x91, 0x12, 0x88, 0x3d, 0x69, 0xe7, 0x0d, 0xbc,
  0xab, 0x19, 0x3b, 0x3e, 0xa9, 0xb4, 0x89, 0x3d, 0x2a, 0xf8, 0x78, 0xbd,
  0x9e, 0x16, 0x45, 0xbd, 0x7c, 0xe8, 0xe6, 0x3d, 0x1c, 0x84, 0x42, 0x3e,
  0xd3, 0x97, 0x08, 0xbe, 0x0d, 0xb5, 0x39, 0x3d, 0x85, 0x10, 0x25, 0xbe,
  0x84, 0x46, 0x20, 0xbe, 0xc4, 0xc8, 0x50, 0x3e, 0xfc, 0x13, 0xc8, 0xbd,
  0x45, 0x3a, 0x3c, 0xbe, 0xf0, 0x18, 0x9a, 0xbd, 0x5d, 0x17, 0x22, 0xbe,
  0xbe, 0xca, 0x93, 0x3d, 0x23, 0x6f, 0xfb, 0x3d, 0x5a, 0x1b, 0x84, 0xbe,
  0x8b, 0x8a, 0x55, 0x3d, 0x31, 0x02, 0xb0, 0xbd, 0x86, 0x28, 0x9b, 0x3d,
  0x4a, 0x16, 0x9b, 0xbd, 0xb8, 0x32, 0xce, 0xbd, 0xd7, 0x7b, 0x26, 0x3e,
  0xa1, 0xe9, 0xe9, 0xbd, 0xf1, 0xec, 0x0d, 0xbe, 0xfe, 0x9b, 0x30, 0xbe,
  0x94, 0xc6, 0x29, 0xbe, 0x22, 0x72, 0xe8, 0xbd, 0x1d, 0x82, 0x3b, 0x3e,
  0x2d, 0x91, 0xc4, 0x3d, 0x1c, 0xef, 0x95, 0x3d, 0x3f, 0xef, 0x4a, 0xbe,
  0x2f, 0x42, 0x5e, 0x3d, 0x37, 0x79, 0xc2, 0x3d, 0x0d, 0x80, 0x1b, 0x3e,
  0xf2, 0x75, 0x0f, 0x3e, 0x55, 0xa3, 0x8f, 0x3d, 0xf8, 0xfa, 0xda, 0xbd,
  0x38, 0xb8, 0x41, 0xbe, 0xf0, 0x6b, 0x69, 0x3e, 0x1e, 0xb9, 0xbf, 0xbd,
  0x61, 0x95, 0x6d, 0xbe, 0xa9, 0x0b, 0x20, 0x3e, 0xcf, 0xa6, 0x52, 0x3d,
  0x89, 0x73, 0x77, 0x3d, 0x78, 0x8e, 0xa9, 0xbd, 0xf3, 0xf8, 0xfc, 0xbd,
  0x85, 0x2b, 0x8d, 0xbe, 0x93, 0xfb, 0x4e, 0x3e, 0xdb, 0xeb, 0x51, 0xbc,
  0xd8, 0x19, 0xef, 0x3c, 0xd2, 0x1c, 0x19, 0x3e, 0xca, 0x65, 0x80, 0x3e,
  0x6a, 0xd6, 0x83, 0xbe, 0x71, 0x08, 0x8d, 0xbd, 0xd1, 0xcb, 0x27, 0x3e,
  0xf8, 0x4c, 0x91, 0xbe, 0x25, 0xa8, 0x59, 0x3e, 0x2c, 0x78, 0x29, 0x3e,
  0xaa, 0x3d, 0xe8, 0x3d, 0x95, 0xbc, 0x6f, 0xbb, 0xe9, 0x0f, 0x39, 0xbe,
  0x5a, 0x05, 0x8f, 0xbd, 0xdb, 0xfa, 0xc0, 0x3b, 0xf1, 0xc0, 0xce, 0xbd,
  0x2b, 0x51, 0xc6, 0x3d, 0x93, 0xa5, 0x78, 0xbe, 0x3c, 0x6c, 0xfa, 0xbd,
  0x8a, 0xd4, 0xcf, 0x3c, 0xb0, 0xe0, 0x6f, 0xbc, 0x56, 0xc5, 0x83, 0xbe,
  0xd7, 0x6e, 0x81, 0xbd, 0xb5, 0x45, 0x7c, 0x3e, 0xf6, 0x43, 0x3a, 0x3e,
  0x76, 0xd9, 0x31, 0x3e, 0x98, 0x09, 0xbf, 0xbd, 0xe5, 0xe7, 0x1b, 0xbe,
  0x59, 0x08, 0xa5, 0x3c, 0x72, 0x2d, 0x8f, 0x3d, 0x9c, 0x6b, 0xef, 0xbc,
  0x65, 0xb8, 0x41, 0x3e, 0x6d, 0x10, 0x10, 0xbe, 0xb5, 0xea, 0xad, 0x3d,
  0xa6, 0x3e, 0xe0, 0xbd, 0x7d, 0x94, 0x64, 0x3e, 0x16, 0x9d, 0xde, 0x3d,
  0xe6, 0x98, 0x50, 0x3e, 0xea, 0x43, 0x7f, 0x3e, 0x70, 0x7c, 0x25, 0x3e,
  0x6d, 0xc0, 0xf7, 0x3c, 0xe1, 0x77, 0xa7, 0x3d, 0x13, 0x23, 0x6d, 0x3e,
  0xd5, 0xac, 0x34, 0xbe, 0x26, 0x53, 0x9c, 0xbd, 0x9d, 0x51, 0x87, 0xbe,
  0x48, 0xce, 0x1d, 0x3e, 0x2b, 0x5d, 0x13, 0x3e, 0x5a, 0x25, 0x51, 0xbd,
  0x6c, 0x53, 0x16, 0xbe, 0x64, 0x8c, 0x02, 0xbe, 0x34, 0x16, 0x0f, 0x3e,
  0xda, 0x5b, 0x80, 0x3e, 0xba, 0x8d, 0x34, 0xbe, 0xcd, 0x35, 0x5d, 0xbe,
  0xb0, 0xa6, 0x06, 0xbc, 0xdd, 0x49, 0xb4, 0xbc, 0x2e, 0x73, 0xb8, 0xbd,
  0x37, 0x40, 0x20, 0x3e, 0xd5, 0x95, 0x28, 0xbe, 0x6b, 0x93, 0x2d, 0xbd,
  0xd9, 0x82, 0x38, 0xbe, 0xb3, 0x3c, 0x4c, 0xbe, 0xf9, 0xc2, 0x6c, 0xbe,
  0xfd, 0xf9, 0x33, 0xbe, 0x81, 0x8d, 0x25, 0xbd, 0xb0, 0x4b, 0x61, 0xbd,
  0xd5, 0x80, 0xd6, 0xbd, 0x46, 0xe3, 0xeb, 0xbd, 0x30, 0xb4, 0x5c, 0x3d,
  0x74, 0x72, 0x26, 0xbe, 0x94, 0x65, 0x50, 0x3e, 0xc8, 0x06, 0x3b, 0x3e,
  0xd7, 0x86, 0x42, 0x3d, 0x92, 0x17, 0xbd, 0x3d, 0x9c, 0x3c, 0x00, 0x3c,
  0x08, 0x5f, 0xb5, 0x3c, 0x15, 0x10, 0x06, 0xbc, 0xc4, 0x97, 0xe7, 0x3d,
  0x34, 0x6a, 0x3f, 0xbe, 0x02, 0x0d, 0x45, 0xbc, 0xde, 0x63, 0x11, 0x3e,
  0xc1, 0xc7, 0x86, 0x3d, 0xe4, 0x58, 0x31, 0x3d, 0xeb, 0x75, 0x9c, 0xbd,
  0x8d, 0x88, 0x11, 0x3e, 0xe2, 0x46, 0xe0, 0xbd, 0xcc, 0xfd, 0x02, 0xbe,
  0xba, 0x3d, 0x44, 0x3e, 0x78, 0x95, 0xc1, 0x3d, 0x02, 0x0a, 0xc3, 0xbd,
  0x34, 0x68, 0xf7, 0x3d, 0xf7, 0x81, 0x8f, 0xbd, 0xbd, 0xa9, 0x6f, 0x3e,
  0x71, 0xea, 0x7f, 0xbc, 0x8c, 0x0c, 0x15, 0xbe, 0x25, 0xf1, 0x2e, 0xbe,
  0x53, 0x41, 0x1d, 0xbe, 0xa9, 0x7c, 0xb3, 0x3d, 0xe9, 0xe3, 0x6c, 0x3e,
  0x28, 0xb9, 0xfe, 0x3d, 0x22, 0xa6, 0xc3, 0xbd, 0x8e, 0x8b, 0x00, 0x3e,
  0x6f, 0x59, 0x18, 0x3e, 0xd8, 0x16, 0xcb, 0x3d, 0x49, 0xbd, 0x24, 0xbe,
  0x9c, 0x2f, 0xed, 0xbd, 0xd6, 0x68, 0x34, 0xbe, 0xf8, 0xd0, 0x16, 0xbe,
  0xc4, 0x68, 0x56, 0x3e, 0x4d, 0xe5, 0x80, 0x3c, 0xb9, 0xe7, 0x26, 0x3d,
  0xa3, 0x3c, 0xf5, 0x3c, 0x18, 0x06, 0x0a, 0x3e, 0x0c, 0x28, 0x40, 0x3e,
  0xbf, 0x0f, 0x7e, 0x3e, 0xfb, 0x6f, 0xf2, 0xbd, 0x9d, 0x0f, 0x7f, 0x3e,
  0xb9, 0x3c, 0xb9, 0x3d, 0x87, 0x76, 0x23, 0xbe, 0xc7, 0xb3, 0xf9, 0x3d,
  0x9e, 0xb1, 0x76, 0xbe, 0x1f, 0x62, 0x4c, 0xbd, 0x4c, 0xfd, 0x26, 0x3d,
  0x1d, 0x9a, 0x5d, 0xbe, 0x09, 0x30, 0x91, 0x3d, 0x27, 0xb0, 0x71, 0xbd,
  0x6c, 0x8e, 0x49, 0xbe, 0xe4, 0x7f, 0x30, 0xbe, 0xd8, 0x73, 0x33, 0x3e,
  0x4b, 0x9b, 0xce, 0x3c, 0xf4, 0x8b, 0x45, 0x3e, 0x27, 0x72, 0x88, 0xbd,
  0xfd, 0xda, 0x57, 0x3d, 0x91, 0xee, 0x10, 0x3d, 0x93, 0xe9, 0x17, 0x3d,
  0xa8, 0x2a, 0xe6, 0xbc, 0x40, 0x7d, 0x82, 0x3e, 0x59, 0x01, 0x50, 0xbe,
  0x9c, 0xa8, 0x2b, 0x3d, 0x36, 0x6b, 0x75, 0xbe, 0x37, 0xb5, 0xec, 0x3c,
  0x68, 0x3c, 0x36, 0xbe, 0x99, 0x16, 0xaa, 0xbb, 0x91, 0xb2, 0x82, 0xbe,
  0xa2, 0x86, 0x7d, 0xbe, 0x8c, 0xdf, 0xad, 0xbc, 0xb3, 0x38, 0xea, 0xbd,
  0x28, 0xe2, 0x28, 0x3e, 0x43, 0x73, 0x42, 0x3d, 0xbd, 0x62, 0x3d, 0xbe,
  0xda, 0x63, 0xf6, 0xbd, 0x62, 0xeb, 0xa7, 0xbd, 0xc9, 0x7d, 0x19, 0x3c,
  0x49, 0x4d, 0x04, 0xbe, 0x4f, 0xeb, 0x4e, 0xbd, 0x64, 0x5b, 0x3b, 0x3e,
  0xdd, 0xb9, 0x65, 0x3e, 0x43, 0x9a, 0x85, 0xbc, 0xf8, 0xe9, 0x3a, 0x3e,
  0xae, 0x98, 0x0f, 0xbe, 0xa5, 0x96, 0x52, 0x3d, 0x5c, 0x89, 0x2d, 0x3d,
  0x4e, 0x69, 0x4c, 0x3e, 0x50, 0x7c, 0x40, 0xbe, 0x26, 0x21, 0x5b, 0x3e,
  0xb7, 0x25, 0x6a, 0xbe, 0xda, 0x50, 0x00, 0xbe, 0x00, 0x8d, 0x57, 0xbe,
  0x41, 0x14, 0x17, 0x3e, 0x0b, 0xd6, 0x6a, 0xbe, 0x5b, 0x6c, 0x78, 0xbd,
  0x51, 0x35, 0xf2, 0x3d, 0xfb, 0x0e, 0x01, 0x3d, 0x9e, 0x7d, 0x63, 0x3e,
  0xce, 0x98, 0x24, 0xbe, 0x9c, 0x1f, 0x7b, 0xbe, 0xc2, 0xc8, 0xa3, 0x3d,
  0x80, 0xd2, 0xb1, 0x3c, 0x40, 0x98, 0xa9, 0x3d, 0x2e, 0x38, 0x10, 0x3e,
  0x68, 0x81, 0xd1, 0x3c, 0x97, 0xf2, 0xa4, 0x3c, 0x6f, 0xf4, 0x3d, 0x3e,
  0xa0, 0x2a, 0xf9, 0x3d, 0xbb, 0xcd, 0x67, 0x3e, 0xd7, 0x0f, 0x00, 0x3e,
  0x28, 0xc6, 0xa6, 0x3c, 0x1c, 0x27, 0xb4, 0xbd, 0xf6, 0x35, 0x41, 0x3d,
  0x04, 0x25, 0xd2, 0x3d, 0x13, 0x53, 0xa5, 0xbb, 0x98, 0xe1, 0x18, 0x3e,
  0x7e, 0xdf, 0x1e, 0x3e, 0xd5, 0x4e, 0x2e, 0xbd, 0x5e, 0x81, 0x0a, 0xbe,
  0x0f, 0x70, 0x5b, 0xbe, 0x42, 0x66, 0x3f, 0xbe, 0xb9, 0x43, 0x15, 0xbe,
  0x1d, 0xc4, 0xf6, 0x3d, 0xbd, 0x4b, 0x37, 0xbe, 0xac, 0xd9, 0x77, 0xbe,
  0x29, 0xf6, 0x86, 0xbe, 0x51, 0x7e, 0x30, 0xbd, 0x4c, 0x13, 0x65, 0xbe,
  0xad, 0xba, 0x53, 0xbe, 0x10, 0xf7, 0x54, 0xbe, 0x29, 0xd0, 0x87, 0x3d,
  0x81, 0x91, 0xed, 0xbd, 0x83, 0x63, 0x60, 0xbc, 0xd4, 0xba, 0x3f, 0x3e,
  0x03, 0xc4, 0xbf, 0xbd, 0xa9, 0x0b, 0xb9, 0xbb, 0x10, 0xc9, 0x44, 0xbd,
  0xb9, 0x31, 0xa1, 0xbc, 0x74, 0xdd, 0x12, 0x3e, 0x8c, 0xe1, 0x85, 0xbe,
  0xfa, 0x24, 0x7d, 0xbe, 0x13, 0x3b, 0x03, 0x3e, 0x7c, 0x14, 0x63, 0xbe,
  0x59, 0x3e, 0x27, 0xbe, 0xc3, 0x9a, 0x06, 0x3d, 0x24, 0xeb, 0x0a, 0xbe,
  0xcc, 0x49, 0x80, 0xbd, 0x10, 0x99, 0x3c, 0x3e, 0x20, 0xa9, 0x64, 0xbe,
  0x1c, 0xa6, 0x5d, 0xbe, 0x22, 0xd5, 0x5b, 0xbe, 0xe4, 0xf2, 0x59, 0xbd,
  0x70, 0x64, 0x63, 0x3e, 0xac, 0x18, 0xfc, 0x3d, 0x83, 0xb3, 0x62, 0x3c,
  0xdc, 0x29, 0x87, 0xbc, 0x03, 0xb3, 0x00, 0x3e, 0xb7, 0x36, 0x26, 0xbe,
  0xc8, 0x3a, 0x92, 0xbc, 0xf7, 0xf5, 0x44, 0xbe, 0xe9, 0x11, 0xe1, 0xbd,
  0xa9, 0x14, 0x7a, 0xbe, 0x59, 0x0a, 0x0d, 0xbe, 0x3a, 0xd7, 0x5d, 0x3e,
  0x10, 0x08, 0x22, 0xbc, 0x28, 0x54, 0x82, 0x3d, 0xb9, 0xe9, 0x1e, 0x3e,
  0xa5, 0xf7, 0xd4, 0x3b, 0xcb, 0x0c, 0x87, 0x3d, 0xc1, 0xe0, 0x43, 0x3e,
  0x75, 0x7e, 0xb4, 0xbd, 0x56, 0x86, 0x3b, 0xba, 0xae, 0x49, 0x86, 0x3d,
  0xb2, 0x01, 0xdd, 0xbd, 0x56, 0xdd, 0xec, 0xbd, 0x0a, 0x7f, 0x76, 0xbd,
  0xee, 0xf9, 0x7c, 0xbe, 0x5f, 0xfb, 0xbc, 0x3d, 0x83, 0xee, 0xe1, 0xbc,
  0xac, 0x70, 0x3d, 0x3e, 0xe9, 0x99, 0x17, 0x3c, 0xa1, 0x4f, 0xb2, 0x3d,
  0x9e, 0x6b, 0x7a, 0xbe, 0x5b, 0xc8, 0x68, 0xbe, 0x8b, 0xf2, 0x08, 0x3d,
  0x91, 0x9c, 0x4b, 0x3d, 0x55, 0x24, 0xd8, 0xbd, 0xc2, 0x2d, 0x7e, 0xbe,
  0xc4, 0x2b, 0x88, 0xbe, 0x4d, 0x2f, 0xb4, 0x3c, 0x32, 0x03, 0x04, 0x3d,
  0x93, 0x95, 0x66, 0x3d, 0xa0, 0xb9, 0x0e, 0x3e, 0x4f, 0x5a, 0xba, 0x3d,
  0xca, 0x82, 0x1b, 0xbd, 0xfc, 0x60, 0x97, 0xbc, 0x42, 0x7a, 0x15, 0xbe,
  0xeb, 0xc6, 0x22, 0xbe, 0x2d, 0x69, 0x64, 0xbe, 0x76, 0xa4, 0x03, 0x3e,
  0x06, 0x7d, 0xf2, 0xbc, 0x71, 0x00, 0x5f, 0x3d, 0x13, 0x35, 0x1b, 0x3e,
  0x9c, 0x59, 0x3e, 0xbe, 0xc5, 0x2b, 0x3d, 0x3e, 0x83, 0x11, 0x1c, 0x3e,
  0x08, 0xd1, 0x22, 0xbc, 0x88, 0xe9, 0x09, 0x3d, 0x1f, 0x84, 0xd5, 0xbd,
  0x81, 0xb1, 0x6d, 0xbe, 0xb5, 0x24, 0x0f, 0x3e, 0x8b, 0x61, 0xe2, 0xbb,
  0x6b, 0xa7, 0x1c, 0x3e, 0x7d, 0xab, 0x5d, 0x3e, 0xd0, 0xdb, 0x10, 0xbe,
  0x2f, 0xf1, 0x3a, 0xbe, 0xeb, 0xe0, 0x68, 0xbe, 0x80, 0x16, 0x23, 0x3e,
  0xaf, 0x4b, 0x45, 0x3e, 0x06, 0x8f, 0x16, 0xbd, 0x36, 0x50, 0x38, 0xbe,
  0xbf, 0x06, 0x8b, 0xbd, 0x17, 0xc3, 0x89, 0x3d, 0xab, 0xe7, 0x17, 0xbd,
  0x52, 0x9b, 0xa8, 0xbc, 0x48, 0x82, 0x0a, 0x3e, 0x2e, 0xdb, 0x0d, 0xbe,
  0xc7, 0xb4, 0x5c, 0x3d, 0x22, 0xac, 0xfd, 0xbd, 0x6d, 0xe0, 0x49, 0xbc,
  0xb4, 0xc0, 0x14, 0x3e, 0x5e, 0xb5, 0x6b, 0xbe, 0xf6, 0x85, 0x3b, 0x3e,
  0xff, 0x02, 0xa5, 0x3d, 0xa5, 0x1c, 0x01, 0xbe, 0x13, 0x20, 0x3e, 0x3e,
  0x5d, 0xa5, 0xf6, 0x3d, 0x46, 0x16, 0xd0, 0x3d, 0xc9, 0x55, 0xf7, 0xbd,
  0xc1, 0x76, 0xa7, 0xbc, 0x17, 0x42, 0x63, 0xbd, 0x99, 0x58, 0x2c, 0x3e,
  0x37, 0x87, 0x07, 0xbe, 0xe1, 0x69, 0x58, 0x3d, 0x2a, 0x6a, 0x24, 0x3e,
  0x39, 0xae, 0xaf, 0x3d, 0x51, 0x5d, 0x3d, 0xbe, 0x8a, 0xd5, 0x97, 0xbd,
  0x45, 0xc4, 0x7e, 0xbd, 0x1e, 0x39, 0x1f, 0x3e, 0x45, 0xb7, 0x13, 0xbe,
  0x64, 0x4f, 0x7e, 0x3d, 0x30, 0x01, 0x6e, 0xbe, 0x58, 0xd2, 0x8b, 0xbd,
  0x9a, 0x81, 0x38, 0xbe, 0x97, 0x9e, 0xed, 0x3c, 0x43, 0x6f, 0x39, 0xbe,
  0xd2, 0x92, 0x28, 0x3e, 0x10, 0x57, 0x76, 0xbe, 0xe2, 0x3d, 0x99, 0xbd,
  0x7b, 0xfc, 0x2e, 0xbc, 0x8c, 0xe1, 0x1f, 0xbc, 0x6e, 0x1e, 0x1a, 0xbe,
  0xae, 0xa6, 0x78, 0x3e, 0x9c, 0xb4, 0x2f, 0xbd, 0x93, 0x90, 0x11, 0x3e,
  0xfb, 0xc7, 0x74, 0xbe, 0x0d, 0x44, 0xdc, 0xbd, 0x5a, 0x35, 0x42, 0xbd,
  0xf1, 0x33, 0x5c, 0xbe, 0xd5, 0xfb, 0xf8, 0xbd, 0x7b, 0x8f, 0x73, 0xbc,
  0x4c, 0x8e, 0x26, 0x3e, 0x99, 0x29, 0x10, 0xbd, 0xcb, 0x8b, 0x72, 0x3d,
  0xfa, 0xca, 0x44, 0xbe, 0xcb, 0x67, 0x1b, 0x3c, 0x17, 0x42, 0x61, 0xbe,
  0xb2, 0x9f, 0x43, 0x3d, 0x39, 0x1b, 0x87, 0xbe, 0x7b, 0x69, 0x3a, 0x3d,
  0xac, 0x56, 0xf8, 0x3d, 0x13, 0x86, 0x25, 0x3e, 0xae, 0x1d, 0xf7, 0xbd,
  0xc0, 0x91, 0xc5, 0x3d, 0x40, 0xbf, 0xc0, 0x3d, 0xf4, 0x42, 0x3c, 0x3e,
  0x2e, 0x30, 0xd4, 0xbd, 0xd3, 0x34, 0x05, 0xbe, 0x23, 0x73, 0x34, 0xbe,
  0x51, 0x0d, 0x42, 0x3e, 0xda, 0x30, 0xfc, 0xbd, 0xc5, 0x00, 0x9d, 0x3d,
  0xdd, 0x2a, 0x74, 0x3c, 0x17, 0xe7, 0x18, 0x3e, 0x43, 0x77, 0x02, 0xbe,
  0x4a, 0xe1, 0xa0, 0x3d, 0x61, 0xbb, 0xce, 0xbd, 0x8c, 0x23, 0x88, 0x3e,
  0xea, 0xde, 0x3f, 0xbd, 0xb9, 0x2a, 0xfa, 0x3d, 0xbc, 0x07, 0x78, 0xbd,
  0xfd, 0xb1, 0x0a, 0xbe, 0x1e, 0xf3, 0xa3, 0xbd, 0x00, 0xe4, 0x7b, 0xbc,
  0xa1, 0x11, 0x38, 0xbe, 0x82, 0xb4, 0x13, 0xbe, 0x43, 0x69, 0x2d, 0xbc,
  0x06, 0x87, 0xf4, 0x3d, 0xee, 0xd8, 0xe9, 0x3c, 0x66, 0x0a, 0x04, 0x3d,
  0x6f, 0xfa, 0x9e, 0x3d, 0x70, 0x51, 0x81, 0x3c, 0x35, 0x7f, 0xc0, 0xbd,
  0x6c, 0xcc, 0x72, 0xbe, 0x3b, 0x68, 0x02, 0xbe, 0x4a, 0x61, 0xe6, 0xbd,
  0xef, 0x97, 0xf7, 0x3d, 0x88, 0xb3, 0x08, 0xbd, 0x8c, 0x74, 0xe4, 0x3c,
  0x55, 0x21, 0xdc, 0xbd, 0xe7, 0x38, 0x21, 0xbe, 0x52, 0xf2, 0x6f, 0x3c,
  0x10, 0x80, 0x49, 0xbe, 0xea, 0xe2, 0x4e, 0x3e, 0x21, 0xd2, 0x1e, 0xbe,
  0x93, 0x72, 0xae, 0xbd, 0xe7, 0x40, 0xa4, 0xbd, 0xe7, 0xd3, 0x79, 0x3d,
  0x02, 0x9a, 0x4a, 0x3e, 0x43, 0xd9, 0x0f, 0x3e, 0x6d, 0x68, 0xd6, 0xbd,
  0xd6, 0xa1, 0xaf, 0x3e, 0xca, 0x01, 0xfd, 0xbd, 0x70, 0xf1, 0x93, 0x3e,
  0x33, 0x23, 0xb1, 0x3c, 0xe5, 0xd6, 0x6e, 0x3c, 0x65, 0xe7, 0xf2, 0x3d,
  0x93, 0x18, 0x76, 0x3e, 0x5e, 0x33, 0xad, 0x3c, 0xe1, 0x81, 0x11, 0xbe,
  0x49, 0x3e, 0x46, 0x3c, 0xcd, 0x06, 0x3a, 0xbe, 0xf9, 0x2b, 0x1f, 0x3e,
  0x3e, 0x85, 0xc4, 0xbc, 0x73, 0xed, 0x07, 0xbe, 0xfe, 0x24, 0x89, 0x3d,
  0x52, 0xba, 0x96, 0x3d, 0x19, 0x4e, 0x5e, 0xbe, 0x31, 0xc3, 0x36, 0x3e,
  0xae, 0xc2, 0xd1, 0xbb, 0x08, 0x3b, 0x14, 0x3e, 0xf3, 0x41, 0x03, 0xbe,
  0x7f, 0x6a, 0xd3, 0x3c, 0x4e, 0x15, 0xc5, 0x3d, 0x4f, 0xc3, 0xce, 0xbc,
  0x9a, 0x47, 0xf3, 0xbd, 0x12, 0xc7, 0xc6, 0x3d, 0xee, 0xf3, 0x68, 0xbe,
  0xea, 0xa2, 0x2a, 0x3e, 0x80, 0xc1, 0x10, 0x3e, 0x66, 0xc5, 0x7a, 0xbb,
  0xd4, 0xee, 0x54, 0x3d, 0xbf, 0x2d, 0xd5, 0x3d, 0xfc, 0xc3, 0xb1, 0x3d,
  0x30, 0x71, 0x14, 0x3e, 0xd4, 0xd7, 0x99, 0x3e, 0x4c, 0x11, 0x44, 0xbe,
  0x67, 0x9b, 0xdc, 0xbd, 0x79, 0x02, 0x08, 0x3e, 0x8b, 0x99, 0x0d, 0xbe,
  0xe2, 0xd2, 0x41, 0xbd, 0xf5, 0x18, 0x06, 0xbe, 0x7c, 0x9f, 0xb2, 0x3d,
  0xd8, 0x01, 0x8b, 0x3d, 0x4e, 0x0e, 0x69, 0xbe, 0x98, 0x68, 0xd3, 0x3d,
  0x64, 0x30, 0x8b, 0xbd, 0x55, 0x0e, 0x56, 0xbe, 0x02, 0x70, 0xf2, 0xbd,
  0xa0, 0x3d, 0x16, 0xbd, 0x4a, 0xa8, 0x67, 0xbe, 0x74, 0x4c, 0x27, 0xbe,
  0x4c, 0x68, 0x1a, 0xbd, 0x60, 0x9b, 0x77, 0x3d, 0x15, 0x06, 0xb4, 0xbd,
  0xee, 0x84, 0xdb, 0x3d, 0xd3, 0xb0, 0xe6, 0xbd, 0x0d, 0x0b, 0x72, 0x3d,
  0x48, 0xd2, 0xad, 0xbc, 0xb2, 0x52, 0x9f, 0x3d, 0x38, 0xbc, 0xd2, 0xbd,
  0xfd, 0xd1, 0x00, 0xbd, 0xd7, 0x9f, 0xe0, 0xbd, 0x0d, 0xbc, 0x31, 0xbe,
  0xce, 0x16, 0x92, 0x3d, 0xd9, 0x55, 0xed, 0xbc, 0xf1, 0xe9, 0x77, 0x3e,
  0x87, 0x23, 0x80, 0x3e, 0xf3, 0x97, 0x29, 0x3e, 0xb7, 0xc7, 0x19, 0xbc,
  0x08, 0x37, 0xd4, 0x3d, 0x4f, 0x78, 0xba, 0xbd, 0xcb, 0x0f, 0x7a, 0xbe,
  0x1c, 0x91, 0xe5, 0xbd, 0x9c, 0xa2, 0xe4, 0x3d, 0x86, 0x0c, 0x50, 0x3e,
  0x36, 0xb6, 0x8a, 0x3d, 0x50, 0x2d, 0x54, 0x3e, 0xc3, 0x55, 0xc3, 0xbd,
  0xa5, 0x5c, 0x37, 0xbe, 0x5e, 0x4b, 0xf1, 0xbc, 0x15, 0xd1, 0x0f, 0x3e,
  0xe4, 0x1f, 0x60, 0x3e, 0xec, 0x67, 0x16, 0x3e, 0x9d, 0x5e, 0x31, 0xbe,
  0xf9, 0xbe, 0x03, 0xbe, 0x7d, 0x0a, 0x9b, 0x3d, 0xd5, 0x19, 0x04, 0x3d,
  0xb3, 0x18, 0xd8, 0xbd, 0xf1, 0xf1, 0x2c, 0xbe, 0xbd, 0x6e, 0xdf, 0xbd,
  0x8d, 0x6e, 0x2f, 0xbe, 0xf6, 0x2b, 0x51, 0x3e, 0x9d, 0x97, 0x6b, 0xbe,
  0xfc, 0xab, 0x71, 0x3e, 0x1d, 0x46, 0x87, 0x3e, 0x29, 0x84, 0x3c, 0xbd,
  0x19, 0xea, 0x53, 0xbe, 0x85, 0x60, 0x8a, 0xbd, 0xd9, 0x33, 0xb3, 0x3d,
  0x89, 0x32, 0xd6, 0xbd, 0x6d, 0xa8, 0x1d, 0x3e, 0x4c, 0x62, 0xa3, 0x3d,
  0x4f, 0x21, 0x1c, 0x3e, 0x3c, 0x09, 0x6c, 0x3e, 0x20, 0x29, 0x23, 0x3e,
  0x92, 0x03, 0x0d, 0xbe, 0x0a, 0x97, 0x28, 0x3e, 0x32, 0x12, 0xcf, 0xbc,
  0x80, 0x9f, 0x31, 0xbd, 0x32, 0xec, 0x75, 0x3d, 0xc1, 0x32, 0x73, 0x3e,
  0xa9, 0x31, 0x00, 0x3d, 0xf6, 0xdf, 0x88, 0x3e, 0x0a, 0xd9, 0x39, 0x3e,
  0x65, 0x2c, 0x51, 0x3d, 0xff, 0xd8, 0xf3, 0x3b, 0x4e, 0x38, 0x77, 0xbe,
  0x6d, 0x8c, 0x02, 0x3e, 0x95, 0xdc, 0x0d, 0xbe, 0x79, 0xd8, 0x32, 0xbe,
  0x77, 0xac, 0xe5, 0xbd, 0x6d, 0x62, 0x57, 0xbe, 0xe0, 0x98, 0x19, 0x3e,
  0x6e, 0xfb, 0xbf, 0xbd, 0x1c, 0x1f, 0x54, 0xbe, 0x5b, 0x41, 0x40, 0xbe,
  0x4d, 0x6e, 0x2e, 0xbe, 0x27, 0x84, 0xff, 0x3d, 0x5f, 0x45, 0xb0, 0x3c,
  0x74, 0x61, 0x66, 0xbe, 0xd0, 0x15, 0xa3, 0x3b, 0x8c, 0x6f, 0x38, 0x3e,
  0x7e, 0x34, 0x2d, 0x3e, 0x01, 0xa0, 0x28, 0xbc, 0x85, 0x75, 0xb1, 0x3d,
  0x64, 0x08, 0x22, 0xbe, 0x2d, 0x52, 0x02, 0xbd, 0xba, 0x5b, 0xa2, 0xbd,
  0xc8, 0x45, 0x69, 0xbe, 0x7b, 0xcb, 0xaa, 0xbd, 0xb0, 0xd4, 0xe7, 0xbd,
  0x7e, 0x8e, 0x02, 0x3d, 0x0d, 0x5e, 0xd5, 0xbd, 0xb8, 0xa8, 0x9d, 0x3d,
  0x12, 0x52, 0xae, 0xbd, 0x95, 0x26, 0x30, 0xbe, 0x63, 0xc6, 0x26, 0xbe,
  0x28, 0x50, 0xeb, 0x3d, 0x0f, 0x89, 0x4b, 0x3d, 0x3e, 0x22, 0x7d, 0xbe,
  0xe6, 0x38, 0xd8, 0x3d, 0x69, 0x59, 0xea, 0xbd, 0x07, 0x10, 0xd3, 0x3d,
  0x92, 0x5d, 0x5e, 0x3d, 0xe3, 0xfd, 0xd1, 0xbd, 0xb1, 0xe8, 0x66, 0xbd,
  0x6a, 0x87, 0x3d, 0xbe, 0x9c, 0x2d, 0xc1, 0xbd, 0x08, 0x15, 0x8d, 0x3d,
  0x48, 0x1a, 0xa4, 0x3d, 0xa6, 0x2a, 0x7e, 0xbe, 0x05, 0x32, 0xd6, 0xbd,
  0x51, 0x3c, 0x35, 0xbe, 0x63, 0xb4, 0x61, 0xbe, 0xa5, 0xbf, 0x19, 0xbe,
  0x37, 0xae, 0xae, 0x3d, 0x20, 0xac, 0x46, 0x3e, 0x46, 0xa5, 0x72, 0x3d,
  0xf2, 0x6b, 0x85, 0x3d, 0xb5, 0x93, 0xad, 0xbd, 0x22, 0xa9, 0xf1, 0x3c,
  0xee, 0xa3, 0x22, 0xb9, 0xfe, 0xc4, 0x3a, 0xbd, 0xdc, 0x05, 0xb7, 0x3c,
  0x77, 0x30, 0x41, 0xbd, 0xce, 0x35, 0x13, 0x3d, 0x36, 0xb9, 0x0d, 0x3e,
  0x25, 0x43, 0xbd, 0x3d, 0x29, 0x9f, 0x4f, 0x3e, 0x3c, 0xba, 0x03, 0x3e,
  0x22, 0xf8, 0x17, 0xbe, 0x6d, 0x27, 0xc8, 0x3d, 0xac, 0xa0, 0xf1, 0x3c,
  0x02, 0x70, 0x50, 0x3e, 0xeb, 0xb1, 0x42, 0xbe, 0x1f, 0x66, 0x52, 0xbe,
  0x93, 0x38, 0x17, 0xbe, 0x21, 0xcb, 0x0f, 0x3e, 0xd1, 0x1c, 0x41, 0x3e,
  0xdb, 0x01, 0x09, 0xbe, 0x2c, 0x78, 0xb0, 0x3d, 0x6d, 0x13, 0x75, 0x3d,
  0x9c, 0x51, 0x98, 0x3d, 0x60, 0x42, 0x2e, 0x3e, 0x71, 0x8b, 0x83, 0xbe,
  0x92, 0xee, 0x85, 0xbd, 0x58, 0x58, 0x16, 0xbe, 0x91, 0x01, 0x0e, 0xbe,
  0x14, 0x5c, 0xad, 0xbc, 0x6a, 0xdc, 0x2c, 0x3d, 0x76, 0xef, 0x3c, 0xbe,
  0xaf, 0x7e, 0x62, 0xbe, 0x7b, 0x3a, 0x3f, 0xbe, 0xb0, 0xc1, 0x46, 0x3e,
  0x16, 0x54, 0x15, 0x3d, 0x86, 0xb3, 0xfd, 0x3d, 0x1a, 0xc7, 0xb3, 0x3d,
  0xa6, 0xab, 0x9a, 0xbd, 0x2a, 0xd7, 0x0c, 0x3e, 0xd9, 0xed, 0x1b, 0x3e,
  0x3e, 0x7f, 0x04, 0x3e, 0x2e, 0xad, 0x00, 0x3e, 0x43, 0xc0, 0xc3, 0x3d,
  0xa7, 0x14, 0x62, 0xbe, 0xd4, 0xfe, 0x2a, 0x3e, 0x2b, 0x20, 0xf1, 0xbd,
  0x6d, 0xfd, 0x8d, 0xbd, 0x6f, 0x05, 0x60, 0xbe, 0x59, 0x2a, 0x0a, 0xbe,
  0x99, 0x35, 0x50, 0xbd, 0x1e, 0x81, 0x1f, 0x3e, 0x46, 0xb9, 0xe4, 0xbd,
  0x94, 0x12, 0x00, 0xbd, 0x41, 0x2a, 0x90, 0xbd, 0xb8, 0xea, 0x81, 0xbe,
  0x7f, 0x77, 0x4e, 0xbe, 0x1f, 0x86, 0x1b, 0x3e, 0x53, 0x09, 0x1a, 0x3e,
  0x64, 0x88, 0x80, 0xbe, 0x48, 0x15, 0x86, 0xbe, 0x5c, 0x72, 0x45, 0xbe,
  0x82, 0xd3, 0x57, 0x3e, 0x5d, 0xa7, 0x67, 0xbd, 0x9e, 0x1d, 0x7b, 0x3d,
  0x4e, 0xa6, 0x19, 0x3e, 0xa0, 0xa0, 0x80, 0xbe, 0x4e, 0x19, 0xf4, 0xbd,
  0x77, 0xc6, 0x08, 0x3e, 0xca, 0x72, 0x86, 0x3d, 0xed, 0x3b, 0xcf, 0x3d,
  0x61, 0x6e, 0xd8, 0xbd, 0xfa, 0x19, 0x7e, 0xbe, 0x84, 0x89, 0x02, 0x3e,
  0xc0, 0xb2, 0x4b, 0xbe, 0x0c, 0x27, 0x6e, 0xbe, 0x11, 0x81, 0x7b, 0xbe,
  0x85, 0x88, 0x02, 0xbe, 0x1f, 0xf9, 0x47, 0xbd, 0x53, 0x18, 0xd3, 0x3d,
  0x47, 0xa8, 0x55, 0x3e, 0x32, 0x46, 0xb8, 0xbd, 0x53, 0x83, 0x07, 0x3e,
  0x6f, 0x6d, 0x79, 0xbd, 0x36, 0xb2, 0x52, 0x3e, 0x13, 0x74, 0x83, 0xbe,
  0x7d, 0x3c, 0x9d, 0xbd, 0xbf, 0xd2, 0x85, 0x3c, 0xb3, 0x83, 0x91, 0xbd,
  0x23, 0x79, 0x4b, 0x3e, 0xca, 0x51, 0xf7, 0x3d, 0xb4, 0xcb, 0xee, 0xbd,
  0x9e, 0x45, 0x1b, 0xbe, 0x1a, 0x09, 0x5c, 0xbc, 0x26, 0xfc, 0x66, 0xbd,
  0xf2, 0xbb, 0x7e, 0x3d, 0x41, 0xb2, 0xbc, 0x3d, 0xe1, 0xd1, 0x3c, 0xbd,
  0x93, 0xa5, 0x61, 0xbe, 0xe0, 0xcb, 0x50, 0x3e, 0xc8, 0x2e, 0x43, 0xbd,
  0x7b, 0x22, 0x07, 0xbe, 0x2e, 0x2d, 0x35, 0x3c, 0xd6, 0xf1, 0x2d, 0xbe,
  0x24, 0x8a, 0x1c, 0xbe, 0xae, 0xbb, 0x31, 0x3e, 0x45, 0x2a, 0x38, 0x3e,
  0x64, 0x1d, 0x29, 0x3e, 0x86, 0x1a, 0x24, 0xbe, 0x31, 0x22, 0x7a, 0xbe,
  0x0a, 0x25, 0x2a, 0x3e, 0x9f, 0x4b, 0x70, 0xbe, 0x76, 0x18, 0x8f, 0x3c,
  0x31, 0x9d, 0x02, 0xbc, 0xed, 0x79, 0x07, 0xbe, 0x05, 0xcc, 0xef, 0xbd,
  0x47, 0x84, 0x94, 0x3c, 0x23, 0x63, 0x1c, 0xbe, 0xb7, 0x51, 0x32, 0x3e,
  0x33, 0xc8, 0x19, 0xbe, 0x91, 0x11, 0x56, 0x3d, 0xcc, 0xe7, 0x07, 0x3e,
  0xd0, 0x63, 0x8b, 0xbb, 0x2a, 0x0b, 0xab, 0xbd, 0x86, 0x50, 0x88, 0xbc,
  0x18, 0x1e, 0x3a, 0xbe, 0x19, 0x8b, 0x9e, 0xbd, 0x06, 0xeb, 0x53, 0xbe,
  0xf8, 0xc3, 0x52, 0xbe, 0x6f, 0x97, 0xef, 0xbd, 0x9d, 0xd5, 0x0d, 0x3e,
  0x31, 0xc7, 0x64, 0x3d, 0x2e, 0xa8, 0xde, 0x3d, 0x06, 0xeb, 0x87, 0xbe,
  0x00, 0xba, 0x25, 0xbe, 0xc6, 0x6f, 0x7a, 0xbd, 0xb5, 0x1e, 0x16, 0x3e,
  0x58, 0x9a, 0x50, 0x3e, 0x6f, 0xd9, 0x15, 0x3e, 0xd9, 0xf7, 0x80, 0xbe,
  0x77, 0x5f, 0xb2, 0xbd, 0xb5, 0x2e, 0x3d, 0x3e, 0xed, 0x19, 0x06, 0x3e,
  0x23, 0x97, 0x9d, 0x3c, 0xab, 0xdd, 0x22, 0x3c, 0x90, 0x5b, 0x39, 0x3e,
  0x3d, 0xd0, 0x09, 0x3c, 0x2b, 0x76, 0x93, 0xbd, 0x34, 0x1a, 0x0f, 0xbe,
  0x8a, 0x87, 0x0a, 0x3e, 0xd1, 0x08, 0x27, 0x3e, 0x03, 0x7b, 0x12, 0xbe,
  0xba, 0x3b, 0xfc, 0xbd, 0x1b, 0x71, 0x1e, 0x3e, 0x5e, 0xbf, 0x3f, 0x3e,
  0xe6, 0xe9, 0x90, 0xbd, 0xbb, 0x34, 0x57, 0x3e, 0x4a, 0x16, 0xd1, 0xbb,
  0x63, 0x07, 0xd6, 0xbd, 0x07, 0x88, 0x0f, 0xbc, 0xa9, 0x8c, 0x49, 0xbe,
  0x71, 0x32, 0xd7, 0x3c, 0x77, 0x11, 0x22, 0x3e, 0x4d, 0xc4, 0x16, 0x3d,
  0xed, 0x89, 0x62, 0xbd, 0x66, 0xe9, 0x1e, 0x3e, 0x09, 0xbe, 0x59, 0xbe,
  0x54, 0x58, 0xa9, 0x3c, 0xfe, 0xb9, 0x59, 0x3d, 0x70, 0xf8, 0x3b, 0xbd,
  0x45, 0x33, 0x36, 0xbc, 0xd7, 0x43, 0xf2, 0xbc, 0xaf, 0xea, 0xe2, 0xbb,
  0x0c, 0xc5, 0x2c, 0xbe, 0x99, 0x0a, 0xdc, 0xbd, 0x86, 0x8f, 0x05, 0xbe,
  0x43, 0xc4, 0xaa, 0xbd, 0xde, 0x9d, 0x88, 0xbe, 0xc9, 0x09, 0x1b, 0x3e,
  0x41, 0x61, 0x95, 0xbd, 0x05, 0x2f, 0xda, 0xbd, 0x7f, 0x60, 0x93, 0x3e,
  0x7a, 0xd1, 0xe6, 0x3d, 0x22, 0x48, 0x40, 0xbd, 0x03, 0x38, 0x2d, 0xbd,
  0x77, 0xc5, 0xa9, 0x3d, 0x55, 0x3b, 0x6e, 0x3e, 0x9e, 0xa4, 0x7a, 0xbd,
  0x02, 0x58, 0x2e, 0xbc, 0x5c, 0x45, 0x88, 0xbe, 0x72, 0x90, 0x1e, 0x3e,
  0xe4, 0x76, 0x45, 0x3e, 0x48, 0xae, 0xcf, 0x3d, 0xda, 0x6a, 0x10, 0xbe,
  0xc2, 0x8e, 0x02, 0x3d, 0xfd, 0x94, 0x03, 0x3e, 0x70, 0xb3, 0x3d, 0xbe,
  0xbf, 0x9a, 0x1c, 0x3c, 0x9a, 0x3c, 0x67, 0xbc, 0xea, 0x4e, 0x5b, 0xbe,
  0x7f, 0x9a, 0x3a, 0xbd, 0x79, 0x43, 0xff, 0xbd, 0xa5, 0x6e, 0x66, 0xbd,
  0x5f, 0xf6, 0x70, 0xbe, 0x6c, 0x94, 0xc3, 0xbd, 0x78, 0xce, 0x8a, 0x3d,
  0xc1, 0xc8, 0x37, 0x3e, 0x27, 0x1c, 0x73, 0x3e, 0xb6, 0x1c, 0xb1, 0xbb,
  0xad, 0xdb, 0x23, 0xbe, 0x6b, 0x32, 0x46, 0xbe, 0xfb, 0x23, 0x33, 0x3e,
  0x20, 0xd0, 0xca, 0xbd, 0x2e, 0xb8, 0x09, 0xbe, 0x83, 0x29, 0x08, 0xbc,
  0x2c, 0x89, 0x2c, 0xbe, 0x75, 0xfa, 0x25, 0xbd, 0x95, 0xda, 0x50, 0x3e,
  0x29, 0x92, 0x94, 0x3d, 0x9b, 0x55, 0xc9, 0xbb, 0x3d, 0xb4, 0x55, 0x3b,
  0x86, 0xb3, 0x71, 0xbe, 0x41, 0xa4, 0x90, 0x3d, 0x3c, 0x5a, 0x9f, 0xbd,
  0xb8, 0xf0, 0xb0, 0x3d, 0x20, 0xdc, 0x95, 0xbd, 0x87, 0xf8, 0xd2, 0xbd,
  0x7c, 0x50, 0x82, 0x3d, 0x74, 0x7e, 0x83, 0x3d, 0xf2, 0x4a, 0xd4, 0x3d,
  0xf3, 0x41, 0xf6, 0x3c, 0x5d, 0x06, 0xca, 0xbd, 0xa5, 0x63, 0x08, 0x3e,
  0xaa, 0x04, 0x82, 0xbe, 0x29, 0xc2, 0xa4, 0xba, 0x53, 0xd0, 0x49, 0xbd,
  0xb0, 0xee, 0xac, 0x3d, 0x3e, 0xa2, 0x61, 0xbe, 0x3f, 0x9c, 0xa8, 0xbd,
  0x06, 0x38, 0x71, 0x3e, 0xaf, 0x92, 0x00, 0x3e, 0xe1, 0x68, 0x52, 0xbd,
  0x44, 0x60, 0x31, 0xbe, 0x3c, 0xd9, 0x35, 0xbe, 0xa2, 0x91, 0x4d, 0xbe,
  0xb8, 0x3c, 0x1a, 0xbe, 0xf3, 0xdf, 0xbe, 0x3c, 0x63, 0x33, 0x32, 0x3e,
  0x21, 0x8a, 0x9a, 0x3e, 0x1e, 0x8f, 0x7a, 0xbe, 0xec, 0xe5, 0x6d, 0x3d,
  0x5a, 0x69, 0xce, 0xbd, 0x0a, 0x17, 0x12, 0xbd, 0xfd, 0x68, 0xd8, 0x3d,
  0xa5, 0xa3, 0xc9, 0x3d, 0xd1, 0x40, 0x19, 0xbe, 0xa5, 0xb3, 0x21, 0x3e,
  0x2e, 0x99, 0x60, 0x3c, 0xfa, 0x78, 0x09, 0x3e, 0xdb, 0xc3, 0x45, 0x3e,
  0xf5, 0x33, 0x1e, 0xbd, 0x79, 0x95, 0x9b, 0x3d, 0xca, 0xd1, 0xbe, 0x3d,
  0x9d, 0xa5, 0x77, 0x3d, 0x91, 0xe1, 0x0f, 0xbe, 0xc8, 0xcc, 0xda, 0x3d,
  0xf2, 0xad, 0x75, 0xbe, 0xac, 0x5d, 0xf6, 0xbd, 0x2e, 0xd4, 0x77, 0xbe,
  0xdc, 0x4f, 0x30, 0x3e, 0x57, 0x77, 0xde, 0x3d, 0xe9, 0xd5, 0x14, 0x3e,
  0xaf, 0x2e, 0x03, 0xbe, 0xf2, 0x17, 0xca, 0x3d, 0x07, 0x4e, 0xae, 0x3d,
  0xb3, 0xd2, 0x2d, 0xbe, 0x4e, 0x2b, 0x66, 0xbe, 0x03, 0x7b, 0x85, 0xbe,
  0x3c, 0x9d, 0x7d, 0xbe, 0x76, 0xf5, 0x82, 0x3e, 0x91, 0x8f, 0x4a, 0xbe,
  0xbc, 0xa0, 0x25, 0xbe, 0x1c, 0x12, 0xd9, 0x3c, 0x99, 0x52, 0xc3, 0xbd,
  0x80, 0x2a, 0x89, 0x3d, 0x6b, 0x5c, 0x4e, 0x3e, 0x73, 0xed, 0x74, 0xbd,
  0x01, 0xa5, 0x5e, 0x3e, 0x49, 0x86, 0x5c, 0x3e, 0x86, 0xd7, 0x86, 0xbd,
  0x38, 0x96, 0xb4, 0xbd, 0x5b, 0x74, 0x16, 0x3d, 0xc1, 0xae, 0xdd, 0x3d,
  0x1e, 0xdb, 0x91, 0xbd, 0x63, 0x29, 0x0e, 0x3e, 0x7c, 0x8e, 0x14, 0x3e,
  0xf6, 0x1d, 0x28, 0xbe, 0x1c, 0x71, 0xa5, 0x3c, 0xe5, 0xee, 0x03, 0xbe,
  0xda, 0x43, 0x72, 0x3c, 0x3f, 0x18, 0x7d, 0x3e, 0x62, 0xa1, 0x23, 0xbe,
  0xa3, 0xe6, 0x05, 0xbd, 0xd7, 0xeb, 0xce, 0x3d, 0x4f, 0x33, 0x25, 0x3e,
  0x7a, 0xa3, 0x58, 0x3e, 0x4d, 0xcf, 0xb2, 0xbd, 0x2c, 0xf5, 0xad, 0x3d,
  0xb3, 0x7d, 0x0c, 0x3e, 0x2c, 0x5d, 0x86, 0x3d, 0xdf, 0xcc, 0x6c, 0x3d,
  0x18, 0x0d, 0xac, 0xbd, 0x94, 0x18, 0x67, 0x3e, 0x70, 0x89, 0xb2, 0xba,
  0x89, 0x5f, 0xaf, 0x3c, 0x7d, 0x94, 0xfd, 0x3d, 0xbf, 0x2a, 0x9e, 0xbd,
  0x4b, 0x4b, 0xa9, 0xbc, 0x38, 0xc9, 0xe3, 0xbc, 0x74, 0x13, 0x4b, 0xbe,
  0x76, 0xce, 0xfc, 0x3c, 0xa4, 0xe9, 0x82, 0xbe, 0x4e, 0xe8, 0x87, 0xbd,
  0x5c, 0x1e, 0x5a, 0xbe, 0xd6, 0xea, 0xd9, 0x3d, 0x13, 0xa1, 0x42, 0x3e,
  0x9f, 0x55, 0x1c, 0x3d, 0x50, 0xa5, 0x57, 0x3e, 0xe0, 0xa0, 0x6f, 0x3e,
  0x25, 0xe9, 0x66, 0x3e, 0x7e, 0x6c, 0x75, 0xbc, 0x85, 0xc5, 0xe4, 0x3d,
  0x32, 0x89, 0x9c, 0x3e, 0x5d, 0x03, 0x94, 0xbe, 0x36, 0x1b, 0xf2, 0x3d,
  0x5f, 0xfe, 0xe2, 0xbd, 0x64, 0xcd, 0x82, 0xbe, 0xdb, 0xfd, 0x14, 0xbe,
  0x64, 0xda, 0x70, 0x3e, 0xe1, 0x87, 0x3a, 0xbd, 0xc4, 0xee, 0x5e, 0xbe,
  0xa4, 0x4e, 0x38, 0xbe, 0x54, 0x95, 0x73, 0x3e, 0x78, 0x55, 0x55, 0x3d,
  0x84, 0x96, 0x65, 0x3d, 0x2f, 0x4c, 0x63, 0xbe, 0xde, 0xf1, 0x8e, 0x3d,
  0xad, 0x4a, 0xf3, 0x3c, 0x2c, 0x41, 0x5a, 0xbe, 0xe0, 0xd9, 0x91, 0xbe,
  0x84, 0x1a, 0x12, 0xbc, 0x56, 0x36, 0x1d, 0xbd, 0x7f, 0xf1, 0x24, 0xbd,
  0x2a, 0x34, 0x81, 0xbe, 0xc2, 0xb2, 0xd8, 0x3d, 0x1b, 0x45, 0x49, 0xbd,
  0x26, 0x44, 0x00, 0x3d, 0xc3, 0xe9, 0x54, 0xbe, 0x2c, 0x9b, 0x72, 0xbe,
  0x13, 0x53, 0x26, 0xbd, 0x9b, 0x16, 0x25, 0x3e, 0x37, 0x43, 0x5f, 0xbe,
  0x3b, 0x51, 0x59, 0xbe, 0x1d, 0x58, 0xaa, 0x3d, 0x4f, 0x5b, 0x97, 0xbd,
  0xa6, 0xe6, 0x7e, 0x3e, 0xbf, 0xb7, 0x1f, 0x3e, 0x7e, 0x73, 0x57, 0xbe,
  0xd7, 0x17, 0xa2, 0x3d, 0x05, 0x1e, 0x14, 0xbe, 0xcb, 0xd3, 0xfc, 0x3b,
  0x62, 0x44, 0x10, 0x3e, 0xab, 0x5f, 0x6c, 0x3e, 0x12, 0x99, 0xa2, 0x3c,
  0xfc, 0xbb, 0x72, 0x3e, 0x8d, 0x25, 0x00, 0x3e, 0x4b, 0xb7, 0x5f, 0x3d,
  0xb7, 0xf0, 0x87, 0x3c, 0xb4, 0x57, 0x24, 0xbe, 0xb2, 0x4c, 0x9e, 0xbd,
  0x80, 0x84, 0xef, 0xbc, 0xfb, 0x12, 0x80, 0xbd, 0x22, 0x9b, 0x5f, 0x3e,
  0x24, 0x1e, 0x53, 0x3e, 0xa7, 0xf9, 0xfb, 0x3d, 0xf2, 0x1f, 0x83, 0xbe,
  0xb2, 0x6b, 0xad, 0xbb, 0xf1, 0x81, 0x33, 0x3e, 0x38, 0x3c, 0x26, 0x3e,
  0xd7, 0x46, 0xa3, 0xbd, 0xdd, 0xd8, 0x16, 0xbe, 0xd1, 0xd9, 0x6f, 0xbd,
  0xef, 0xa9, 0xc8, 0xbd, 0x6b, 0x79, 0x91, 0xbd, 0x20, 0x40, 0x77, 0xbe,
  0xdf, 0x74, 0x41, 0x3e, 0x95, 0xe7, 0xbc, 0xbc, 0xde, 0x79, 0x5b, 0x3e,
  0x3c, 0x31, 0x58, 0x3e, 0x25, 0xad, 0x72, 0x3e, 0x7d, 0x64, 0x0d, 0xbe,
  0x0c, 0x0d, 0x85, 0xbd, 0x80, 0x90, 0x0c, 0x3e, 0x43, 0xd4, 0xdc, 0x3d,
  0x43, 0x39, 0x91, 0x3b, 0x90, 0xee, 0x35, 0xbe, 0x30, 0x06, 0xfe, 0xbb,
  0xae, 0x1f, 0x60, 0xbb, 0xac, 0x21, 0xe6, 0x3d, 0xb8, 0xf9, 0xeb, 0xbd,
  0x2e, 0xc9, 0x4c, 0x3d, 0xb5, 0x66, 0xba, 0x3d, 0x8b, 0x37, 0x28, 0xbd,
  0x3d, 0xaa, 0x4c, 0xbe, 0xe2, 0x43, 0x3a, 0xbe, 0x0b, 0xb8, 0xb2, 0x3d,
  0x33, 0xb8, 0x28, 0xbe, 0xc7, 0x4a, 0x03, 0xbe, 0x3b, 0xfe, 0x6b, 0xbe,
  0xc6, 0xbe, 0x47, 0xbe, 0x2a, 0x75, 0x2d, 0xbb, 0x83, 0x46, 0x19, 0x3e,
  0x51, 0x54, 0x4d, 0xbd, 0xef, 0x4c, 0xf1, 0x3d, 0x3a, 0xf2, 0xca, 0x3b,
  0x2e, 0x99, 0x1a, 0xbe, 0xd8, 0x8f, 0xce, 0x3d, 0x2f, 0x6d, 0x4f, 0x3e,
  0xae, 0x41, 0x15, 0xbe, 0x61, 0x2f, 0xb0, 0xbd, 0x04, 0xa5, 0x2c, 0x3d,
  0xb6, 0xb8, 0x1d, 0x3e, 0x4e, 0x5d, 0xb4, 0xbd, 0x66, 0x94, 0x3f, 0x3e,
  0x26, 0x14, 0x4a, 0xbe, 0xc2, 0x5c, 0x05, 0xbe, 0x3d, 0xe6, 0x53, 0xbe,
  0xc6, 0x09, 0x2a, 0xbd, 0x63, 0x6d, 0x82, 0xbe, 0x3c, 0x54, 0x62, 0x3e,
  0xe3, 0x8f, 0x23, 0x3e, 0x9a, 0x5a, 0xfa, 0xbd, 0xd0, 0x66, 0x03, 0x3e,
  0x45, 0xa7, 0x83, 0x3d, 0x9e, 0xa4, 0x3c, 0x3e, 0x2b, 0x38, 0x36, 0xbd,
  0x43, 0x06, 0x2c, 0xbe, 0x23, 0x8c, 0x54, 0x3e, 0x22, 0xd2, 0x41, 0x3e,
  0x3f, 0x6e, 0x39, 0xbe, 0x32, 0x02, 0x13, 0x3e, 0x2c, 0xd5, 0x41, 0x3e,
  0x9a, 0x75, 0x51, 0xbe, 0x15, 0x46, 0x2f, 0x3d, 0xfb, 0xed, 0x07, 0xbe,
  0x7f, 0x9c, 0x01, 0x3d, 0x2d, 0x28, 0xd4, 0x3d, 0x72, 0xaf, 0x13, 0x3e,
  0x46, 0x57, 0x2b, 0xbe, 0xb4, 0x4b, 0x13, 0x3e, 0xc0, 0xd4, 0x3c, 0xbd,
  0x57, 0x0c, 0xe7, 0x3d, 0xa2, 0xb6, 0xf9, 0xbd, 0xa0, 0x55, 0x38, 0x3e,
  0x03, 0x16, 0x2f, 0x3c, 0xf2, 0x9b, 0x65, 0xbe, 0x6d, 0xc8, 0x50, 0xbe,
  0xbb, 0x2d, 0x69, 0xbc, 0x3d, 0x49, 0xdf, 0xbd, 0xdb, 0x70, 0x78, 0x3e,
  0x1a, 0xbd, 0x3c, 0xbe, 0x23, 0xa6, 0x8b, 0xbe, 0xd1, 0x6e, 0x4d, 0xbd,
  0x95, 0xd3, 0xee, 0xbd, 0x77, 0xd2, 0x5d, 0x3e, 0x66, 0x33, 0x51, 0x3e,
  0x69, 0x1b, 0xf4, 0x3c, 0x84, 0xab, 0xbf, 0x3d, 0xd9, 0x3a, 0x81, 0xbd,
  0xdd, 0x40, 0x3c, 0x3e, 0x59, 0x41, 0x69, 0xbe, 0x8a, 0x4b, 0x72, 0xbc,
  0x7a, 0xb8, 0x71, 0xbe, 0xb8, 0x86, 0x06, 0xbe, 0xf6, 0x42, 0x6a, 0xbd,
  0xce, 0x8d, 0x03, 0x3d, 0x87, 0x15, 0x50, 0x3c, 0x36, 0xa2, 0xfa, 0x3d,
  0x8b, 0xc1, 0xa5, 0x3d, 0xb7, 0x08, 0x9b, 0x3d, 0xc9, 0x28, 0x3c, 0xbe,
  0x99, 0xe4, 0x29, 0x3e, 0x4c, 0x4b, 0x23, 0x3e, 0x34, 0x43, 0xca, 0x3d,
  0x88, 0x43, 0x1d, 0xbe, 0x6a, 0x16, 0x52, 0xbe, 0x71, 0xba, 0x9f, 0x3d,
  0x70, 0x89, 0x04, 0x3e, 0xda, 0xac, 0x24, 0xbe, 0xe5, 0x95, 0x7c, 0xbe,
  0xc1, 0x0a, 0x0d, 0x3e, 0x33, 0xd8, 0x36, 0xbe, 0xa1, 0xda, 0xfb, 0x3d,
  0x25, 0x01, 0x48, 0xbe, 0x7f, 0xc9, 0x28, 0xbe, 0xd2, 0x04, 0x1f, 0x3d,
  0x75, 0x9c, 0x2e, 0xbe, 0x5e, 0x39, 0x28, 0x3e, 0x5e, 0x55, 0xb9, 0xbd,
  0x07, 0x43, 0x25, 0x3c, 0xd0, 0xa7, 0xcc, 0x3d, 0xd8, 0xfd, 0x74, 0x3e,
  0x82, 0x14, 0x08, 0xbe, 0xc1, 0xcf, 0x06, 0x3e, 0xab, 0xab, 0x3a, 0xbe,
  0x7a, 0xbb, 0x2b, 0x3e, 0x11, 0xf6, 0x39, 0x3e, 0x2d, 0xb9, 0x86, 0x3c,
  0x7b, 0x48, 0x88, 0x3d, 0xd4, 0x10, 0xaa, 0x3d, 0xc5, 0x85, 0x45, 0xbe,
  0x92, 0xc8, 0x73, 0x3d, 0x18, 0x55, 0xb7, 0xbd, 0x86, 0xc5, 0x5b, 0xbe,
  0xbb, 0xdd, 0xd4, 0xbd, 0x0d, 0xce, 0xb5, 0x3d, 0x0f, 0x65, 0xba, 0x3d,
  0xf2, 0x0b, 0x25, 0x3e, 0xd8, 0x07, 0x4e, 0xbe, 0x0b, 0x26, 0x3f, 0x3e,
  0x9e, 0x16, 0x23, 0xbe, 0x70, 0x1b, 0x05, 0xbe, 0xd2, 0x07, 0x9c, 0x3d,
  0x5e, 0xf1, 0xe3, 0xbd, 0x99, 0xbe, 0x06, 0xbe, 0x2a, 0x33, 0xd3, 0xbd,
  0xf1, 0xd1, 0x5f, 0xbe, 0x6f, 0xfe, 0xe5, 0x3c, 0xcf, 0xa8, 0x4a, 0x3d,
  0x5d, 0xe8, 0x5b, 0xbe, 0xba, 0x64, 0x4e, 0x3e, 0x37, 0x07, 0x4b, 0xbe,
  0x5e, 0x43, 0x3b, 0x3d, 0x3b, 0xf4, 0xb8, 0xbd, 0x14, 0x38, 0xd1, 0x3c,
  0x26, 0x42, 0x7a, 0x3e, 0x3a, 0xec, 0x39, 0xbe, 0xd4, 0xff, 0x8f, 0x3e,
  0x69, 0x98, 0x87, 0xbd, 0x9d, 0x63, 0x90, 0xbe, 0x82, 0xd7, 0x16, 0xbe,
  0x59, 0x9e, 0x41, 0x3d, 0xfd, 0x3a, 0x8f, 0x3c, 0x65, 0x09, 0x50, 0x3e,
  0x79, 0x44, 0x42, 0x3e, 0x0e, 0x5e, 0xa6, 0x3d, 0x01, 0xac, 0x85, 0x3e,
  0x0d, 0x6c, 0x6c, 0xbe, 0x7d, 0x2a, 0x0e, 0xbe, 0xab, 0xcd, 0x17, 0xbe,
  0x9f, 0xab, 0x72, 0x3e, 0x3f, 0xa8, 0x1a, 0xbe, 0x1d, 0xd5, 0xb3, 0x3d,
  0xef, 0x77, 0x33, 0x3c, 0xfa, 0x41, 0xd6, 0x3b, 0x08, 0xc0, 0x55, 0xbe,
  0x28, 0x6a, 0x54, 0xbe, 0x2d, 0x1b, 0x82, 0x3e, 0x59, 0x96, 0x2e, 0xbe,
  0xf6, 0x23, 0xc4, 0x3d, 0x43, 0xf7, 0x21, 0xbe, 0x96, 0x70, 0x1c, 0xbc,
  0x7a, 0xd4, 0x17, 0x3b, 0xb5, 0x66, 0xd8, 0x3d, 0x93, 0x5d, 0x55, 0xbd,
  0x00, 0x41, 0xb9, 0x3b, 0xc2, 0x3f, 0x48, 0xbe, 0x80, 0xf4, 0x24, 0xbd,
  0x2f, 0xc7, 0x25, 0xbd, 0x0a, 0xb1, 0x15, 0xbe, 0xba, 0x76, 0xe2, 0xbc,
  0x0c, 0xbb, 0x59, 0xbd, 0x42, 0x0c, 0x14, 0xbe, 0x68, 0x1d, 0x59, 0xbe,
  0x59, 0xb4, 0x67, 0xbe, 0x5f, 0x12, 0x2d, 0x3e, 0xfc, 0x0c, 0x23, 0x3d,
  0x2f, 0xc0, 0x0f, 0xbd, 0x52, 0x7c, 0x60, 0xbd, 0xdc, 0xce, 0x7a, 0xbe,
  0xca, 0xb7, 0x82, 0x3e, 0x5e, 0xfd, 0xff, 0xff, 0x04, 0x00, 0x00, 0x00,
  0x00, 0x02, 0x00, 0x00, 0x78, 0x3c, 0x67, 0xbb, 0xf4, 0x73, 0x66, 0xbc,
  0x3e, 0x38, 0x91, 0xbe, 0x6f, 0xd0, 0x80, 0xbe, 0x08, 0x7b, 0x04, 0xbe,
  0xa3, 0xd7, 0x55, 0xbe, 0xc7, 0x05, 0xa0, 0xbe, 0xd5, 0x7d, 0x9f, 0x3e,
  0x50, 0x40, 0x91, 0x3e, 0xba, 0xef, 0x83, 0xbe, 0x25, 0xcd, 0x26, 0x3e,
  0x08, 0x31, 0x60, 0xbe, 0xfb, 0xf4, 0xb4, 0xbe, 0xb3, 0x8c, 0x87, 0xbd,
  0x9b, 0x13, 0xfb, 0xbd, 0xf3, 0x2e, 0xb0, 0x3e, 0xf2, 0x2c, 0xad, 0xbe,
  0x49, 0x19, 0x9e, 0xbe, 0x45, 0x0c, 0x69, 0xbe, 0xde, 0x22, 0x84, 0x3e,
  0xc9, 0xe7, 0xe7, 0x3e, 0x17, 0x5c, 0x47, 0x3e, 0x08, 0xa5, 0x88, 0xbe,
  0x61, 0xe7, 0x78, 0xbe, 0x24, 0xfd, 0xd5, 0xbd, 0xa4, 0x1a, 0xdb, 0x3e,
  0xb9, 0x25, 0x95, 0xbe, 0xf6, 0xb3, 0xbe, 0x3d, 0xc9, 0x7b, 0xff, 0x3d,
  0xe5, 0x0f, 0xd0, 0xbe, 0x47, 0x0d, 0x72, 0x3d, 0xc9, 0xcf, 0xcd, 0x3e,
  0x48, 0x5a, 0xf3, 0x3d, 0x8f, 0x72, 0x10, 0xbe, 0x80, 0xf4, 0x8e, 0x3e,
  0x0b, 0x97, 0xeb, 0x3c, 0x0e, 0xa2, 0x49, 0xbe, 0xfe, 0x2b, 0x64, 0xbe,
  0x93, 0xb8, 0x37, 0xbe, 0x33, 0xde, 0x9f, 0xbe, 0xdd, 0x95, 0xa3, 0x3e,
  0x41, 0x9f, 0xda, 0x3d, 0x00, 0xa8, 0x29, 0x3e, 0xc0, 0x62, 0x66, 0x3e,
  0xe3, 0x53, 0xda, 0xbe, 0xae, 0xc5, 0x85, 0xbe, 0x21, 0x82, 0x9d, 0xbe,
  0x7f, 0x19, 0xb8, 0xbe, 0x55, 0x15, 0xc1, 0xbe, 0xea, 0xdb, 0xa3, 0xbe,
  0x14, 0x58, 0x2f, 0x3b, 0x21, 0xb0, 0x21, 0xbc, 0xe2, 0x27, 0xea, 0x3d,
  0x3d, 0x5d, 0x40, 0x3d, 0xf7, 0x06, 0x12, 0xbe, 0xe0, 0xa9, 0x52, 0x3e,
  0x36, 0xbb, 0xc4, 0x3d, 0x7b, 0x66, 0x04, 0x3e, 0x57, 0xfe, 0x15, 0xbe,
  0x4e, 0x30, 0xab, 0x3e, 0x7b, 0xd1, 0xa2, 0xbe, 0x0c, 0xcc, 0x9a, 0x3e,
  0xa0, 0xc4, 0xb8, 0xbe, 0x28, 0x35, 0xcb, 0x3e, 0x85, 0x3d, 0x90, 0x3d,
  0xa4, 0x1e, 0x01, 0xbe, 0x83, 0x49, 0x94, 0xbe, 0x0f, 0x7e, 0xa4, 0xbe,
  0x20, 0x50, 0x87, 0xbe, 0x40, 0xfa, 0xee, 0xbd, 0x0c, 0x20, 0xab, 0xbe,
  0x3b, 0xf9, 0xa0, 0xbe, 0x0b, 0x6a, 0x95, 0xbe, 0x9d, 0x01, 0x85, 0xbe,
  0x1d, 0x10, 0x1a, 0xbd, 0xf3, 0x5c, 0x37, 0xbe, 0x82, 0xbd, 0x27, 0x3e,
  0xd8, 0x77, 0xc0, 0x3e, 0xa0, 0x31, 0x6b, 0x3e, 0x8a, 0x91, 0x52, 0x3e,
  0xef, 0xdd, 0x4b, 0xbc, 0xfb, 0x88, 0xb6, 0xbe, 0xc7, 0xe7, 0xe8, 0xbd,
  0x98, 0x72, 0x81, 0x3e, 0xcd, 0x09, 0xd7, 0x3e, 0x38, 0x51, 0x43, 0xbe,
  0x20, 0x59, 0x99, 0xbd, 0xcd, 0x67, 0x1e, 0xbe, 0x24, 0x14, 0xdb, 0xbe,
  0x55, 0x3d, 0x68, 0xbd, 0x20, 0x14, 0xa6, 0xbd, 0xe9, 0x4d, 0x32, 0x3d,
  0x87, 0xc4, 0x59, 0x3e, 0x2e, 0xf8, 0xa4, 0x3d, 0x34, 0x39, 0x16, 0x3e,
  0x6a, 0x14, 0x83, 0xbe, 0x7a, 0x69, 0xbd, 0xbe, 0x4a, 0x43, 0xb0, 0x3e,
  0xa3, 0xe1, 0x8f, 0xbc, 0x56, 0x42, 0xd8, 0x3e, 0x61, 0x50, 0xa3, 0x3c,
  0x3e, 0x52, 0x8e, 0xbe, 0x7c, 0x6d, 0x69, 0x3e, 0x2f, 0xb6, 0x97, 0x3e,
  0x99, 0x35, 0xc3, 0xbe, 0x46, 0x7c, 0x2a, 0x3e, 0x38, 0x72, 0xa1, 0x3e,
  0xb7, 0x67, 0x9f, 0xbe, 0x48, 0xdc, 0x8c, 0xbe, 0xa9, 0x21, 0x63, 0xbe,
  0x35, 0x7b, 0x7a, 0xbd, 0x04, 0xac, 0xd0, 0x3e, 0x88, 0x05, 0x5f, 0xbe,
  0x41, 0xb4, 0xbe, 0x3e, 0x64, 0x10, 0x1a, 0x3e, 0xc5, 0x23, 0xb6, 0xbe,
  0x4e, 0xb2, 0xa7, 0xbd, 0x7e, 0x86, 0xd1, 0xbe, 0xde, 0x0c, 0xfb, 0x3c,
  0xe2, 0x36, 0x92, 0x3e, 0xf4, 0x60, 0x89, 0x3e, 0x19, 0xf5, 0x9e, 0x3e,
  0x58, 0xd7, 0x12, 0xbe, 0xe8, 0xf2, 0x8c, 0xbe, 0x9a, 0x7d, 0x32, 0x3e,
  0x53, 0x82, 0x2c, 0x3c, 0x74, 0x80, 0x43, 0x3d, 0x4b, 0x79, 0x91, 0xbe,
  0x78, 0xfa, 0xff, 0xff, 0x7c, 0xfa, 0xff, 0xff, 0x0f, 0x00, 0x00, 0x00,
  0x4d, 0x4c, 0x49, 0x52, 0x20, 0x43, 0x6f, 0x6e, 0x76, 0x65, 0x72, 0x74,
  0x65, 0x64, 0x2e, 0x00, 0x01, 0x00, 0x00, 0x00, 0x14, 0x00, 0x00, 0x00,
  0x00, 0x00, 0x0e, 0x00, 0x18, 0x00, 0x14, 0x00, 0x10, 0x00, 0x0c, 0x00,
  0x08, 0x00, 0x04, 0x00, 0x0e, 0x00, 0x00, 0x00, 0x14, 0x00, 0x00, 0x00,
  0x1c, 0x00, 0x00, 0x00, 0x24, 0x01, 0x00, 0x00, 0x28, 0x01, 0x00, 0x00,
  0x2c, 0x01, 0x00, 0x00, 0x04, 0x00, 0x00, 0x00, 0x6d, 0x61, 0x69, 0x6e,
  0x00, 0x00, 0x00, 0x00, 0x04, 0x00, 0x00, 0x00, 0xcc, 0x00, 0x00, 0x00,
  0x84, 0x00, 0x00, 0x00, 0x50, 0x00, 0x00, 0x00, 0x14, 0x00, 0x00, 0x00,
  0x00, 0x00, 0x0e, 0x00, 0x1a, 0x00, 0x14, 0x00, 0x10, 0x00, 0x0c, 0x00,
  0x0b, 0x00, 0x04, 0x00, 0x0e, 0x00, 0x00, 0x00, 0x1c, 0x00, 0x00, 0x00,
  0x00, 0x00, 0x00, 0x09, 0x1c, 0x00, 0x00, 0x00, 0x20, 0x00, 0x00, 0x00,
  0x01, 0x00, 0x00, 0x00, 0x00, 0x00, 0x06, 0x00, 0x08, 0x00, 0x04, 0x00,
  0x06, 0x00, 0x00, 0x00, 0x00, 0x00, 0x80, 0x3f, 0x01, 0x00, 0x00, 0x00,
  0x0a, 0x00, 0x00, 0x00, 0x01, 0x00, 0x00, 0x00, 0x09, 0x00, 0x00, 0x00,
  0x9a, 0xff, 0xff, 0xff, 0x10, 0x00, 0x00, 0x00, 0x00, 0x00, 0x00, 0x08,
  0x0c, 0x00, 0x00, 0x00, 0x10, 0x00, 0x00, 0x00, 0x40, 0xfb, 0xff, 0xff,
  0x01, 0x00, 0x00, 0x00, 0x09, 0x00, 0x00, 0x00, 0x03, 0x00, 0x00, 0x00,
  0x08, 0x00, 0x00, 0x00, 0x01, 0x00, 0x00, 0x00, 0x03, 0x00, 0x00, 0x00,
  0xca, 0xff, 0xff, 0xff, 0x10, 0x00, 0x00, 0x00, 0x00, 0x00, 0x00, 0x08,
  0x10, 0x00, 0x00, 0x00, 0x14, 0x00, 0x00, 0x00, 0xba, 0xff, 0xff, 0xff,
  0x00, 0x00, 0x00, 0x01, 0x01, 0x00, 0x00, 0x00, 0x08, 0x00, 0x00, 0x00,
  0x03, 0x00, 0x00, 0x00, 0x07, 0x00, 0x00, 0x00, 0x02, 0x00, 0x00, 0x00,
  0x04, 0x00, 0x00, 0x00, 0x00, 0x00, 0x0e, 0x00, 0x16, 0x00, 0x00, 0x00,
  0x10, 0x00, 0x0c, 0x00, 0x0b, 0x00, 0x04, 0x00, 0x0e, 0x00, 0x00, 0x00,
  0x18, 0x00, 0x00, 0x00, 0x00, 0x00, 0x00, 0x08, 0x18, 0x00, 0x00, 0x00,
  0x1c, 0x00, 0x00, 0x00, 0x00, 0x00, 0x06, 0x00, 0x08, 0x00, 0x07, 0x00,
  0x06, 0x00, 0x00, 0x00, 0x00, 0x00, 0x00, 0x01, 0x01, 0x00, 0x00, 0x00,
  0x07, 0x00, 0x00, 0x00, 0x03, 0x00, 0x00, 0x00, 0x00, 0x00, 0x00, 0x00,
  0x06, 0x00, 0x00, 0x00, 0x05, 0x00, 0x00, 0x00, 0x01, 0x00, 0x00, 0x00,
  0x0a, 0x00, 0x00, 0x00, 0x01, 0x00, 0x00, 0x00, 0x00, 0x00, 0x00, 0x00,
  0x0b, 0x00, 0x00, 0x00, 0xe8, 0x03, 0x00, 0x00, 0x90, 0x03, 0x00, 0x00,
  0x38, 0x03, 0x00, 0x00, 0xfc, 0x02, 0x00, 0x00, 0xa4, 0x02, 0x00, 0x00,
  0x50, 0x02, 0x00, 0x00, 0x04, 0x02, 0x00, 0x00, 0x74, 0x01, 0x00, 0x00,
  0xdc, 0x00, 0x00, 0x00, 0x60, 0x00, 0x00, 0x00, 0x04, 0x00, 0x00, 0x00,
  0x5a, 0xfc, 0xff, 0xff, 0x00, 0x00, 0x00, 0x01, 0x14, 0x00, 0x00, 0x00,
  0x1c, 0x00, 0x00, 0x00, 0x1c, 0x00, 0x00, 0x00, 0x0b, 0x00, 0x00, 0x00,
  0x34, 0x00, 0x00, 0x00, 0x02, 0x00, 0x00, 0x00, 0xff, 0xff, 0xff, 0xff,
  0x04, 0x00, 0x00, 0x00, 0x44, 0xfc, 0xff, 0xff, 0x1b, 0x00, 0x00, 0x00,
  0x53, 0x74, 0x61, 0x74, 0x65, 0x66, 0x75, 0x6c, 0x50, 0x61, 0x72, 0x74,
  0x69, 0x74, 0x69, 0x6f, 0x6e, 0x65, 0x64, 0x43, 0x61, 0x6c, 0x6c, 0x5f,
  0x31, 0x3a, 0x30, 0x00, 0x02, 0x00, 0x00, 0x00, 0x01, 0x00, 0x00, 0x00,
  0x04, 0x00, 0x00, 0x00, 0xb2, 0xfc, 0xff, 0xff, 0x00, 0x00, 0x00, 0x01,
  0x14, 0x00, 0x00, 0x00, 0x1c, 0x00, 0x00, 0x00, 0x1c, 0x00, 0x00, 0x00,
  0x0a, 0x00, 0x00, 0x00, 0x54, 0x00, 0x00, 0x00, 0x02, 0x00, 0x00, 0x00,
  0xff, 0xff, 0xff, 0xff, 0x04, 0x00, 0x00, 0x00, 0x9c, 0xfc, 0xff, 0xff,
  0x38, 0x00, 0x00, 0x00, 0x73, 0x65, 0x71, 0x75, 0x65, 0x6e, 0x74, 0x69,
  0x61, 0x6c, 0x5f, 0x31, 0x2f, 0x64, 0x65, 0x6e, 0x73, 0x65, 0x5f, 0x32,
  0x5f, 0x31, 0x2f, 0x4d, 0x61, 0x74, 0x4d, 0x75, 0x6c, 0x3b, 0x73, 0x65,
  0x71, 0x75, 0x65, 0x6e, 0x74, 0x69, 0x61, 0x6c, 0x5f, 0x31, 0x2f, 0x64,
  0x65, 0x6e, 0x73, 0x65, 0x5f, 0x32, 0x5f, 0x31, 0x2f, 0x41, 0x64, 0x64,
  0x00, 0x00, 0x00, 0x00, 0x02, 0x00, 0x00, 0x00, 0x01, 0x00, 0x00, 0x00,
  0x04, 0x00, 0x00, 0x00, 0x2a, 0xfd, 0xff, 0xff, 0x00, 0x00, 0x00, 0x01,
  0x14, 0x00, 0x00, 0x00, 0x1c, 0x00, 0x00, 0x00, 0x1c, 0x00, 0x00, 0x00,
  0x09, 0x00, 0x00, 0x00, 0x70, 0x00, 0x00, 0x00, 0x02, 0x00, 0x00, 0x00,
  0xff, 0xff, 0xff, 0xff, 0x20, 0x00, 0x00, 0x00, 0x14, 0xfd, 0xff, 0xff,
  0x54, 0x00, 0x00, 0x00, 0x73, 0x65, 0x71, 0x75, 0x65, 0x6e, 0x74, 0x69,
  0x61, 0x6c, 0x5f, 0x31, 0x2f, 0x64, 0x65, 0x6e, 0x73, 0x65, 0x5f, 0x31,
  0x5f, 0x32, 0x2f, 0x4d, 0x61, 0x74, 0x4d, 0x75, 0x6c, 0x3b, 0x73, 0x65,
  0x71, 0x75, 0x65, 0x6e, 0x74, 0x69, 0x61, 0x6c, 0x5f, 0x31, 0x2f, 0x64,
  0x65, 0x6e, 0x73, 0x65, 0x5f, 0x31, 0x5f, 0x32, 0x2f, 0x52, 0x65, 0x6c,
  0x75, 0x3b, 0x73, 0x65, 0x71, 0x75, 0x65, 0x6e, 0x74, 0x69, 0x61, 0x6c,
  0x5f, 0x31, 0x2f, 0x64, 0x65, 0x6e, 0x73, 0x65, 0x5f, 0x31, 0x5f, 0x32,
  0x2f, 0x41, 0x64, 0x64, 0x00, 0x00, 0x00, 0x00, 0x02, 0x00, 0x00, 0x00,
  0x01, 0x00, 0x00, 0x00, 0x20, 0x00, 0x00, 0x00, 0xbe, 0xfd, 0xff, 0xff,
  0x00, 0x00, 0x00, 0x01, 0x14, 0x00, 0x00, 0x00, 0x1c, 0x00, 0x00, 0x00,
  0x1c, 0x00, 0x00, 0x00, 0x08, 0x00, 0x00, 0x00, 0x68, 0x00, 0x00, 0x00,
  0x02, 0x00, 0x00, 0x00, 0xff, 0xff, 0xff, 0xff, 0x40, 0x00, 0x00, 0x00,
  0xa8, 0xfd, 0xff, 0xff, 0x4e, 0x00, 0x00, 0x00, 0x73, 0x65, 0x71, 0x75,
  0x65, 0x6e, 0x74, 0x69, 0x61, 0x6c, 0x5f, 0x31, 0x2f, 0x64, 0x65, 0x6e,
  0x73, 0x65, 0x5f, 0x31, 0x2f, 0x4d, 0x61, 0x74, 0x4d, 0x75, 0x6c, 0x3b,
  0x73, 0x65, 0x71, 0x75, 0x65, 0x6e, 0x74, 0x69, 0x61, 0x6c, 0x5f, 0x31,
  0x2f, 0x64, 0x65, 0x6e, 0x73, 0x65, 0x5f, 0x31, 0x2f, 0x52, 0x65, 0x6c,
  0x75, 0x3b, 0x73, 0x65, 0x71, 0x75, 0x65, 0x6e, 0x74, 0x69, 0x61, 0x6c,
  0x5f, 0x31, 0x2f, 0x64, 0x65, 0x6e, 0x73, 0x65, 0x5f, 0x31, 0x2f, 0x41,
  0x64, 0x64, 0x00, 0x00, 0x02, 0x00, 0x00, 0x00, 0x01, 0x00, 0x00, 0x00,
  0x40, 0x00, 0x00, 0x00, 0x9e, 0xfe, 0xff, 0xff, 0x00, 0x00, 0x00, 0x01,
  0x10, 0x00, 0x00, 0x00, 0x10, 0x00, 0x00, 0x00, 0x07, 0x00, 0x00, 0x00,
  0x28, 0x00, 0x00, 0x00, 0x24, 0xfe, 0xff, 0xff, 0x1b, 0x00, 0x00, 0x00,
  0x73, 0x65, 0x71, 0x75, 0x65, 0x6e, 0x74, 0x69, 0x61, 0x6c, 0x5f, 0x31,
  0x2f, 0x64, 0x65, 0x6e, 0x73, 0x65, 0x5f, 0x31, 0x2f, 0x4d, 0x61, 0x74,
  0x4d, 0x75, 0x6c, 0x00, 0x02, 0x00, 0x00, 0x00, 0x40, 0x00, 0x00, 0x00,
  0x07, 0x00, 0x00, 0x00, 0xe6, 0xfe, 0xff, 0xff, 0x00, 0x00, 0x00, 0x01,
  0x10, 0x00, 0x00, 0x00, 0x10, 0x00, 0x00, 0x00, 0x06, 0x00, 0x00, 0x00,
  0x34, 0x00, 0x00, 0x00, 0x6c, 0xfe, 0xff, 0xff, 0x27, 0x00, 0x00, 0x00,
  0x73, 0x65, 0x71, 0x75, 0x65, 0x6e, 0x74, 0x69, 0x61, 0x6c, 0x5f, 0x31,
  0x2f, 0x64, 0x65, 0x6e, 0x73, 0x65, 0x5f, 0x31, 0x2f, 0x41, 0x64, 0x64,
  0x2f, 0x52, 0x65, 0x61, 0x64, 0x56, 0x61, 0x72, 0x69, 0x61, 0x62, 0x6c,
  0x65, 0x4f, 0x70, 0x00, 0x01, 0x00, 0x00, 0x00, 0x40, 0x00, 0x00, 0x00,
  0x36, 0xff, 0xff, 0xff, 0x00, 0x00, 0x00, 0x01, 0x10, 0x00, 0x00, 0x00,
  0x10, 0x00, 0x00, 0x00, 0x05, 0x00, 0x00, 0x00, 0x38, 0x00, 0x00, 0x00,
  0xbc, 0xfe, 0xff, 0xff, 0x29, 0x00, 0x00, 0x00, 0x73, 0x65, 0x71, 0x75,
  0x65, 0x6e, 0x74, 0x69, 0x61, 0x6c, 0x5f, 0x31, 0x2f, 0x64, 0x65, 0x6e,
  0x73, 0x65, 0x5f, 0x31, 0x5f, 0x32, 0x2f, 0x41, 0x64, 0x64, 0x2f, 0x52,
  0x65, 0x61, 0x64, 0x56, 0x61, 0x72, 0x69, 0x61, 0x62, 0x6c, 0x65, 0x4f,
  0x70, 0x00, 0x00, 0x00, 0x01, 0x00, 0x00, 0x00, 0x20, 0x00, 0x00, 0x00,
  0x8a, 0xff, 0xff, 0xff, 0x00, 0x00, 0x00, 0x01, 0x10, 0x00, 0x00, 0x00,
  0x10, 0x00, 0x00, 0x00, 0x04, 0x00, 0x00, 0x00, 0x1c, 0x00, 0x00, 0x00,
  0x10, 0xff, 0xff, 0xff, 0x0f, 0x00, 0x00, 0x00, 0x61, 0x72, 0x69, 0x74,
  0x68, 0x2e, 0x63, 0x6f, 0x6e, 0x73, 0x74, 0x61, 0x6e, 0x74, 0x32, 0x00,
  0x01, 0x00, 0x00, 0x00, 0x04, 0x00, 0x00, 0x00, 0xc2, 0xff, 0xff, 0xff,
  0x00, 0x00, 0x00, 0x01, 0x10, 0x00, 0x00, 0x00, 0x10, 0x00, 0x00, 0x00,
  0x03, 0x00, 0x00, 0x00, 0x1c, 0x00, 0x00, 0x00, 0x48, 0xff, 0xff, 0xff,
  0x0f, 0x00, 0x00, 0x00, 0x61, 0x72, 0x69, 0x74, 0x68, 0x2e, 0x63, 0x6f,
  0x6e, 0x73, 0x74, 0x61, 0x6e, 0x74, 0x31, 0x00, 0x02, 0x00, 0x00, 0x00,
  0x20, 0x00, 0x00, 0x00, 0x40, 0x00, 0x00, 0x00, 0x00, 0x00, 0x16, 0x00,
  0x18, 0x00, 0x14, 0x00, 0x00, 0x00, 0x10, 0x00, 0x0c, 0x00, 0x08, 0x00,
  0x00, 0x00, 0x00, 0x00, 0x00, 0x00, 0x07, 0x00, 0x16, 0x00, 0x00, 0x00,
  0x00, 0x00, 0x00, 0x01, 0x10, 0x00, 0x00, 0x00, 0x10, 0x00, 0x00, 0x00,
  0x02, 0x00, 0x00, 0x00, 0x1c, 0x00, 0x00, 0x00, 0x9c, 0xff, 0xff, 0xff,
  0x0e, 0x00, 0x00, 0x00, 0x61, 0x72, 0x69, 0x74, 0x68, 0x2e, 0x63, 0x6f,
  0x6e, 0x73, 0x74, 0x61, 0x6e, 0x74, 0x00, 0x00, 0x02, 0x00, 0x00, 0x00,
  0x04, 0x00, 0x00, 0x00, 0x20, 0x00, 0x00, 0x00, 0x00, 0x00, 0x16, 0x00,
  0x1c, 0x00, 0x18, 0x00, 0x00, 0x00, 0x14, 0x00, 0x10, 0x00, 0x0c, 0x00,
  0x00, 0x00, 0x00, 0x00, 0x08, 0x00, 0x07, 0x00, 0x16, 0x00, 0x00, 0x00,
  0x00, 0x00, 0x00, 0x01, 0x14, 0x00, 0x00, 0x00, 0x20, 0x00, 0x00, 0x00,
  0x20, 0x00, 0x00, 0x00, 0x01, 0x00, 0x00, 0x00, 0x3c, 0x00, 0x00, 0x00,
  0x02, 0x00, 0x00, 0x00, 0xff, 0xff, 0xff, 0xff, 0x07, 0x00, 0x00, 0x00,
  0x04, 0x00, 0x04, 0x00, 0x04, 0x00, 0x00, 0x00, 0x1e, 0x00, 0x00, 0x00,
  0x73, 0x65, 0x72, 0x76, 0x69, 0x6e, 0x67, 0x5f, 0x64, 0x65, 0x66, 0x61,
  0x75, 0x6c, 0x74, 0x5f, 0x6b, 0x65, 0x72, 0x61, 0x73, 0x5f, 0x74, 0x65,
  0x6e, 0x73, 0x6f, 0x72, 0x3a, 0x30, 0x00, 0x00, 0x02, 0x00, 0x00, 0x00,
  0x01, 0x00, 0x00, 0x00, 0x07, 0x00, 0x00, 0x00, 0x02, 0x00, 0x00, 0x00,
  0x20, 0x00, 0x00, 0x00, 0x04, 0x00, 0x00, 0x00, 0xf4, 0xff, 0xff, 0xff,
  0x19, 0x00, 0x00, 0x00, 0x00, 0x00, 0x00, 0x19, 0x0c, 0x00, 0x0c, 0x00,
  0x0b, 0x00, 0x00, 0x00, 0x00, 0x00, 0x04, 0x00, 0x0c, 0x00, 0x00, 0x00,
  0x09, 0x00, 0x00, 0x00, 0x00, 0x00, 0x00, 0x09
};
unsigned int model_tflite_len = 12980;
