#ifndef SINE_MODEL_H
#define SINE_MODEL_H

unsigned int sine_model_len = 3168;
unsigned char sine_model[] = {
 0x1c, 0x00, 0x00, 0x00, 0x54, 0x46, 0x4c, 0x33, 0x14, 0x00, 0x20, 0x00,
  0x1c, 0x00, 0x18, 0x00, 0x14, 0x00, 0x10, 0x00, 0x0c, 0x00, 0x00, 0x00,
  0x08, 0x00, 0x04, 0x00, 0x14, 0x00, 0x00, 0x00, 0x1c, 0x00, 0x00, 0x00,
  0x98, 0x00, 0x00, 0x00, 0xf0, 0x00, 0x00, 0x00, 0x14, 0x07, 0x00, 0x00,
  0x24, 0x07, 0x00, 0x00, 0x0c, 0x0c, 0x00, 0x00, 0x03, 0x00, 0x00, 0x00,
  0x01, 0x00, 0x00, 0x00, 0x10, 0x00, 0x00, 0x00, 0x00, 0x00, 0x0a, 0x00,
  0x10, 0x00, 0x0c, 0x00, 0x08, 0x00, 0x04, 0x00, 0x0a, 0x00, 0x00, 0x00,
  0x0c, 0x00, 0x00, 0x00, 0x1c, 0x00, 0x00, 0x00, 0x3c, 0x00, 0x00, 0x00,
  0x0f, 0x00, 0x00, 0x00, 0x73, 0x65, 0x72, 0x76, 0x69, 0x6e, 0x67, 0x5f,
  0x64, 0x65, 0x66, 0x61, 0x75, 0x6c, 0x74, 0x00, 0x01, 0x00, 0x00, 0x00,
  0x04, 0x00, 0x00, 0x00, 0x90, 0xff, 0xff, 0xff, 0x09, 0x00, 0x00, 0x00,
  0x04, 0x00, 0x00, 0x00, 0x08, 0x00, 0x00, 0x00, 0x6f, 0x75, 0x74, 0x70,
  0x75, 0x74, 0x5f, 0x30, 0x00, 0x00, 0x00, 0x00, 0x01, 0x00, 0x00, 0x00,
  0x04, 0x00, 0x00, 0x00, 0xba, 0xf9, 0xff, 0xff, 0x04, 0x00, 0x00, 0x00,
  0x0c, 0x00, 0x00, 0x00, 0x6b, 0x65, 0x72, 0x61, 0x73, 0x5f, 0x74, 0x65,
  0x6e, 0x73, 0x6f, 0x72, 0x00, 0x00, 0x00, 0x00, 0x02, 0x00, 0x00, 0x00,
  0x34, 0x00, 0x00, 0x00, 0x04, 0x00, 0x00, 0x00, 0xdc, 0xff, 0xff, 0xff,
  0x0c, 0x00, 0x00, 0x00, 0x04, 0x00, 0x00, 0x00, 0x13, 0x00, 0x00, 0x00,
  0x43, 0x4f, 0x4e, 0x56, 0x45, 0x52, 0x53, 0x49, 0x4f, 0x4e, 0x5f, 0x4d,
  0x45, 0x54, 0x41, 0x44, 0x41, 0x54, 0x41, 0x00, 0x08, 0x00, 0x0c, 0x00,
  0x08, 0x00, 0x04, 0x00, 0x08, 0x00, 0x00, 0x00, 0x0b, 0x00, 0x00, 0x00,
  0x04, 0x00, 0x00, 0x00, 0x13, 0x00, 0x00, 0x00, 0x6d, 0x69, 0x6e, 0x5f,
  0x72, 0x75, 0x6e, 0x74, 0x69, 0x6d, 0x65, 0x5f, 0x76, 0x65, 0x72, 0x73,
  0x69, 0x6f, 0x6e, 0x00, 0x0d, 0x00, 0x00, 0x00, 0x20, 0x06, 0x00, 0x00,
  0x18, 0x06, 0x00, 0x00, 0xc8, 0x05, 0x00, 0x00, 0xb0, 0x01, 0x00, 0x00,
  0x9c, 0x01, 0x00, 0x00, 0x4c, 0x01, 0x00, 0x00, 0xfc, 0x00, 0x00, 0x00,
  0xac, 0x00, 0x00, 0x00, 0xa4, 0x00, 0x00, 0x00, 0x9c, 0x00, 0x00, 0x00,
  0x94, 0x00, 0x00, 0x00, 0x74, 0x00, 0x00, 0x00, 0x04, 0x00, 0x00, 0x00,
  0x6a, 0xfa, 0xff, 0xff, 0x04, 0x00, 0x00, 0x00, 0x60, 0x00, 0x00, 0x00,
  0x0c, 0x00, 0x00, 0x00, 0x08, 0x00, 0x0e, 0x00, 0x08, 0x00, 0x04, 0x00,
  0x08, 0x00, 0x00, 0x00, 0x10, 0x00, 0x00, 0x00, 0x28, 0x00, 0x00, 0x00,
  0x00, 0x00, 0x06, 0x00, 0x08, 0x00, 0x04, 0x00, 0x06, 0x00, 0x00, 0x00,
  0x04, 0x00, 0x00, 0x00, 0x01, 0x00, 0x00, 0x00, 0xea, 0x03, 0x00, 0x00,
  0x0c, 0x00, 0x18, 0x00, 0x14, 0x00, 0x10, 0x00, 0x0c, 0x00, 0x04, 0x00,
  0x0c, 0x00, 0x00, 0x00, 0xec, 0xb7, 0xa8, 0x9a, 0xd0, 0xf4, 0x0a, 0xe3,
  0x02, 0x00, 0x00, 0x00, 0x02, 0x00, 0x00, 0x00, 0x04, 0x00, 0x00, 0x00,
  0x06, 0x00, 0x00, 0x00, 0x32, 0x2e, 0x31, 0x38, 0x2e, 0x30, 0x00, 0x00,
  0xd6, 0xfa, 0xff, 0xff, 0x04, 0x00, 0x00, 0x00, 0x10, 0x00, 0x00, 0x00,
  0x31, 0x2e, 0x35, 0x2e, 0x30, 0x00, 0x00, 0x00, 0x00, 0x00, 0x00, 0x00,
  0x00, 0x00, 0x00, 0x00, 0xd0, 0xf5, 0xff, 0xff, 0xd4, 0xf5, 0xff, 0xff,
  0xd8, 0xf5, 0xff, 0xff, 0xfe, 0xfa, 0xff, 0xff, 0x04, 0x00, 0x00, 0x00,
  0x40, 0x00, 0x00, 0x00, 0xfc, 0xa4, 0x0f, 0x3f, 0x04, 0x8a, 0x75, 0x3e,
  0x87, 0x87, 0x12, 0x3f, 0x3d, 0xeb, 0xe8, 0xbe, 0x58, 0xd7, 0x19, 0x3f,
  0x87, 0xec, 0xd1, 0xbe, 0x5f, 0x8d, 0xf3, 0xbe, 0xb6, 0x1b, 0xb5, 0xbe,
  0x81, 0x8e, 0xa9, 0xbe, 0x15, 0x2f, 0x03, 0xbf, 0xa6, 0x1a, 0x04, 0xbf,
  0xe2, 0x09, 0xed, 0x3e, 0xf5, 0x6f, 0x5d, 0x3e, 0xa8, 0xd0, 0x84, 0xbd,
  0xe7, 0x30, 0x2a, 0x3e, 0x77, 0x21, 0x60, 0x3e, 0x4a, 0xfb, 0xff, 0xff,
  0x04, 0x00, 0x00, 0x00, 0x40, 0x00, 0x00, 0x00, 0x4f, 0x71, 0x3a, 0x3e,
  0x34, 0xa4, 0x2a, 0xbe, 0xe2, 0x34, 0xe5, 0xbe, 0x00, 0x00, 0x00, 0x00,
  0xea, 0xc8, 0x91, 0xbf, 0x00, 0x00, 0x00, 0x00, 0x00, 0x00, 0x00, 0x00,
  0x00, 0x00, 0x00, 0x00, 0x00, 0x00, 0x00, 0x00, 0x00, 0x00, 0x00, 0x00,
  0x00, 0x00, 0x00, 0x00, 0x76, 0xe2, 0x55, 0x3e, 0xaa, 0x66, 0x17, 0xbf,
  0x00, 0x00, 0x00, 0x00, 0xaa, 0x39, 0x9b, 0x3e, 0xfd, 0x7f, 0x29, 0x3f,
  0x96, 0xfb, 0xff, 0xff, 0x04, 0x00, 0x00, 0x00, 0x40, 0x00, 0x00, 0x00,
  0x23, 0x54, 0x26, 0xbe, 0xee, 0x6c, 0xb7, 0x3d, 0x6a, 0xe7, 0xbd, 0x3e,
  0x9c, 0xa0, 0xba, 0x3e, 0x00, 0x00, 0x00, 0x00, 0xf8, 0x45, 0x1e, 0xbe,
  0xd7, 0xea, 0x3e, 0xbe, 0xe7, 0xda, 0x66, 0xbe, 0x79, 0xdb, 0x2b, 0x3f,
  0x00, 0x00, 0x00, 0x00, 0xaa, 0xab, 0x6d, 0xbd, 0x1e, 0xe0, 0xdf, 0x3b,
  0x81, 0x23, 0x70, 0x3b, 0x5c, 0xf6, 0x04, 0xbd, 0x8f, 0x77, 0xba, 0x3e,
  0x00, 0x00, 0x00, 0x00, 0xe2, 0xfb, 0xff, 0xff, 0x04, 0x00, 0x00, 0x00,
  0x04, 0x00, 0x00, 0x00, 0x3b, 0xb9, 0x26, 0xbe, 0xf2, 0xfb, 0xff, 0xff,
  0x04, 0x00, 0x00, 0x00, 0x00, 0x04, 0x00, 0x00, 0x38, 0x94, 0x14, 0x3e,
  0x26, 0x73, 0x68, 0xbe, 0x5b, 0xe9, 0xd8, 0x3e, 0xd1, 0xa6, 0xcf, 0x3e,
  0x08, 0xf7, 0x4e, 0xbe, 0xca, 0x01, 0x05, 0x3e, 0x2c, 0x57, 0xda, 0xbe,
  0x56, 0x13, 0x59, 0x3e, 0xa8, 0xba, 0x7a, 0xbd, 0xcf, 0x89, 0x8a, 0x3e,
  0xba, 0x8e, 0x45, 0x3e, 0x02, 0x6c, 0x91, 0xbe, 0x20, 0x21, 0x5d, 0xbd,
  0x4d, 0x22, 0xd9, 0xbe, 0xa2, 0x01, 0xa5, 0x3e, 0x6b, 0x62, 0x71, 0x3e,
  0x81, 0x45, 0x84, 0xbe, 0x66, 0xb7, 0xca, 0x3e, 0x95, 0x8a, 0x27, 0x3e,
  0x62, 0xea, 0x58, 0x3e, 0x8d, 0xe5, 0x13, 0x3d, 0xa0, 0xfc, 0x14, 0x3d,
  0xb4, 0x06, 0x9e, 0xbd, 0xfe, 0xb2, 0x23, 0x3e, 0x18, 0xba, 0x8b, 0xbe,
  0x71, 0x6a, 0xdc, 0x3e, 0xfb, 0x4f, 0x8e, 0x3e, 0xba, 0x75, 0x36, 0x3e,
  0xd3, 0xf1, 0xdb, 0xbe, 0x18, 0x32, 0x5f, 0x3d, 0x3b, 0xfe, 0xe5, 0xbc,
  0x17, 0x2d, 0xf1, 0xbd, 0x87, 0xe9, 0x12, 0xbf, 0x07, 0x4c, 0x69, 0x3c,
  0xe8, 0x2f, 0x79, 0xbe, 0xad, 0xa1, 0x8f, 0x3e, 0x5c, 0xc1, 0x5f, 0x3e,
  0x1e, 0xeb, 0x27, 0xbe, 0x2b, 0x69, 0xc8, 0x3e, 0xa6, 0x55, 0xa2, 0xbe,
  0xc1, 0x5d, 0x53, 0xbe, 0x5a, 0x6b, 0x3b, 0x3e, 0x73, 0x44, 0xdb, 0xbe,
  0xa8, 0xa1, 0x0a, 0xbf, 0x42, 0x2f, 0x93, 0x3d, 0xec, 0x12, 0x5d, 0xbe,
  0x06, 0x13, 0x9d, 0x3e, 0x9a, 0x77, 0xe6, 0x3e, 0xda, 0xc2, 0x41, 0xbe,
  0xe5, 0x3d, 0x52, 0x3e, 0x61, 0x6a, 0xce, 0xbe, 0x00, 0xc7, 0x79, 0x3c,
  0x1b, 0x74, 0xd6, 0xbe, 0x60, 0x6e, 0x0d, 0xbc, 0xba, 0x57, 0xc0, 0xbe,
  0xa1, 0xd5, 0xcb, 0xbe, 0xd2, 0x89, 0x3f, 0x3e, 0xd4, 0x98, 0xe2, 0x3d,
  0xc0, 0xe3, 0xc4, 0x3c, 0xf5, 0x8b, 0x20, 0xbf, 0x4a, 0x17, 0x12, 0x3e,
  0xd5, 0xe0, 0x87, 0x3e, 0x54, 0x93, 0xc2, 0x3e, 0xb0, 0xb2, 0x12, 0x3f,
  0x2c, 0x04, 0x22, 0xbe, 0xa5, 0x3c, 0xa7, 0x3e, 0x28, 0x65, 0x24, 0xbe,
  0xc8, 0x2f, 0x28, 0xbe, 0xb5, 0x3c, 0x50, 0xbe, 0x74, 0x35, 0x77, 0xbe,
  0x00, 0x64, 0xc7, 0xbc, 0xf4, 0x70, 0xea, 0x3d, 0x14, 0x50, 0x1d, 0xbe,
  0x28, 0xaa, 0x77, 0x3d, 0x30, 0x25, 0xaa, 0xbc, 0x18, 0xd3, 0x67, 0xbd,
  0x0c, 0xd1, 0xad, 0xbe, 0x7c, 0xdd, 0x90, 0xbd, 0xad, 0x2d, 0xa7, 0xbe,
  0x76, 0x01, 0x39, 0x3e, 0x83, 0x8f, 0x87, 0xbe, 0xaf, 0xac, 0x2d, 0xbe,
  0x5f, 0x76, 0x86, 0xbd, 0xb0, 0xb0, 0xba, 0x3c, 0x9d, 0x47, 0xdb, 0x3e,
  0x3c, 0x45, 0x9d, 0x3d, 0x8c, 0xb6, 0xf1, 0xbd, 0x9a, 0x1c, 0x8b, 0xbe,
  0x2b, 0x14, 0x60, 0xbe, 0x96, 0xee, 0x0d, 0x3e, 0xfc, 0xb1, 0xb1, 0xbe,
  0x9a, 0x0d, 0x30, 0x3e, 0x37, 0xd6, 0x10, 0xbd, 0x24, 0x75, 0xb2, 0xbe,
  0xa9, 0xde, 0x6d, 0x3e, 0x10, 0xb8, 0x1f, 0x3e, 0x38, 0x81, 0x92, 0x3d,
  0xd0, 0xc8, 0xa9, 0x3e, 0xf1, 0x20, 0xa5, 0x3e, 0x55, 0x68, 0x94, 0x3e,
  0x1c, 0x42, 0xaf, 0x3e, 0x13, 0x30, 0x56, 0xbe, 0x59, 0xab, 0x9a, 0x3e,
  0x48, 0x9a, 0x85, 0xbe, 0x17, 0x1c, 0x7b, 0xbe, 0xf0, 0xb0, 0xa6, 0xbc,
  0x0c, 0x6f, 0x0f, 0xbe, 0x0d, 0xbd, 0x55, 0xbe, 0xcd, 0x85, 0xb1, 0x3e,
  0x30, 0x98, 0xf7, 0x3c, 0x97, 0x66, 0x3e, 0x3e, 0x51, 0x3c, 0xba, 0xbe,
  0x0d, 0xe4, 0x38, 0x3d, 0x57, 0xef, 0x75, 0x3d, 0x0e, 0x73, 0x1f, 0xbb,
  0x9c, 0xd3, 0xb4, 0x3d, 0x50, 0x04, 0xb9, 0x3e, 0x6c, 0xdc, 0x9d, 0x3d,
  0x90, 0xcf, 0x8d, 0xbc, 0xa2, 0xd6, 0xc9, 0xbe, 0x5e, 0x05, 0x93, 0xbe,
  0x77, 0xb5, 0xc0, 0x3e, 0xed, 0x3a, 0xaf, 0xbe, 0x2c, 0xb1, 0xa1, 0x3d,
  0x2c, 0x25, 0x24, 0x3f, 0x70, 0xa6, 0x3c, 0xbd, 0xb4, 0x84, 0x3e, 0x3e,
  0x45, 0x5b, 0x08, 0xbf, 0x53, 0xaf, 0x07, 0x3e, 0x04, 0xd2, 0x9a, 0xbe,
  0xc8, 0x79, 0xd0, 0xbe, 0xa0, 0x57, 0x01, 0xbd, 0x02, 0x78, 0x04, 0xbf,
  0x20, 0xf4, 0xdc, 0xbd, 0xa8, 0x5c, 0x07, 0xbe, 0x34, 0x69, 0xa9, 0x3d,
  0x8d, 0xe3, 0xc0, 0x3e, 0x96, 0xcb, 0x63, 0x3e, 0xc9, 0xf4, 0x7b, 0xbe,
  0x4b, 0x78, 0x01, 0x3e, 0xff, 0xd3, 0x6b, 0xbf, 0xab, 0xe7, 0xb9, 0xbe,
  0x9d, 0xfa, 0x87, 0x3e, 0x63, 0xec, 0xd1, 0x3e, 0xd0, 0x45, 0xd4, 0x3c,
  0x2d, 0xb3, 0xb1, 0xbe, 0xb6, 0xe7, 0xce, 0xbe, 0xcf, 0xcf, 0x82, 0xbe,
  0x39, 0x8d, 0x53, 0xbe, 0xc0, 0x7b, 0xeb, 0xbd, 0xe9, 0xfb, 0xa4, 0x3e,
  0x9e, 0x2b, 0x16, 0x3e, 0xc1, 0x30, 0xb8, 0xbe, 0xa5, 0xd7, 0x87, 0x3e,
  0xe0, 0x53, 0x20, 0xbd, 0xab, 0x7e, 0xdc, 0xbe, 0xbc, 0x93, 0xcc, 0xbe,
  0x04, 0x68, 0xb2, 0xbe, 0xc4, 0xe6, 0xf6, 0x3d, 0x50, 0x87, 0x5e, 0xbe,
  0x40, 0xbb, 0xe7, 0xbc, 0x61, 0x45, 0x90, 0xbe, 0x9b, 0x3e, 0x55, 0xbe,
  0x68, 0x3b, 0x21, 0x3d, 0x77, 0xa0, 0xcc, 0xbe, 0xe5, 0xb1, 0xcb, 0x3e,
  0xd8, 0x55, 0x16, 0xbd, 0x89, 0xd8, 0xac, 0x3e, 0x79, 0x6b, 0xd5, 0xbe,
  0xc8, 0x85, 0xd6, 0xbe, 0x74, 0x2a, 0xc5, 0xbd, 0x99, 0x54, 0x88, 0x3e,
  0x45, 0xcd, 0x86, 0x3e, 0x42, 0xc0, 0x0c, 0x3e, 0xcb, 0x21, 0x8f, 0xbe,
  0x46, 0x1c, 0x63, 0x3d, 0x56, 0xde, 0x88, 0x3e, 0x70, 0x29, 0x49, 0x3e,
  0x0f, 0xf1, 0x19, 0x3e, 0x6d, 0x35, 0xa1, 0xbe, 0x87, 0x4f, 0x00, 0xbf,
  0xad, 0xa0, 0x81, 0x3e, 0x70, 0x8e, 0x66, 0xbd, 0x04, 0x5f, 0x9d, 0xbe,
  0x4b, 0x78, 0x91, 0x3e, 0xe4, 0x45, 0xf3, 0xbd, 0xb0, 0x3b, 0x41, 0x3d,
  0xdf, 0xb5, 0x9f, 0x3e, 0xfc, 0xbe, 0x0e, 0xbe, 0xf1, 0x3c, 0xc6, 0x3e,
  0x18, 0xa4, 0xca, 0x3e, 0x9c, 0x84, 0xd8, 0xbd, 0x1d, 0xdf, 0xd8, 0x3e,
  0x60, 0xba, 0x18, 0xbe, 0xaa, 0x29, 0x8b, 0x3e, 0x87, 0x23, 0xb4, 0xbe,
  0xd3, 0x6c, 0x10, 0xbf, 0xcc, 0x26, 0x9b, 0xbd, 0x1c, 0x0a, 0x8a, 0x3d,
  0xb2, 0x2a, 0x8a, 0xbe, 0x17, 0x3a, 0xba, 0x3e, 0x40, 0xb4, 0x05, 0xbd,
  0x7c, 0x28, 0x98, 0xbe, 0xde, 0x64, 0xb4, 0x3e, 0x73, 0x90, 0x98, 0x3d,
  0x00, 0x5a, 0x92, 0xbb, 0x0d, 0xc0, 0xd5, 0x3e, 0x53, 0x7c, 0x6d, 0x3d,
  0x1a, 0xc2, 0x0c, 0x3e, 0x16, 0x5f, 0x5c, 0xbe, 0x69, 0x87, 0xad, 0xbe,
  0xa2, 0x1f, 0x06, 0xbe, 0xf4, 0x90, 0x8c, 0x3d, 0xe8, 0x53, 0x28, 0x3d,
  0x1d, 0xbd, 0xc9, 0xbe, 0x18, 0x85, 0x23, 0xbe, 0x7c, 0x69, 0x93, 0xbd,
  0x15, 0x48, 0xa1, 0x3e, 0x40, 0xf8, 0xa3, 0xbc, 0xbc, 0xc4, 0x53, 0xbe,
  0xbe, 0xe6, 0x3d, 0xbe, 0x11, 0x34, 0x44, 0xbe, 0x1a, 0x93, 0x20, 0xbd,
  0x1d, 0x20, 0xf9, 0x3c, 0xbf, 0x4b, 0x82, 0xbe, 0x33, 0x2d, 0xb9, 0xbe,
  0xb5, 0x65, 0xab, 0xbc, 0xd5, 0xbe, 0xa2, 0x3e, 0xfe, 0xe6, 0x32, 0xbf,
  0x66, 0x94, 0x11, 0xbe, 0xe2, 0x31, 0x70, 0x3e, 0x82, 0x1b, 0x76, 0x3e,
  0xd0, 0x06, 0xbc, 0xbe, 0x94, 0x2b, 0x9c, 0x3d, 0x90, 0x5d, 0xbe, 0xbe,
  0x4a, 0x0d, 0xea, 0xbe, 0xba, 0xd7, 0x45, 0xbd, 0x88, 0x9a, 0x70, 0x3d,
  0x67, 0xa6, 0x03, 0x3f, 0xf3, 0xaf, 0x33, 0x3e, 0x54, 0x52, 0x67, 0xbe,
  0xdf, 0x29, 0x9a, 0x3e, 0x03, 0x05, 0x6d, 0xbe, 0xa6, 0x67, 0x86, 0xbe,
  0x78, 0x2e, 0xa3, 0xbd, 0x65, 0x75, 0xc1, 0xbe, 0x90, 0x3a, 0xc3, 0xbc,
  0x98, 0xda, 0x51, 0xbd, 0xe1, 0x51, 0x73, 0xbe, 0x00, 0x19, 0x8f, 0x3a,
  0x29, 0x3b, 0xcc, 0x3e, 0x39, 0xb4, 0x70, 0xbe, 0xc2, 0x46, 0x01, 0xbe,
  0x26, 0xc3, 0x31, 0x3e, 0x04, 0xd8, 0xb6, 0xbd, 0xf8, 0x00, 0xb7, 0xbe,
  0x00, 0x00, 0x06, 0x00, 0x08, 0x00, 0x04, 0x00, 0x06, 0x00, 0x00, 0x00,
  0x04, 0x00, 0x00, 0x00, 0x40, 0x00, 0x00, 0x00, 0x0e, 0xa3, 0xd7, 0x3e,
  0x0d, 0x3c, 0x94, 0xbe, 0x0b, 0x3d, 0x90, 0xbf, 0x35, 0xc8, 0x2d, 0xbf,
  0xb2, 0x60, 0x02, 0xbf, 0xba, 0xb7, 0xb7, 0x3e, 0x77, 0x2a, 0x8a, 0x3e,
  0x32, 0x16, 0x7e, 0x3f, 0x24, 0x10, 0xe4, 0x3f, 0xd9, 0x9d, 0x17, 0xbf,
  0x83, 0x3f, 0x7a, 0xbe, 0xd9, 0x10, 0xf1, 0xbe, 0xba, 0x5f, 0x01, 0xbf,
  0xb1, 0x85, 0xc4, 0x3d, 0x57, 0x27, 0x5f, 0xbf, 0xa0, 0x0c, 0x4d, 0xbd,
  0x30, 0xfb, 0xff, 0xff, 0x34, 0xfb, 0xff, 0xff, 0x0f, 0x00, 0x00, 0x00,
  0x4d, 0x4c, 0x49, 0x52, 0x20, 0x43, 0x6f, 0x6e, 0x76, 0x65, 0x72, 0x74,
  0x65, 0x64, 0x2e, 0x00, 0x01, 0x00, 0x00, 0x00, 0x14, 0x00, 0x00, 0x00,
  0x00, 0x00, 0x0e, 0x00, 0x18, 0x00, 0x14, 0x00, 0x10, 0x00, 0x0c, 0x00,
  0x08, 0x00, 0x04, 0x00, 0x0e, 0x00, 0x00, 0x00, 0x14, 0x00, 0x00, 0x00,
  0x1c, 0x00, 0x00, 0x00, 0xd8, 0x00, 0x00, 0x00, 0xdc, 0x00, 0x00, 0x00,
  0xe0, 0x00, 0x00, 0x00, 0x04, 0x00, 0x00, 0x00, 0x6d, 0x61, 0x69, 0x6e,
  0x00, 0x00, 0x00, 0x00, 0x03, 0x00, 0x00, 0x00, 0x80, 0x00, 0x00, 0x00,
  0x38, 0x00, 0x00, 0x00, 0x04, 0x00, 0x00, 0x00, 0x9a, 0xff, 0xff, 0xff,
  0x10, 0x00, 0x00, 0x00, 0x00, 0x00, 0x00, 0x08, 0x0c, 0x00, 0x00, 0x00,
  0x10, 0x00, 0x00, 0x00, 0xac, 0xfb, 0xff, 0xff, 0x01, 0x00, 0x00, 0x00,
  0x09, 0x00, 0x00, 0x00, 0x03, 0x00, 0x00, 0x00, 0x08, 0x00, 0x00, 0x00,
  0x01, 0x00, 0x00, 0x00, 0x03, 0x00, 0x00, 0x00, 0xca, 0xff, 0xff, 0xff,
  0x10, 0x00, 0x00, 0x00, 0x00, 0x00, 0x00, 0x08, 0x10, 0x00, 0x00, 0x00,
  0x14, 0x00, 0x00, 0x00, 0xba, 0xff, 0xff, 0xff, 0x00, 0x00, 0x00, 0x01,
  0x01, 0x00, 0x00, 0x00, 0x08, 0x00, 0x00, 0x00, 0x03, 0x00, 0x00, 0x00,
  0x07, 0x00, 0x00, 0x00, 0x02, 0x00, 0x00, 0x00, 0x04, 0x00, 0x00, 0x00,
  0x00, 0x00, 0x0e, 0x00, 0x16, 0x00, 0x00, 0x00, 0x10, 0x00, 0x0c, 0x00,
  0x0b, 0x00, 0x04, 0x00, 0x0e, 0x00, 0x00, 0x00, 0x18, 0x00, 0x00, 0x00,
  0x00, 0x00, 0x00, 0x08, 0x18, 0x00, 0x00, 0x00, 0x1c, 0x00, 0x00, 0x00,
  0x00, 0x00, 0x06, 0x00, 0x08, 0x00, 0x07, 0x00, 0x06, 0x00, 0x00, 0x00,
  0x00, 0x00, 0x00, 0x01, 0x01, 0x00, 0x00, 0x00, 0x07, 0x00, 0x00, 0x00,
  0x03, 0x00, 0x00, 0x00, 0x00, 0x00, 0x00, 0x00, 0x06, 0x00, 0x00, 0x00,
  0x05, 0x00, 0x00, 0x00, 0x01, 0x00, 0x00, 0x00, 0x09, 0x00, 0x00, 0x00,
  0x01, 0x00, 0x00, 0x00, 0x00, 0x00, 0x00, 0x00, 0x0a, 0x00, 0x00, 0x00,
  0x7c, 0x03, 0x00, 0x00, 0x24, 0x03, 0x00, 0x00, 0xcc, 0x02, 0x00, 0x00,
  0x90, 0x02, 0x00, 0x00, 0x34, 0x02, 0x00, 0x00, 0xdc, 0x01, 0x00, 0x00,
  0x90, 0x01, 0x00, 0x00, 0xfc, 0x00, 0x00, 0x00, 0x60, 0x00, 0x00, 0x00,
  0x04, 0x00, 0x00, 0x00, 0xc2, 0xfc, 0xff, 0xff, 0x00, 0x00, 0x00, 0x01,
  0x14, 0x00, 0x00, 0x00, 0x1c, 0x00, 0x00, 0x00, 0x1c, 0x00, 0x00, 0x00,
  0x0a, 0x00, 0x00, 0x00, 0x34, 0x00, 0x00, 0x00, 0x02, 0x00, 0x00, 0x00,
  0xff, 0xff, 0xff, 0xff, 0x01, 0x00, 0x00, 0x00, 0xac, 0xfc, 0xff, 0xff,
  0x1b, 0x00, 0x00, 0x00, 0x53, 0x74, 0x61, 0x74, 0x65, 0x66, 0x75, 0x6c,
  0x50, 0x61, 0x72, 0x74, 0x69, 0x74, 0x69, 0x6f, 0x6e, 0x65, 0x64, 0x43,
  0x61, 0x6c, 0x6c, 0x5f, 0x31, 0x3a, 0x30, 0x00, 0x02, 0x00, 0x00, 0x00,
  0x01, 0x00, 0x00, 0x00, 0x01, 0x00, 0x00, 0x00, 0x1a, 0xfd, 0xff, 0xff,
  0x00, 0x00, 0x00, 0x01, 0x14, 0x00, 0x00, 0x00, 0x1c, 0x00, 0x00, 0x00,
  0x1c, 0x00, 0x00, 0x00, 0x09, 0x00, 0x00, 0x00, 0x74, 0x00, 0x00, 0x00,
  0x02, 0x00, 0x00, 0x00, 0xff, 0xff, 0xff, 0xff, 0x10, 0x00, 0x00, 0x00,
  0x04, 0xfd, 0xff, 0xff, 0x58, 0x00, 0x00, 0x00, 0x73, 0x65, 0x71, 0x75,
  0x65, 0x6e, 0x74, 0x69, 0x61, 0x6c, 0x5f, 0x31, 0x2f, 0x64, 0x65, 0x6e,
  0x73, 0x65, 0x5f, 0x31, 0x5f, 0x32, 0x2f, 0x4d, 0x61, 0x74, 0x4d, 0x75,
  0x6c, 0x3b, 0x73, 0x65, 0x71, 0x75, 0x65, 0x6e, 0x74, 0x69, 0x61, 0x6c,
  0x5f, 0x31, 0x2f, 0x64, 0x65, 0x6e, 0x73, 0x65, 0x5f, 0x31, 0x5f, 0x32,
  0x2f, 0x52, 0x65, 0x6c, 0x75, 0x3b, 0x73, 0x65, 0x71, 0x75, 0x65, 0x6e,
  0x74, 0x69, 0x61, 0x6c, 0x5f, 0x31, 0x2f, 0x64, 0x65, 0x6e, 0x73, 0x65,
  0x5f, 0x31, 0x5f, 0x32, 0x2f, 0x42, 0x69, 0x61, 0x73, 0x41, 0x64, 0x64,
  0x00, 0x00, 0x00, 0x00, 0x02, 0x00, 0x00, 0x00, 0x01, 0x00, 0x00, 0x00,
  0x10, 0x00, 0x00, 0x00, 0xb2, 0xfd, 0xff, 0xff, 0x00, 0x00, 0x00, 0x01,
  0x14, 0x00, 0x00, 0x00, 0x1c, 0x00, 0x00, 0x00, 0x1c, 0x00, 0x00, 0x00,
  0x08, 0x00, 0x00, 0x00, 0x6c, 0x00, 0x00, 0x00, 0x02, 0x00, 0x00, 0x00,
  0xff, 0xff, 0xff, 0xff, 0x10, 0x00, 0x00, 0x00, 0x9c, 0xfd, 0xff, 0xff,
  0x52, 0x00, 0x00, 0x00, 0x73, 0x65, 0x71, 0x75, 0x65, 0x6e, 0x74, 0x69,
  0x61, 0x6c, 0x5f, 0x31, 0x2f, 0x64, 0x65, 0x6e, 0x73, 0x65, 0x5f, 0x31,
  0x2f, 0x4d, 0x61, 0x74, 0x4d, 0x75, 0x6c, 0x3b, 0x73, 0x65, 0x71, 0x75,
  0x65, 0x6e, 0x74, 0x69, 0x61, 0x6c, 0x5f, 0x31, 0x2f, 0x64, 0x65, 0x6e,
  0x73, 0x65, 0x5f, 0x31, 0x2f, 0x52, 0x65, 0x6c, 0x75, 0x3b, 0x73, 0x65,
  0x71, 0x75, 0x65, 0x6e, 0x74, 0x69, 0x61, 0x6c, 0x5f, 0x31, 0x2f, 0x64,
  0x65, 0x6e, 0x73, 0x65, 0x5f, 0x31, 0x2f, 0x42, 0x69, 0x61, 0x73, 0x41,
  0x64, 0x64, 0x00, 0x00, 0x02, 0x00, 0x00, 0x00, 0x01, 0x00, 0x00, 0x00,
  0x10, 0x00, 0x00, 0x00, 0x96, 0xfe, 0xff, 0xff, 0x00, 0x00, 0x00, 0x01,
  0x10, 0x00, 0x00, 0x00, 0x10, 0x00, 0x00, 0x00, 0x07, 0x00, 0x00, 0x00,
  0x28, 0x00, 0x00, 0x00, 0x1c, 0xfe, 0xff, 0xff, 0x1b, 0x00, 0x00, 0x00,
  0x73, 0x65, 0x71, 0x75, 0x65, 0x6e, 0x74, 0x69, 0x61, 0x6c, 0x5f, 0x31,
  0x2f, 0x64, 0x65, 0x6e, 0x73, 0x65, 0x5f, 0x31, 0x2f, 0x4d, 0x61, 0x74,
  0x4d, 0x75, 0x6c, 0x00, 0x02, 0x00, 0x00, 0x00, 0x10, 0x00, 0x00, 0x00,
  0x01, 0x00, 0x00, 0x00, 0xde, 0xfe, 0xff, 0xff, 0x00, 0x00, 0x00, 0x01,
  0x10, 0x00, 0x00, 0x00, 0x10, 0x00, 0x00, 0x00, 0x06, 0x00, 0x00, 0x00,
  0x38, 0x00, 0x00, 0x00, 0x64, 0xfe, 0xff, 0xff, 0x2b, 0x00, 0x00, 0x00,
  0x73, 0x65, 0x71, 0x75, 0x65, 0x6e, 0x74, 0x69, 0x61, 0x6c, 0x5f, 0x31,
  0x2f, 0x64, 0x65, 0x6e, 0x73, 0x65, 0x5f, 0x31, 0x2f, 0x42, 0x69, 0x61,
  0x73, 0x41, 0x64, 0x64, 0x2f, 0x52, 0x65, 0x61, 0x64, 0x56, 0x61, 0x72,
  0x69, 0x61, 0x62, 0x6c, 0x65, 0x4f, 0x70, 0x00, 0x01, 0x00, 0x00, 0x00,
  0x10, 0x00, 0x00, 0x00, 0x32, 0xff, 0xff, 0xff, 0x00, 0x00, 0x00, 0x01,
  0x10, 0x00, 0x00, 0x00, 0x10, 0x00, 0x00, 0x00, 0x05, 0x00, 0x00, 0x00,
  0x3c, 0x00, 0x00, 0x00, 0xb8, 0xfe, 0xff, 0xff, 0x2d, 0x00, 0x00, 0x00,
  0x73, 0x65, 0x71, 0x75, 0x65, 0x6e, 0x74, 0x69, 0x61, 0x6c, 0x5f, 0x31,
  0x2f, 0x64, 0x65, 0x6e, 0x73, 0x65, 0x5f, 0x31, 0x5f, 0x32, 0x2f, 0x42,
  0x69, 0x61, 0x73, 0x41, 0x64, 0x64, 0x2f, 0x52, 0x65, 0x61, 0x64, 0x56,
  0x61, 0x72, 0x69, 0x61, 0x62, 0x6c, 0x65, 0x4f, 0x70, 0x00, 0x00, 0x00,
  0x01, 0x00, 0x00, 0x00, 0x10, 0x00, 0x00, 0x00, 0x8a, 0xff, 0xff, 0xff,
  0x00, 0x00, 0x00, 0x01, 0x10, 0x00, 0x00, 0x00, 0x10, 0x00, 0x00, 0x00,
  0x04, 0x00, 0x00, 0x00, 0x1c, 0x00, 0x00, 0x00, 0x10, 0xff, 0xff, 0xff,
  0x0f, 0x00, 0x00, 0x00, 0x61, 0x72, 0x69, 0x74, 0x68, 0x2e, 0x63, 0x6f,
  0x6e, 0x73, 0x74, 0x61, 0x6e, 0x74, 0x32, 0x00, 0x01, 0x00, 0x00, 0x00,
  0x01, 0x00, 0x00, 0x00, 0xc2, 0xff, 0xff, 0xff, 0x00, 0x00, 0x00, 0x01,
  0x10, 0x00, 0x00, 0x00, 0x10, 0x00, 0x00, 0x00, 0x03, 0x00, 0x00, 0x00,
  0x1c, 0x00, 0x00, 0x00, 0x48, 0xff, 0xff, 0xff, 0x0f, 0x00, 0x00, 0x00,
  0x61, 0x72, 0x69, 0x74, 0x68, 0x2e, 0x63, 0x6f, 0x6e, 0x73, 0x74, 0x61,
  0x6e, 0x74, 0x31, 0x00, 0x02, 0x00, 0x00, 0x00, 0x10, 0x00, 0x00, 0x00,
  0x10, 0x00, 0x00, 0x00, 0x00, 0x00, 0x16, 0x00, 0x18, 0x00, 0x14, 0x00,
  0x00, 0x00, 0x10, 0x00, 0x0c, 0x00, 0x08, 0x00, 0x00, 0x00, 0x00, 0x00,
  0x00, 0x00, 0x07, 0x00, 0x16, 0x00, 0x00, 0x00, 0x00, 0x00, 0x00, 0x01,
  0x10, 0x00, 0x00, 0x00, 0x10, 0x00, 0x00, 0x00, 0x02, 0x00, 0x00, 0x00,
  0x1c, 0x00, 0x00, 0x00, 0x9c, 0xff, 0xff, 0xff, 0x0e, 0x00, 0x00, 0x00,
  0x61, 0x72, 0x69, 0x74, 0x68, 0x2e, 0x63, 0x6f, 0x6e, 0x73, 0x74, 0x61,
  0x6e, 0x74, 0x00, 0x00, 0x02, 0x00, 0x00, 0x00, 0x01, 0x00, 0x00, 0x00,
  0x10, 0x00, 0x00, 0x00, 0x00, 0x00, 0x16, 0x00, 0x1c, 0x00, 0x18, 0x00,
  0x00, 0x00, 0x14, 0x00, 0x10, 0x00, 0x0c, 0x00, 0x00, 0x00, 0x00, 0x00,
  0x08, 0x00, 0x07, 0x00, 0x16, 0x00, 0x00, 0x00, 0x00, 0x00, 0x00, 0x01,
  0x14, 0x00, 0x00, 0x00, 0x20, 0x00, 0x00, 0x00, 0x20, 0x00, 0x00, 0x00,
  0x01, 0x00, 0x00, 0x00, 0x3c, 0x00, 0x00, 0x00, 0x02, 0x00, 0x00, 0x00,
  0xff, 0xff, 0xff, 0xff, 0x01, 0x00, 0x00, 0x00, 0x04, 0x00, 0x04, 0x00,
  0x04, 0x00, 0x00, 0x00, 0x1e, 0x00, 0x00, 0x00, 0x73, 0x65, 0x72, 0x76,
  0x69, 0x6e, 0x67, 0x5f, 0x64, 0x65, 0x66, 0x61, 0x75, 0x6c, 0x74, 0x5f,
  0x6b, 0x65, 0x72, 0x61, 0x73, 0x5f, 0x74, 0x65, 0x6e, 0x73, 0x6f, 0x72,
  0x3a, 0x30, 0x00, 0x00, 0x02, 0x00, 0x00, 0x00, 0x01, 0x00, 0x00, 0x00,
  0x01, 0x00, 0x00, 0x00, 0x01, 0x00, 0x00, 0x00, 0x10, 0x00, 0x00, 0x00,
  0x0c, 0x00, 0x0c, 0x00, 0x0b, 0x00, 0x00, 0x00, 0x00, 0x00, 0x04, 0x00,
  0x0c, 0x00, 0x00, 0x00, 0x09, 0x00, 0x00, 0x00, 0x00, 0x00, 0x00, 0x09
 
};

#endif // SINE_MODEL_H