#ifndef SIGNSPEAK_MLP_1FINGER_MODEL_H
#define SIGNSPEAK_MLP_1FINGER_MODEL_H

unsigned int SIGNSPEAK_MLP_1finger_model_len = 8056;
unsigned char SIGNSPEAK_MLP_1finger_model[] = {
 0x20, 0x00, 0x00, 0x00, 0x54, 0x46, 0x4c, 0x33, 0x00, 0x00, 0x00, 0x00,
  0x14, 0x00, 0x20, 0x00, 0x1c, 0x00, 0x18, 0x00, 0x14, 0x00, 0x10, 0x00,
  0x0c, 0x00, 0x00, 0x00, 0x08, 0x00, 0x04, 0x00, 0x14, 0x00, 0x00, 0x00,
  0x1c, 0x00, 0x00, 0x00, 0x98, 0x00, 0x00, 0x00, 0xf0, 0x00, 0x00, 0x00,
  0xa0, 0x14, 0x00, 0x00, 0xb0, 0x14, 0x00, 0x00, 0x00, 0x1f, 0x00, 0x00,
  0x03, 0x00, 0x00, 0x00, 0x01, 0x00, 0x00, 0x00, 0x10, 0x00, 0x00, 0x00,
  0x00, 0x00, 0x0a, 0x00, 0x10, 0x00, 0x0c, 0x00, 0x08, 0x00, 0x04, 0x00,
  0x0a, 0x00, 0x00, 0x00, 0x0c, 0x00, 0x00, 0x00, 0x1c, 0x00, 0x00, 0x00,
  0x3c, 0x00, 0x00, 0x00, 0x0f, 0x00, 0x00, 0x00, 0x73, 0x65, 0x72, 0x76,
  0x69, 0x6e, 0x67, 0x5f, 0x64, 0x65, 0x66, 0x61, 0x75, 0x6c, 0x74, 0x00,
  0x01, 0x00, 0x00, 0x00, 0x04, 0x00, 0x00, 0x00, 0x90, 0xff, 0xff, 0xff,
  0x0a, 0x00, 0x00, 0x00, 0x04, 0x00, 0x00, 0x00, 0x08, 0x00, 0x00, 0x00,
  0x6f, 0x75, 0x74, 0x70, 0x75, 0x74, 0x5f, 0x30, 0x00, 0x00, 0x00, 0x00,
  0x01, 0x00, 0x00, 0x00, 0x04, 0x00, 0x00, 0x00, 0x46, 0xeb, 0xff, 0xff,
  0x04, 0x00, 0x00, 0x00, 0x0c, 0x00, 0x00, 0x00, 0x6b, 0x65, 0x72, 0x61,
  0x73, 0x5f, 0x74, 0x65, 0x6e, 0x73, 0x6f, 0x72, 0x00, 0x00, 0x00, 0x00,
  0x02, 0x00, 0x00, 0x00, 0x34, 0x00, 0x00, 0x00, 0x04, 0x00, 0x00, 0x00,
  0xdc, 0xff, 0xff, 0xff, 0x0d, 0x00, 0x00, 0x00, 0x04, 0x00, 0x00, 0x00,
  0x13, 0x00, 0x00, 0x00, 0x43, 0x4f, 0x4e, 0x56, 0x45, 0x52, 0x53, 0x49,
  0x4f, 0x4e, 0x5f, 0x4d, 0x45, 0x54, 0x41, 0x44, 0x41, 0x54, 0x41, 0x00,
  0x08, 0x00, 0x0c, 0x00, 0x08, 0x00, 0x04, 0x00, 0x08, 0x00, 0x00, 0x00,
  0x0c, 0x00, 0x00, 0x00, 0x04, 0x00, 0x00, 0x00, 0x13, 0x00, 0x00, 0x00,
  0x6d, 0x69, 0x6e, 0x5f, 0x72, 0x75, 0x6e, 0x74, 0x69, 0x6d, 0x65, 0x5f,
  0x76, 0x65, 0x72, 0x73, 0x69, 0x6f, 0x6e, 0x00, 0x0e, 0x00, 0x00, 0x00,
  0xac, 0x13, 0x00, 0x00, 0xa4, 0x13, 0x00, 0x00, 0x94, 0x12, 0x00, 0x00,
  0x04, 0x12, 0x00, 0x00, 0xe4, 0x11, 0x00, 0x00, 0xd4, 0x0f, 0x00, 0x00,
  0xc4, 0x07, 0x00, 0x00, 0xb4, 0x00, 0x00, 0x00, 0xac, 0x00, 0x00, 0x00,
  0xa4, 0x00, 0x00, 0x00, 0x9c, 0x00, 0x00, 0x00, 0x94, 0x00, 0x00, 0x00,
  0x74, 0x00, 0x00, 0x00, 0x04, 0x00, 0x00, 0x00, 0xfa, 0xeb, 0xff, 0xff,
  0x04, 0x00, 0x00, 0x00, 0x60, 0x00, 0x00, 0x00, 0x0c, 0x00, 0x00, 0x00,
  0x08, 0x00, 0x0e, 0x00, 0x08, 0x00, 0x04, 0x00, 0x08, 0x00, 0x00, 0x00,
  0x10, 0x00, 0x00, 0x00, 0x28, 0x00, 0x00, 0x00, 0x00, 0x00, 0x06, 0x00,
  0x08, 0x00, 0x04, 0x00, 0x06, 0x00, 0x00, 0x00, 0x04, 0x00, 0x00, 0x00,
  0x01, 0x00, 0x00, 0x00, 0xea, 0x03, 0x00, 0x00, 0x0c, 0x00, 0x18, 0x00,
  0x14, 0x00, 0x10, 0x00, 0x0c, 0x00, 0x04, 0x00, 0x0c, 0x00, 0x00, 0x00,
  0x57, 0x4e, 0x60, 0xb1, 0xad, 0x63, 0xef, 0x07, 0x02, 0x00, 0x00, 0x00,
  0x02, 0x00, 0x00, 0x00, 0x04, 0x00, 0x00, 0x00, 0x06, 0x00, 0x00, 0x00,
  0x32, 0x2e, 0x31, 0x38, 0x2e, 0x30, 0x00, 0x00, 0x66, 0xec, 0xff, 0xff,
  0x04, 0x00, 0x00, 0x00, 0x10, 0x00, 0x00, 0x00, 0x32, 0x2e, 0x31, 0x37,
  0x2e, 0x30, 0x00, 0x00, 0x00, 0x00, 0x00, 0x00, 0x00, 0x00, 0x00, 0x00,
  0xe0, 0xe2, 0xff, 0xff, 0xe4, 0xe2, 0xff, 0xff, 0xe8, 0xe2, 0xff, 0xff,
  0xec, 0xe2, 0xff, 0xff, 0x92, 0xec, 0xff, 0xff, 0x04, 0x00, 0x00, 0x00,
  0x00, 0x07, 0x00, 0x00, 0x39, 0x69, 0x67, 0xea, 0xa3, 0xe1, 0xf9, 0x93,
  0xdd, 0xc4, 0xf5, 0x69, 0x05, 0xef, 0xc9, 0x34, 0xe3, 0x28, 0x10, 0xec,
  0x50, 0xee, 0x01, 0xbb, 0x81, 0x0e, 0x15, 0x06, 0xb0, 0x54, 0x57, 0x2d,
  0xba, 0xef, 0x91, 0x57, 0x77, 0x03, 0xcc, 0x3e, 0x14, 0x05, 0xaa, 0xe1,
  0xbe, 0x90, 0xc5, 0x81, 0x02, 0x93, 0x3e, 0xb2, 0x65, 0x46, 0x1e, 0xc4,
  0xc2, 0xee, 0x4b, 0x4c, 0x5b, 0x29, 0x1c, 0xa8, 0xad, 0x55, 0x48, 0x89,
  0x10, 0xe0, 0x0b, 0x8e, 0x06, 0x81, 0x67, 0x1f, 0x73, 0xcb, 0x37, 0xe5,
  0x2a, 0xec, 0xd4, 0x60, 0x4e, 0xe6, 0xd3, 0x14, 0xa5, 0xf1, 0x30, 0x01,
  0x40, 0x3c, 0x4e, 0xd3, 0xfe, 0x81, 0xc2, 0x8e, 0x6f, 0xac, 0xc5, 0x5c,
  0xf1, 0x79, 0x15, 0x51, 0x49, 0x1b, 0x02, 0x34, 0xf4, 0x34, 0x21, 0x00,
  0x14, 0xf6, 0xf9, 0xbb, 0xc5, 0x4a, 0xf1, 0x21, 0x04, 0xaf, 0xaa, 0x1d,
  0x97, 0x3b, 0x2f, 0xb7, 0x81, 0xed, 0xb4, 0xf3, 0xae, 0xec, 0xc4, 0x02,
  0x7f, 0x20, 0xef, 0xe6, 0xb0, 0xcc, 0x0a, 0x35, 0xec, 0x51, 0xea, 0xf0,
  0xc5, 0xf1, 0x6b, 0xc0, 0xd9, 0x32, 0x5b, 0xc3, 0xa2, 0xe9, 0x82, 0xa8,
  0xc4, 0xbf, 0x28, 0x1e, 0x9e, 0xc9, 0xc9, 0xd0, 0x53, 0xf4, 0xe2, 0x22,
  0x96, 0xbd, 0x8a, 0x20, 0x5e, 0xa4, 0xd0, 0x50, 0xdc, 0x78, 0xfb, 0xbd,
  0xfc, 0x6b, 0x58, 0x32, 0xda, 0x7f, 0xa3, 0x4b, 0x2b, 0xb2, 0xc9, 0x4b,
  0xbd, 0x28, 0x20, 0x31, 0xf4, 0x1c, 0x16, 0x0e, 0x3d, 0xe3, 0x23, 0x12,
  0x7d, 0xdc, 0x7f, 0x47, 0x53, 0xe2, 0x44, 0x14, 0x2b, 0x0a, 0x3b, 0xfa,
  0x2f, 0xcd, 0x05, 0xad, 0xa9, 0xd1, 0x33, 0x13, 0x36, 0xf0, 0xe7, 0xa4,
  0xf0, 0xd1, 0xbf, 0x12, 0xe6, 0xeb, 0xed, 0xf1, 0xe0, 0x40, 0x7f, 0xba,
  0x35, 0xdd, 0x3a, 0x2a, 0x34, 0xac, 0x2a, 0x10, 0xae, 0x96, 0x70, 0x2e,
  0x1a, 0x9c, 0x6d, 0xdd, 0x23, 0x7f, 0x56, 0x3b, 0xa8, 0x2c, 0xe8, 0x3e,
  0x21, 0xa5, 0x77, 0x65, 0xf3, 0xbe, 0x78, 0xd2, 0x86, 0x5e, 0x5b, 0x93,
  0xf9, 0xf0, 0xbc, 0x01, 0xe3, 0x97, 0xac, 0xf7, 0x1d, 0x7f, 0x0e, 0x44,
  0x28, 0xee, 0xb4, 0xcd, 0x36, 0x02, 0x9d, 0x01, 0xab, 0xb6, 0x39, 0xa3,
  0x0e, 0x1a, 0xa1, 0x44, 0x29, 0xff, 0x24, 0xaf, 0xd1, 0x16, 0x22, 0x3e,
  0x33, 0x57, 0x3b, 0xc3, 0x7f, 0xb3, 0xda, 0x41, 0xf8, 0x26, 0x96, 0xb7,
  0xad, 0x24, 0x06, 0x2d, 0x8d, 0x33, 0x84, 0x81, 0xf9, 0x3a, 0xc7, 0xf5,
  0xbe, 0xe2, 0x70, 0xb3, 0xba, 0x45, 0xdd, 0xb7, 0x05, 0xb3, 0xe1, 0xa2,
  0xff, 0xfc, 0x2e, 0x50, 0x0e, 0x08, 0x55, 0x9f, 0x9a, 0x49, 0x30, 0xd3,
  0x62, 0x63, 0x32, 0x0e, 0x2b, 0xaa, 0xcf, 0x57, 0x2d, 0x81, 0xce, 0x45,
  0xd8, 0xb7, 0xf5, 0xc2, 0xa2, 0xde, 0x08, 0x06, 0x9e, 0xe8, 0x5e, 0xcf,
  0xb8, 0xba, 0x0c, 0xfd, 0x4e, 0x11, 0x81, 0xe2, 0x34, 0xc8, 0x29, 0xde,
  0x59, 0xea, 0xb5, 0x1a, 0x18, 0x35, 0x7b, 0x4e, 0x0a, 0xb8, 0x01, 0xe9,
  0xbc, 0x2f, 0x0d, 0xb9, 0xd8, 0xd8, 0xd1, 0x81, 0x7b, 0x47, 0xf4, 0xc6,
  0xfa, 0x00, 0x03, 0x40, 0x59, 0x17, 0x02, 0x5f, 0x2a, 0x5c, 0xc1, 0xcb,
  0x2a, 0xa5, 0xb8, 0x37, 0x4a, 0xb6, 0x95, 0xab, 0x32, 0x46, 0xab, 0xe0,
  0x20, 0x2e, 0x5c, 0x57, 0xff, 0xe8, 0x56, 0x03, 0xf6, 0xb5, 0xfc, 0xf0,
  0xa1, 0xf6, 0x4a, 0xbf, 0x05, 0xa4, 0x81, 0xb9, 0xa3, 0x3c, 0xf5, 0x51,
  0x27, 0x62, 0x5a, 0xcb, 0xba, 0xff, 0x4a, 0xa2, 0xee, 0xc6, 0xce, 0x4c,
  0xaa, 0xab, 0x8c, 0x23, 0x90, 0x39, 0x31, 0xf6, 0x5c, 0x42, 0xbd, 0x7f,
  0x3d, 0x28, 0x6a, 0x9b, 0x81, 0xc1, 0xbe, 0x04, 0xc3, 0x14, 0x00, 0x41,
  0xa9, 0xe9, 0xce, 0x28, 0x22, 0x4e, 0x1a, 0x9a, 0xcb, 0x9d, 0xca, 0x3f,
  0xc6, 0xf7, 0x5b, 0x3d, 0x15, 0xb0, 0x03, 0x0b, 0x36, 0x70, 0x22, 0xca,
  0x2b, 0x32, 0x83, 0x43, 0x1c, 0x5a, 0x59, 0x60, 0x27, 0xf9, 0x04, 0x92,
  0x81, 0xcd, 0x4c, 0xa2, 0x70, 0xbc, 0x15, 0xac, 0x08, 0x9e, 0x30, 0x8d,
  0x17, 0x46, 0x3e, 0x0a, 0xe8, 0x1f, 0x52, 0xd3, 0x28, 0xc7, 0x23, 0x05,
  0xc7, 0xcc, 0x31, 0x3e, 0xe5, 0xef, 0x81, 0x9a, 0xae, 0xa6, 0xdf, 0xf6,
  0xa2, 0x54, 0xb3, 0x3b, 0xb1, 0x30, 0x21, 0x3c, 0x2f, 0x06, 0xf7, 0x2f,
  0x12, 0x63, 0xb7, 0xff, 0xb0, 0x58, 0x17, 0xd8, 0xc8, 0xfa, 0xbf, 0xac,
  0x81, 0xd1, 0x3e, 0xed, 0x0d, 0xdf, 0xc3, 0x13, 0x6a, 0x5e, 0x14, 0xff,
  0x63, 0xfe, 0x47, 0x90, 0x20, 0x09, 0x96, 0x62, 0x1e, 0x56, 0xc2, 0xb6,
  0x3a, 0xdf, 0x59, 0x39, 0x4c, 0x33, 0x81, 0xbe, 0xa8, 0xe9, 0x81, 0xe0,
  0x0c, 0xdd, 0x3f, 0xeb, 0x58, 0x01, 0xf1, 0x9f, 0xdc, 0x9d, 0x2a, 0xa1,
  0xd1, 0xdb, 0x38, 0xee, 0x76, 0xc1, 0xbe, 0xa3, 0x25, 0xd1, 0x15, 0xa5,
  0x7f, 0x19, 0x4f, 0x16, 0xf1, 0x48, 0xfd, 0x0d, 0x01, 0xc3, 0x41, 0xc4,
  0xe0, 0xc0, 0x2e, 0x65, 0x9c, 0xb7, 0xc7, 0x09, 0xcf, 0xd5, 0x50, 0x78,
  0xc8, 0xb2, 0xfd, 0x81, 0x17, 0xeb, 0x01, 0xb6, 0x35, 0xb9, 0x9a, 0x0c,
  0x93, 0xf8, 0x64, 0xd7, 0xef, 0x1e, 0x19, 0x98, 0x57, 0x03, 0x81, 0xa2,
  0x65, 0x0b, 0x06, 0xf1, 0x19, 0xae, 0xf5, 0x19, 0x30, 0x42, 0xfb, 0xe1,
  0xcc, 0xc4, 0x37, 0x7f, 0xe2, 0xa4, 0x2a, 0xfa, 0x18, 0xc4, 0x0e, 0x0f,
  0x6c, 0xe9, 0x10, 0xa9, 0xf8, 0x8f, 0xb8, 0xa1, 0x47, 0x02, 0x55, 0xd8,
  0x36, 0x16, 0x2b, 0x23, 0x81, 0x9d, 0xb8, 0x00, 0x3c, 0xa2, 0x4a, 0x49,
  0x02, 0x39, 0x55, 0x5b, 0x2f, 0x21, 0xe6, 0x30, 0xe6, 0xb7, 0x1a, 0x1a,
  0xcb, 0xc6, 0x08, 0xa1, 0xb5, 0xf2, 0xe4, 0x04, 0xa9, 0x8a, 0x37, 0x78,
  0xed, 0xf8, 0xd4, 0xff, 0x88, 0x2d, 0xaf, 0x8d, 0xcd, 0x81, 0xba, 0x23,
  0xc4, 0x6d, 0x4d, 0xe0, 0xb9, 0x16, 0xca, 0x29, 0xd4, 0x68, 0xad, 0xe0,
  0x50, 0x9e, 0xf3, 0x3c, 0xef, 0x39, 0xcf, 0x70, 0x81, 0x76, 0xc9, 0x24,
  0xf8, 0xfa, 0x59, 0x69, 0x88, 0x54, 0x29, 0x16, 0xe4, 0xbc, 0xfc, 0x1d,
  0x49, 0x2c, 0x3a, 0xc5, 0xf2, 0xba, 0x64, 0x19, 0x17, 0x09, 0x5f, 0x2c,
  0xa1, 0x7a, 0xe1, 0xf1, 0x81, 0x4a, 0x1d, 0x1b, 0x67, 0x4c, 0xdd, 0x36,
  0xfa, 0xc5, 0x82, 0xcc, 0xd5, 0xa3, 0x3a, 0x71, 0xf7, 0xbf, 0x0d, 0xda,
  0xf8, 0x11, 0xb2, 0xd3, 0xf8, 0x3a, 0x6e, 0x1f, 0xd0, 0x81, 0xb6, 0x30,
  0xb2, 0x07, 0xeb, 0x2a, 0x4b, 0x6e, 0x5b, 0x31, 0x16, 0x58, 0x01, 0x56,
  0x4b, 0xe5, 0xc8, 0x64, 0x8c, 0x52, 0x03, 0xaa, 0x36, 0xfd, 0x29, 0x02,
  0xc8, 0xde, 0xe4, 0xbc, 0xc2, 0x14, 0xc4, 0xc4, 0x1d, 0x3d, 0x81, 0xf4,
  0x76, 0xac, 0xc9, 0xeb, 0x00, 0x65, 0xda, 0x20, 0x79, 0xc8, 0xa1, 0xf4,
  0x89, 0xbf, 0x3d, 0xdb, 0x81, 0x2f, 0x68, 0xc2, 0x1d, 0xff, 0x77, 0x56,
  0xb4, 0x8f, 0x43, 0xb9, 0x47, 0xc2, 0xfb, 0x1c, 0x94, 0xab, 0x49, 0xb9,
  0x0f, 0xc2, 0x07, 0x44, 0x82, 0x9f, 0x81, 0x83, 0x57, 0x30, 0x03, 0x60,
  0xac, 0xeb, 0xb5, 0x31, 0x61, 0x7a, 0x44, 0xa7, 0xd2, 0x58, 0x45, 0x06,
  0x72, 0xf6, 0x7f, 0xee, 0xc7, 0xdf, 0x0f, 0xbf, 0xc6, 0x5e, 0x60, 0x13,
  0x02, 0x58, 0xf5, 0x1b, 0x00, 0x25, 0xbd, 0x2c, 0x70, 0xe6, 0xdb, 0xfa,
  0x02, 0x11, 0xb8, 0x36, 0x61, 0x6f, 0x01, 0xcf, 0x86, 0x15, 0x8c, 0xa9,
  0xd6, 0x5d, 0x65, 0x74, 0x12, 0xfd, 0x0e, 0x17, 0x70, 0xf3, 0x81, 0xcf,
  0x5e, 0xf9, 0xf6, 0x2b, 0xc0, 0x37, 0xec, 0x58, 0xfc, 0xca, 0x39, 0x39,
  0x0f, 0xa1, 0x81, 0xb1, 0x6d, 0x35, 0x6f, 0xc1, 0xee, 0xfe, 0xd9, 0x04,
  0x53, 0x79, 0x20, 0x36, 0x83, 0x87, 0x62, 0xf6, 0xf5, 0x0c, 0xc7, 0xc4,
  0x71, 0x7a, 0xb7, 0x7f, 0x82, 0xa3, 0xfd, 0x93, 0x39, 0x16, 0x56, 0x13,
  0x28, 0x62, 0x99, 0x8b, 0x4e, 0x6e, 0xb3, 0x6e, 0x94, 0xec, 0x33, 0x0c,
  0xa0, 0x79, 0xae, 0x0b, 0xf4, 0xe4, 0xf1, 0x25, 0x25, 0xc4, 0x24, 0x49,
  0xb0, 0xbe, 0xde, 0x5b, 0x15, 0x5e, 0x24, 0x0d, 0x22, 0xd0, 0x61, 0xee,
  0x81, 0xaa, 0xe1, 0x14, 0xf3, 0xf4, 0xc7, 0xc7, 0x81, 0xc4, 0x4c, 0xe4,
  0xea, 0x3b, 0x26, 0xbf, 0xab, 0x3f, 0xb4, 0xef, 0x0f, 0xac, 0x50, 0x0f,
  0xb2, 0xc6, 0xfc, 0x53, 0xd8, 0xa6, 0xe2, 0x17, 0xaf, 0xff, 0xf0, 0xc9,
  0xc2, 0x3d, 0xb3, 0xab, 0x19, 0x3e, 0xb2, 0x10, 0x1a, 0x7c, 0xf6, 0xad,
  0xd2, 0xc5, 0xa9, 0xfb, 0xd2, 0x17, 0x81, 0xa1, 0x85, 0x8e, 0x1f, 0xaf,
  0x42, 0x67, 0x6f, 0xde, 0xb1, 0x07, 0x21, 0xd6, 0xd7, 0x6b, 0xc6, 0x1d,
  0x66, 0xd3, 0x3b, 0xdc, 0xe8, 0xe0, 0xf2, 0x7f, 0xc3, 0xf7, 0xd3, 0xd9,
  0x6d, 0xb7, 0x1a, 0x6f, 0x84, 0xb7, 0xbd, 0xf1, 0x7a, 0xf7, 0x0e, 0x13,
  0x3f, 0x29, 0xfe, 0x50, 0xf2, 0x3a, 0x18, 0xdf, 0x7f, 0x0b, 0x15, 0x7a,
  0x1f, 0x22, 0xa6, 0x24, 0xc9, 0xf5, 0xc5, 0x63, 0x5a, 0xe3, 0xb9, 0xc2,
  0x65, 0x96, 0x0e, 0x29, 0x53, 0x48, 0x2c, 0x33, 0xf7, 0x1d, 0x0d, 0x49,
  0xe9, 0x2c, 0x6e, 0x8c, 0x5b, 0x5b, 0x2c, 0x8d, 0x7f, 0x62, 0x1e, 0x0c,
  0x15, 0xd4, 0xe1, 0x44, 0xaa, 0xe3, 0x43, 0x45, 0x6e, 0x0e, 0x02, 0x20,
  0x39, 0xd5, 0x0b, 0x81, 0x41, 0x6f, 0x54, 0xc1, 0x42, 0xef, 0x45, 0xc4,
  0xe2, 0x4c, 0x05, 0x51, 0x70, 0xfa, 0x3a, 0x63, 0xff, 0x1d, 0x6a, 0x9a,
  0x7a, 0x8c, 0x57, 0x90, 0x7f, 0x64, 0xe5, 0xee, 0xae, 0xbc, 0x6b, 0x0c,
  0x3e, 0x6d, 0xf8, 0xc9, 0x70, 0x63, 0x6c, 0x27, 0x06, 0x75, 0x24, 0xa6,
  0x9d, 0xa5, 0x81, 0xd7, 0x0d, 0xf8, 0xec, 0x3c, 0xe7, 0x89, 0xf1, 0xf3,
  0x36, 0xf2, 0xf9, 0x69, 0xbb, 0x19, 0x6b, 0x00, 0xb3, 0xbc, 0xef, 0x53,
  0x48, 0x1c, 0x7b, 0xaa, 0x5e, 0xa8, 0xb7, 0x42, 0xd4, 0x1c, 0xf2, 0x56,
  0xbe, 0xef, 0x6d, 0x43, 0x63, 0xec, 0xa8, 0xfe, 0xc5, 0x3f, 0xd2, 0xac,
  0x7b, 0x6a, 0xd1, 0x60, 0x9b, 0x8a, 0x7f, 0x30, 0xaf, 0x4a, 0xc3, 0x20,
  0xb9, 0x06, 0xf5, 0x88, 0xd0, 0x4c, 0x51, 0x66, 0x10, 0x44, 0xed, 0x49,
  0x41, 0xe5, 0x90, 0xc7, 0x9a, 0x81, 0x33, 0x4f, 0xb9, 0x0d, 0x10, 0x0a,
  0xc9, 0x81, 0xd3, 0xe7, 0xd2, 0xe3, 0x29, 0xff, 0xae, 0xda, 0x2b, 0xc5,
  0xf4, 0x0d, 0x06, 0x8e, 0x1a, 0xca, 0xc5, 0xe1, 0xed, 0x48, 0x14, 0xdc,
  0x71, 0xcd, 0xc4, 0x0c, 0xbb, 0xf7, 0xe9, 0x42, 0x31, 0x1c, 0xd3, 0x43,
  0x10, 0x39, 0x7f, 0x47, 0x0a, 0x46, 0x47, 0xb7, 0x94, 0x16, 0x53, 0x06,
  0x44, 0xad, 0xa2, 0x83, 0x3b, 0x25, 0xdd, 0x64, 0x0c, 0xc1, 0x46, 0xf9,
  0x2c, 0x48, 0xd8, 0xe5, 0x16, 0xc5, 0x60, 0x4c, 0x1b, 0x27, 0x01, 0x41,
  0xdb, 0x2f, 0xf4, 0xf1, 0x81, 0x30, 0x5a, 0x47, 0xeb, 0x0f, 0x03, 0x36,
  0x1b, 0xb4, 0xec, 0xe2, 0x1e, 0xf0, 0x44, 0xa4, 0xdb, 0xbf, 0x4d, 0xc3,
  0x42, 0xbe, 0xd7, 0x16, 0xcd, 0x4c, 0xab, 0x1e, 0x46, 0xdc, 0xda, 0x7f,
  0xd0, 0xe8, 0x9e, 0x05, 0xca, 0xf4, 0x1c, 0x09, 0x2b, 0x18, 0x07, 0xce,
  0xd7, 0x5c, 0xc1, 0x35, 0x3c, 0x3d, 0x36, 0x4e, 0xb5, 0x29, 0x48, 0x7f,
  0x57, 0xb6, 0xee, 0xe7, 0x99, 0x3b, 0xcc, 0xfb, 0xa7, 0x31, 0x51, 0xcd,
  0x07, 0xb2, 0xcf, 0xb3, 0x0c, 0xb3, 0xef, 0xdc, 0x03, 0x49, 0xe8, 0xf2,
  0xc4, 0xc8, 0x1e, 0x7f, 0x2a, 0xc2, 0x41, 0x6f, 0xc1, 0x50, 0x53, 0x1e,
  0x5a, 0x14, 0x0f, 0x1f, 0x53, 0x2c, 0x34, 0xa0, 0xee, 0x79, 0x65, 0xb5,
  0x20, 0xdc, 0xf3, 0x3f, 0xb9, 0xcd, 0x52, 0x22, 0xee, 0xa3, 0x81, 0x3e,
  0xe4, 0x79, 0xd1, 0xd4, 0x4c, 0x2b, 0xe4, 0x70, 0xed, 0x4b, 0xe6, 0x47,
  0xc0, 0xfd, 0x3c, 0xfc, 0xcd, 0x7f, 0xf9, 0x69, 0x1c, 0xe7, 0x7c, 0x0c,
  0x3b, 0xea, 0xd5, 0xd4, 0x3c, 0x1d, 0xf9, 0xd5, 0xec, 0x47, 0xa4, 0x40,
  0xc4, 0xb6, 0x46, 0xb7, 0x10, 0x0d, 0xd7, 0xd0, 0x83, 0xb6, 0xfa, 0xb9,
  0xc0, 0xcf, 0xc8, 0xbc, 0x81, 0x29, 0xe4, 0xf4, 0x0e, 0xeb, 0xec, 0xb2,
  0xe6, 0xea, 0xae, 0x30, 0x62, 0x19, 0x20, 0xeb, 0x4a, 0x35, 0x08, 0x5f,
  0x6a, 0x5e, 0x63, 0x3f, 0x43, 0x1f, 0x94, 0x47, 0xaa, 0xdb, 0x7f, 0x07,
  0x30, 0x6b, 0x0a, 0xd7, 0xc9, 0xb2, 0x3d, 0x97, 0xa5, 0x18, 0x77, 0x3d,
  0x6b, 0xe8, 0x10, 0x92, 0xe6, 0xf0, 0x74, 0x7f, 0xe8, 0xef, 0xae, 0xff,
  0xc0, 0xfb, 0xe0, 0xfe, 0x49, 0x37, 0xe5, 0xab, 0xd8, 0xf4, 0x0b, 0xec,
  0x4a, 0xe0, 0xda, 0xf8, 0x99, 0x40, 0xd5, 0x11, 0x20, 0x4c, 0x3d, 0x5f,
  0x29, 0x5f, 0xf3, 0xfd, 0x04, 0x26, 0x7f, 0x42, 0x37, 0x2e, 0x7d, 0x93,
  0x59, 0x4d, 0xf4, 0x53, 0x2d, 0xac, 0x0c, 0x28, 0x20, 0xd7, 0xb0, 0x1c,
  0x3e, 0x71, 0x46, 0x68, 0x56, 0x77, 0x27, 0x66, 0xb5, 0x10, 0xc1, 0x81,
  0x30, 0xdd, 0x9b, 0x04, 0x16, 0x37, 0xc1, 0xb7, 0xee, 0x12, 0x00, 0x43,
  0xd1, 0x3a, 0xcf, 0x3d, 0xc2, 0xc7, 0x4e, 0x1c, 0x00, 0xad, 0x81, 0x9a,
  0x48, 0xc5, 0xa9, 0xb1, 0x4f, 0xfd, 0xe9, 0x56, 0x9e, 0xf3, 0xff, 0xff,
  0x04, 0x00, 0x00, 0x00, 0x00, 0x08, 0x00, 0x00, 0x1a, 0xd9, 0xb3, 0xbc,
  0xae, 0xee, 0xf7, 0xd4, 0x97, 0x02, 0x0d, 0xfd, 0xce, 0x0f, 0xec, 0x02,
  0xd1, 0xb9, 0xea, 0x18, 0xd2, 0x47, 0x40, 0x23, 0xb3, 0x2d, 0xdb, 0xbc,
  0x54, 0xe1, 0xec, 0x35, 0x0a, 0xcb, 0xc0, 0x2a, 0x10, 0xd9, 0xe8, 0xbe,
  0x7f, 0x32, 0xd1, 0x10, 0xe8, 0xc7, 0x30, 0x9a, 0x31, 0xba, 0xf0, 0xd2,
  0x40, 0xa2, 0xfe, 0x16, 0xd2, 0x43, 0xe8, 0x3b, 0x22, 0x01, 0x33, 0x3b,
  0x57, 0x04, 0xfa, 0x54, 0xd5, 0xc9, 0xf6, 0xbd, 0x12, 0xbd, 0xe4, 0xe7,
  0xff, 0x24, 0x41, 0xf3, 0xc8, 0x10, 0x81, 0x44, 0x3e, 0xc4, 0x66, 0xaf,
  0xec, 0xf5, 0x9c, 0x89, 0x4b, 0xb9, 0x16, 0x00, 0xf0, 0xb6, 0x22, 0x43,
  0x50, 0xc7, 0x42, 0x22, 0x0e, 0xfe, 0x4d, 0x05, 0x13, 0xbf, 0x26, 0x8e,
  0x3b, 0xd5, 0x26, 0xd2, 0xc1, 0xbb, 0xf0, 0xf7, 0x2f, 0xe3, 0xc9, 0x18,
  0x37, 0x07, 0x14, 0xce, 0x34, 0xfa, 0x44, 0x19, 0x01, 0x3a, 0xb9, 0xdf,
  0x06, 0x4e, 0xef, 0x27, 0x50, 0xc0, 0x29, 0xfc, 0xc4, 0x46, 0x1b, 0xb6,
  0xd1, 0x7f, 0xe5, 0x38, 0xf7, 0xc0, 0xf4, 0x13, 0x2c, 0xb3, 0xcd, 0xc4,
  0xe5, 0xfb, 0x43, 0xb7, 0x3b, 0x25, 0xce, 0x54, 0x46, 0xd9, 0xef, 0xb4,
  0xb2, 0x0b, 0xb4, 0x49, 0xd1, 0xf0, 0xe9, 0xb5, 0x24, 0x08, 0xc5, 0xa8,
  0x4c, 0x20, 0x0a, 0x0c, 0x31, 0x3d, 0xe5, 0x4c, 0xc9, 0xaa, 0xb2, 0x11,
  0xc4, 0xd5, 0x31, 0x3a, 0xb8, 0xcd, 0xee, 0xbb, 0xfa, 0xf0, 0xb0, 0x29,
  0xec, 0x0a, 0xa8, 0xbb, 0x55, 0x19, 0x16, 0x05, 0x4d, 0xdb, 0xb0, 0x2a,
  0x18, 0xed, 0x31, 0xda, 0x38, 0xc1, 0x20, 0xc0, 0x34, 0xe8, 0x39, 0x13,
  0x99, 0x2b, 0xdf, 0xf5, 0xde, 0x0c, 0x13, 0xe1, 0x21, 0x16, 0x1e, 0x33,
  0x57, 0xf4, 0xdd, 0x53, 0xd3, 0xe3, 0x7f, 0xf9, 0x17, 0x42, 0xb4, 0x28,
  0x1d, 0xba, 0x68, 0x46, 0x32, 0xb4, 0xb4, 0x43, 0xd5, 0x1f, 0xeb, 0x0c,
  0xbd, 0xed, 0x70, 0x0a, 0x0c, 0xb1, 0x5a, 0x81, 0x4a, 0xfc, 0xf5, 0xf1,
  0xbf, 0xa7, 0xfb, 0x13, 0xc6, 0x49, 0x54, 0x5f, 0xb2, 0x32, 0x59, 0x29,
  0x11, 0x53, 0x50, 0xe5, 0x61, 0x8e, 0xc5, 0xf2, 0x4a, 0xf5, 0x03, 0xfb,
  0x47, 0xb7, 0xcc, 0xf8, 0x25, 0xa9, 0x13, 0x48, 0x3b, 0x0f, 0xfe, 0xb7,
  0x02, 0xab, 0x97, 0x3d, 0x38, 0xda, 0x4d, 0xb3, 0xa7, 0x27, 0x54, 0xbb,
  0x09, 0x94, 0x12, 0xa7, 0x18, 0xb4, 0xc8, 0xc4, 0x5d, 0xdc, 0x81, 0xa8,
  0x74, 0x41, 0xc0, 0xc6, 0xfa, 0x99, 0x52, 0x93, 0x61, 0xd4, 0x4d, 0x27,
  0x52, 0x63, 0xef, 0x35, 0xb7, 0xa0, 0x52, 0x18, 0xaf, 0xc3, 0x58, 0x26,
  0x20, 0xc0, 0x70, 0x18, 0x17, 0x67, 0x9a, 0x3b, 0x88, 0x8f, 0xa1, 0xdb,
  0xc6, 0xe5, 0xa3, 0x8e, 0x16, 0x9c, 0xbb, 0x2e, 0xc4, 0x41, 0xbd, 0x8e,
  0x5a, 0xe6, 0x35, 0x1c, 0x58, 0x0a, 0xdf, 0x5e, 0x15, 0x6d, 0xf4, 0xcc,
  0xbb, 0xa5, 0xda, 0xe5, 0x33, 0x54, 0xef, 0xdd, 0xf9, 0xa6, 0x52, 0x55,
  0x54, 0xda, 0x38, 0x9a, 0x47, 0x25, 0xaa, 0xc6, 0xff, 0x12, 0xa3, 0x05,
  0x7f, 0xdd, 0xf0, 0x4d, 0xe2, 0x5f, 0xf2, 0x4a, 0xb2, 0x54, 0xdd, 0x37,
  0x9a, 0x09, 0x26, 0x6b, 0x42, 0xf8, 0x51, 0xb3, 0x5b, 0x2c, 0x02, 0x1a,
  0x9a, 0x7f, 0x15, 0xed, 0xc6, 0x52, 0x04, 0x95, 0xd6, 0x14, 0x50, 0xd9,
  0x47, 0xd8, 0xf0, 0x12, 0x52, 0xec, 0x47, 0xc1, 0x4a, 0xc6, 0xe8, 0x5f,
  0xd2, 0xd9, 0x29, 0x0a, 0x07, 0xce, 0x8d, 0x27, 0x30, 0xdf, 0xd5, 0x03,
  0x68, 0x52, 0xe8, 0xc1, 0x62, 0x36, 0xf3, 0xe6, 0x20, 0xda, 0x5e, 0x37,
  0xeb, 0x09, 0xd0, 0x2b, 0x1d, 0xcd, 0x8f, 0xbd, 0x4f, 0xb5, 0xfb, 0x96,
  0x51, 0x1b, 0x03, 0x92, 0xbd, 0x42, 0xb7, 0x35, 0xbd, 0x5e, 0x2a, 0x9e,
  0x4c, 0x0d, 0x2c, 0xf6, 0x17, 0x43, 0x01, 0x46, 0xd1, 0xde, 0xd7, 0xdc,
  0x43, 0xb7, 0x06, 0xbf, 0x69, 0x52, 0x33, 0xe6, 0x39, 0x94, 0x18, 0x0e,
  0x12, 0x30, 0xf7, 0x17, 0xea, 0x49, 0x55, 0x02, 0xb1, 0xa9, 0xb1, 0x81,
  0xe5, 0xeb, 0xbb, 0x96, 0xde, 0xe5, 0xa5, 0x48, 0x4c, 0xc8, 0xe5, 0xac,
  0xa3, 0xa8, 0x9a, 0x50, 0x44, 0xda, 0x10, 0xed, 0x1d, 0xe4, 0x3d, 0x3f,
  0x0b, 0xc2, 0x51, 0xfd, 0xb6, 0x04, 0xb8, 0x81, 0xe4, 0x69, 0xf6, 0xbb,
  0x22, 0xfe, 0xef, 0xb7, 0x08, 0x15, 0xf3, 0x45, 0x07, 0x2e, 0xe5, 0xfa,
  0xae, 0x24, 0xfe, 0x11, 0xfd, 0xe5, 0xb8, 0x95, 0xf9, 0xba, 0xf2, 0x07,
  0xde, 0x26, 0x3f, 0x58, 0xf1, 0x23, 0x26, 0x4f, 0x1b, 0x66, 0x55, 0xc9,
  0xe2, 0x1c, 0x2f, 0x94, 0xa1, 0x1d, 0x98, 0x88, 0x4d, 0xab, 0x9c, 0xac,
  0x27, 0xeb, 0x32, 0xf6, 0xfd, 0x1f, 0x02, 0xf8, 0x38, 0xdf, 0xb7, 0x14,
  0x22, 0x23, 0x26, 0xd8, 0xfb, 0x0d, 0x0f, 0xe5, 0xec, 0x25, 0xb0, 0xd3,
  0x48, 0xd2, 0xde, 0xc9, 0xc1, 0x1c, 0xe7, 0x18, 0x17, 0xb5, 0xf6, 0xfa,
  0xc3, 0x3e, 0x0b, 0x9a, 0xac, 0xd8, 0x02, 0x81, 0xb6, 0x22, 0xe1, 0xef,
  0xdb, 0x41, 0xbd, 0xf0, 0x41, 0x13, 0x3b, 0x06, 0xcf, 0xeb, 0x28, 0xbe,
  0xe7, 0x0d, 0x0a, 0xf3, 0xdb, 0xff, 0x26, 0x29, 0xed, 0x17, 0x26, 0x04,
  0xe5, 0x07, 0xd2, 0xe3, 0x32, 0x2a, 0x1e, 0x05, 0xf0, 0xdd, 0x09, 0x18,
  0xca, 0x2d, 0x25, 0x0f, 0xd7, 0x29, 0x0d, 0x0c, 0xa4, 0x1f, 0x06, 0xf8,
  0xee, 0xd7, 0x1b, 0x23, 0x2e, 0xca, 0xfc, 0x81, 0x2d, 0xff, 0xc0, 0x06,
  0x0c, 0x12, 0xe3, 0xd3, 0xe0, 0xe2, 0x0a, 0xf1, 0xdd, 0xc9, 0xe8, 0x26,
  0xca, 0xef, 0x10, 0xfd, 0xe5, 0xcb, 0xd7, 0xd4, 0x93, 0xda, 0x40, 0xda,
  0xef, 0xbe, 0x4c, 0x5f, 0xdb, 0x71, 0x0c, 0x1b, 0x81, 0xc8, 0x39, 0x3f,
  0x48, 0x2e, 0x2c, 0x8e, 0x38, 0xce, 0xc8, 0x3c, 0xd9, 0x27, 0x4c, 0x63,
  0x5a, 0xe8, 0xc5, 0x27, 0x8f, 0x73, 0x64, 0x3c, 0xda, 0x16, 0xd5, 0x83,
  0xde, 0x0a, 0xc4, 0xbf, 0xec, 0x44, 0x59, 0xc8, 0x2b, 0x8a, 0x66, 0x22,
  0xb3, 0x63, 0x38, 0xb7, 0xb0, 0x66, 0x93, 0x20, 0xb5, 0x14, 0xff, 0x3e,
  0x11, 0x41, 0xe9, 0x00, 0x39, 0xde, 0xe8, 0xf8, 0x07, 0xe4, 0x2f, 0xcb,
  0xdb, 0x0f, 0xf5, 0xdd, 0xea, 0xe7, 0xd1, 0x00, 0x7f, 0x1d, 0xa2, 0x01,
  0x27, 0x31, 0xe7, 0x0e, 0x07, 0xe9, 0xaf, 0xdf, 0x08, 0x3a, 0x29, 0xfe,
  0xfd, 0xd9, 0xc1, 0x46, 0x64, 0xd7, 0xdb, 0x47, 0x03, 0x29, 0x30, 0x20,
  0xe6, 0x41, 0x2f, 0x2c, 0xd5, 0x1f, 0x32, 0x13, 0xef, 0xf5, 0x11, 0xde,
  0xf3, 0x16, 0xd4, 0x1b, 0xf3, 0xda, 0xc4, 0x25, 0x66, 0xca, 0x29, 0x1f,
  0x34, 0x5a, 0xb9, 0x4a, 0xef, 0xd8, 0xdd, 0xb6, 0xa4, 0xf5, 0x60, 0xe4,
  0x20, 0x6d, 0xef, 0xd1, 0xdb, 0xed, 0x5b, 0x33, 0x4c, 0xb7, 0x40, 0x19,
  0xf3, 0x38, 0xd9, 0x26, 0xac, 0xd3, 0xea, 0x2f, 0xdf, 0xe9, 0xe5, 0xce,
  0x40, 0xb2, 0x25, 0x22, 0x46, 0xb2, 0x7f, 0x31, 0xb5, 0xc3, 0x01, 0xc6,
  0x51, 0x52, 0x1b, 0x50, 0xe4, 0x75, 0x5c, 0x99, 0xf3, 0xcc, 0x58, 0x38,
  0xc7, 0x81, 0xe3, 0xd4, 0x24, 0xce, 0x37, 0x2f, 0xc0, 0x08, 0x29, 0xbc,
  0xb3, 0x2c, 0xc0, 0xf0, 0x26, 0xba, 0x09, 0xb5, 0x2f, 0xe9, 0x42, 0x8f,
  0x15, 0x4e, 0x0e, 0x0c, 0x16, 0xff, 0xe2, 0x0b, 0x14, 0x04, 0x34, 0x28,
  0x04, 0xe9, 0xba, 0x56, 0xa4, 0xfd, 0x05, 0xca, 0xb0, 0xa0, 0x3c, 0x2e,
  0xaf, 0xe5, 0x3d, 0x1f, 0xe2, 0x35, 0x03, 0x17, 0xf7, 0x2e, 0xc5, 0xf4,
  0x17, 0xbd, 0x17, 0x00, 0x13, 0xc2, 0xfc, 0xfa, 0x36, 0x2e, 0xe5, 0x9e,
  0x9d, 0x22, 0xe9, 0xc2, 0xcd, 0x0a, 0x81, 0xea, 0xd4, 0xcd, 0xa8, 0xff,
  0x32, 0xc7, 0xa4, 0xa7, 0x15, 0x27, 0xce, 0x2f, 0xfb, 0xef, 0x14, 0x17,
  0x1c, 0x22, 0x04, 0x44, 0x3f, 0xdd, 0x34, 0xd0, 0xb9, 0xec, 0x49, 0xbe,
  0x48, 0xf2, 0xf1, 0xd3, 0x4f, 0x0f, 0x03, 0xe4, 0x11, 0x00, 0x19, 0xee,
  0x29, 0xca, 0xca, 0x20, 0x08, 0x3e, 0x32, 0x04, 0x37, 0xf5, 0x32, 0x2d,
  0x21, 0x1a, 0x02, 0x11, 0x00, 0x1d, 0xcb, 0xd9, 0xdb, 0x2a, 0x45, 0xc2,
  0x4e, 0xd2, 0xa7, 0x3d, 0x35, 0xbc, 0xa5, 0x21, 0x00, 0xfb, 0xe6, 0x55,
  0x44, 0xe3, 0x40, 0xd5, 0xd8, 0x33, 0xcb, 0xb0, 0x39, 0xed, 0x53, 0x27,
  0x18, 0xdc, 0xc8, 0x1f, 0xbc, 0x4d, 0xdf, 0xfe, 0xc2, 0x7f, 0xe3, 0x26,
  0x04, 0xae, 0x1d, 0x0b, 0xff, 0x2c, 0xbf, 0x3f, 0xc0, 0x28, 0x19, 0xd7,
  0x02, 0x0e, 0xf6, 0xef, 0xef, 0xf3, 0x07, 0x29, 0xc9, 0x39, 0xeb, 0x1d,
  0x32, 0xe5, 0xcc, 0xfd, 0x39, 0xfe, 0xf8, 0x7f, 0x15, 0x05, 0x06, 0x3a,
  0x08, 0xed, 0x0c, 0xdb, 0x15, 0x13, 0x29, 0xdc, 0xf8, 0xd2, 0x07, 0xfc,
  0xfe, 0x16, 0x0b, 0xe3, 0xf5, 0xe7, 0xee, 0x32, 0x06, 0xe5, 0x20, 0xef,
  0x20, 0x09, 0x35, 0xfe, 0xf9, 0x34, 0xf4, 0x35, 0x1f, 0xc5, 0x09, 0x02,
  0xab, 0x01, 0xb0, 0x2f, 0xd1, 0x51, 0xe2, 0xf0, 0xcc, 0xee, 0x12, 0xcf,
  0x06, 0x0f, 0x16, 0x14, 0xf3, 0xbc, 0xa6, 0xc7, 0x42, 0x00, 0xa4, 0xe6,
  0x18, 0x21, 0xfd, 0x0e, 0xb2, 0xb7, 0x0f, 0xab, 0x91, 0xb9, 0xa5, 0xa4,
  0x4d, 0x68, 0x4d, 0x5f, 0xcf, 0x42, 0xb3, 0xa2, 0x30, 0x49, 0x28, 0xfd,
  0xf8, 0x27, 0x1a, 0x40, 0xa3, 0xd5, 0x24, 0x0e, 0x55, 0x49, 0x7f, 0x54,
  0x03, 0x3f, 0x14, 0xff, 0x35, 0xcb, 0xbc, 0x47, 0x2c, 0xfe, 0x26, 0x0d,
  0x0d, 0x02, 0x4f, 0x30, 0xfa, 0xe4, 0x1a, 0xdc, 0xce, 0xfe, 0xde, 0x05,
  0x30, 0xe4, 0x1a, 0xeb, 0xb9, 0xd3, 0x42, 0x0d, 0xe0, 0x1e, 0x12, 0xec,
  0x47, 0xfc, 0xcd, 0xb6, 0x34, 0x42, 0x0a, 0x14, 0xcd, 0x4c, 0xbc, 0x9f,
  0x3f, 0x21, 0xd8, 0x40, 0xe0, 0x4a, 0xb5, 0xdb, 0x1e, 0xfc, 0x23, 0xd6,
  0x11, 0xc5, 0x7f, 0xf0, 0xff, 0xd2, 0xaa, 0xda, 0x9c, 0x23, 0x24, 0xc2,
  0x8d, 0xf4, 0x61, 0x76, 0xbc, 0x2f, 0xfc, 0x1b, 0x07, 0x5a, 0x3d, 0x0d,
  0x8c, 0x1b, 0x6d, 0xc7, 0xa8, 0x55, 0x3c, 0x66, 0x62, 0x39, 0x1a, 0xc7,
  0x44, 0xee, 0x45, 0xa1, 0xc9, 0x1b, 0xe1, 0x5c, 0x28, 0xe0, 0x09, 0xdc,
  0x19, 0xb8, 0xf5, 0x78, 0x24, 0x01, 0x54, 0xb1, 0x47, 0x2c, 0x7f, 0x2a,
  0x26, 0xd6, 0x5e, 0x59, 0xad, 0xe1, 0xae, 0x0d, 0xba, 0xb9, 0xd0, 0x4f,
  0x22, 0x43, 0x25, 0xd8, 0xcf, 0x1f, 0x08, 0x11, 0xf4, 0xfc, 0x0a, 0x32,
  0x2d, 0xdf, 0x03, 0x23, 0xdd, 0x05, 0x16, 0x43, 0x29, 0xe0, 0xc5, 0xea,
  0x0c, 0x49, 0x38, 0x18, 0x15, 0xfb, 0xbb, 0x04, 0xe3, 0xfe, 0xce, 0xfc,
  0xfe, 0xcd, 0xba, 0x26, 0x3a, 0x4f, 0x1e, 0xff, 0x13, 0x2c, 0xdb, 0xdf,
  0x1c, 0x05, 0xc0, 0xeb, 0x30, 0x7f, 0xfe, 0xef, 0x22, 0x58, 0x09, 0xe3,
  0x07, 0xcd, 0xfe, 0x26, 0x00, 0x1e, 0xcc, 0x81, 0x2b, 0xaf, 0x1d, 0x0b,
  0x10, 0x38, 0x52, 0xef, 0x9b, 0x27, 0x0c, 0x09, 0x22, 0x0f, 0x1e, 0x12,
  0xce, 0x39, 0x96, 0x48, 0x98, 0x04, 0xaa, 0x5c, 0xd4, 0x4b, 0xbe, 0xc6,
  0x1e, 0x1a, 0x5c, 0xc9, 0xd6, 0xb5, 0x8c, 0xe0, 0x3c, 0x2b, 0xb5, 0x01,
  0xd7, 0xe1, 0xc1, 0x55, 0x0b, 0xae, 0xbd, 0x77, 0x45, 0x8f, 0xcd, 0xd5,
  0x41, 0x2a, 0x12, 0x00, 0xa4, 0xa6, 0x27, 0x7a, 0x02, 0x07, 0xf9, 0x02,
  0x05, 0x09, 0x1d, 0xb9, 0x20, 0xdc, 0x0b, 0xeb, 0xde, 0xc8, 0xda, 0xdd,
  0x2d, 0x07, 0xc3, 0x2e, 0xf2, 0xf9, 0x40, 0xf3, 0x34, 0x1e, 0x14, 0x36,
  0xc8, 0xef, 0x37, 0xee, 0x14, 0xed, 0x1a, 0xe8, 0xff, 0x04, 0x1b, 0x12,
  0xd6, 0xcc, 0xfd, 0x88, 0xc7, 0x03, 0x1f, 0x01, 0x1b, 0x2a, 0xd3, 0x34,
  0x29, 0xd9, 0x0a, 0x81, 0x06, 0xc2, 0xfc, 0xee, 0xce, 0xd1, 0x32, 0x06,
  0xf0, 0xf1, 0xd6, 0x9d, 0xee, 0x10, 0x24, 0x46, 0xf1, 0xed, 0xde, 0xfd,
  0xfb, 0xe9, 0xd9, 0x41, 0xf5, 0x24, 0x26, 0x41, 0x36, 0xe9, 0x1c, 0x19,
  0x21, 0xeb, 0xe2, 0x22, 0xfa, 0x3d, 0xb5, 0x1d, 0xe0, 0xca, 0x01, 0xe3,
  0x07, 0x31, 0xce, 0xdc, 0x81, 0xc6, 0xf5, 0x36, 0x05, 0x05, 0xcd, 0xe0,
  0x14, 0xff, 0xf8, 0x32, 0x25, 0x5d, 0xda, 0x0c, 0x1d, 0x13, 0xa0, 0xe0,
  0x01, 0xcd, 0x11, 0xdf, 0xcb, 0xe8, 0x4e, 0xbe, 0xf0, 0x2e, 0xd7, 0xc1,
  0xcd, 0x30, 0x4b, 0xf1, 0x81, 0xc9, 0x1c, 0xcb, 0x5d, 0x2f, 0x74, 0xc2,
  0xf4, 0x44, 0xf6, 0xa7, 0x08, 0xd8, 0x5a, 0xec, 0x08, 0xf4, 0xe1, 0x26,
  0xca, 0x9c, 0xfb, 0xad, 0x43, 0x28, 0x52, 0xf5, 0xdb, 0x30, 0xc2, 0x24,
  0x36, 0x66, 0xfe, 0xda, 0xeb, 0x9f, 0x48, 0x3d, 0x5c, 0x34, 0xdd, 0xd7,
  0xd5, 0x29, 0xf1, 0xb0, 0x2e, 0xdc, 0x46, 0xdd, 0x39, 0x07, 0xfa, 0x08,
  0xb8, 0x05, 0x4e, 0xeb, 0xc0, 0xc5, 0x0e, 0x3d, 0x34, 0x4d, 0x0e, 0x4b,
  0xee, 0x36, 0x61, 0xf6, 0x43, 0x16, 0x45, 0x19, 0xaf, 0x31, 0xff, 0x3b,
  0x12, 0xf9, 0xbf, 0x53, 0xe9, 0x17, 0xf4, 0xa9, 0xda, 0xee, 0xcc, 0xef,
  0x2b, 0xbe, 0xf5, 0x81, 0x3d, 0x1e, 0xcd, 0xe3, 0x06, 0x02, 0x3f, 0x33,
  0xbf, 0x3a, 0xc8, 0x0b, 0xb9, 0xaf, 0x13, 0x10, 0xad, 0x02, 0x20, 0xc8,
  0x5c, 0xfa, 0x43, 0xae, 0xe6, 0x01, 0x5b, 0xec, 0xfe, 0x56, 0x2a, 0xd0,
  0x36, 0x1e, 0xd2, 0xb7, 0xbe, 0x35, 0xed, 0xf7, 0xe4, 0xa0, 0xcc, 0xf3,
  0x9f, 0xe7, 0xfb, 0x27, 0xd8, 0x0a, 0x25, 0xc0, 0x35, 0xeb, 0xba, 0x24,
  0xfc, 0x41, 0x15, 0x2d, 0xe1, 0x01, 0x62, 0x23, 0xc9, 0x38, 0x33, 0x2b,
  0x03, 0x2e, 0x4f, 0xd1, 0x4d, 0x2b, 0xca, 0x21, 0xbd, 0x5f, 0xae, 0x40,
  0xd3, 0x44, 0xf7, 0x81, 0xfc, 0xa3, 0x08, 0xa6, 0xab, 0x43, 0xc5, 0x43,
  0x45, 0xbb, 0x05, 0x62, 0x9f, 0x96, 0xfc, 0x4e, 0x36, 0x63, 0x3d, 0x40,
  0xe9, 0xc7, 0x1c, 0xf3, 0x64, 0x9c, 0xcb, 0xb9, 0x48, 0xda, 0xe2, 0xf1,
  0x51, 0x33, 0xfe, 0xf6, 0x55, 0x11, 0xee, 0x17, 0xbc, 0x06, 0xd5, 0x11,
  0xa5, 0xd3, 0xa1, 0x1e, 0xb9, 0x4d, 0x1d, 0x75, 0xb3, 0xa4, 0xb0, 0x15,
  0x7f, 0x75, 0xf4, 0x93, 0x51, 0x1e, 0x73, 0xd3, 0xe9, 0x21, 0xcd, 0x9a,
  0xc5, 0x40, 0x4f, 0xaa, 0xe7, 0x2c, 0x06, 0xd5, 0xf5, 0x0f, 0xcd, 0x35,
  0xb5, 0x38, 0x13, 0x50, 0xd3, 0xfb, 0x06, 0x1d, 0x0c, 0x4a, 0xc7, 0xc6,
  0xc5, 0x43, 0x4a, 0x07, 0xeb, 0x42, 0xc1, 0x36, 0x23, 0x17, 0x39, 0x33,
  0xd5, 0xc3, 0xde, 0xe9, 0xd2, 0xd6, 0xfb, 0x03, 0x4a, 0x12, 0x9b, 0xd7,
  0x58, 0x0d, 0x2e, 0xeb, 0xe8, 0xf0, 0x81, 0x49, 0x3a, 0xda, 0xe9, 0x36,
  0x1d, 0x55, 0x46, 0xd2, 0xc5, 0x70, 0xce, 0xfa, 0xea, 0x79, 0x06, 0xb4,
  0xd5, 0x87, 0xd7, 0xa2, 0x84, 0x76, 0x4b, 0x7f, 0x7b, 0x5b, 0x4b, 0x86,
  0xf2, 0x95, 0x0b, 0x18, 0x6b, 0xf4, 0xa0, 0x53, 0xa2, 0xf7, 0x5e, 0x36,
  0x0c, 0x10, 0x63, 0xd3, 0x75, 0x03, 0x56, 0xc6, 0x27, 0x05, 0xe6, 0xd2,
  0xfc, 0x75, 0xad, 0x68, 0xef, 0xe7, 0x1d, 0x46, 0xa0, 0x4e, 0x8c, 0xf8,
  0x1a, 0xfd, 0xb4, 0x64, 0xaa, 0xfb, 0xff, 0xff, 0x04, 0x00, 0x00, 0x00,
  0x00, 0x02, 0x00, 0x00, 0x01, 0x83, 0x33, 0x3e, 0xfc, 0x15, 0x9f, 0x3c,
  0x67, 0xf7, 0x17, 0xbe, 0xf8, 0xad, 0x98, 0x3d, 0x26, 0xac, 0xc5, 0x3e,
  0xd6, 0xf3, 0xa3, 0x3e, 0x9f, 0x42, 0xd0, 0x3e, 0xd8, 0x19, 0x4b, 0x3e,
  0x34, 0x37, 0xa2, 0xbe, 0x38, 0x36, 0xcb, 0xbc, 0x38, 0x1d, 0xfd, 0x3e,
  0x09, 0x62, 0xf9, 0x3d, 0xca, 0xe7, 0xb6, 0xbe, 0x66, 0x06, 0x17, 0x3f,
  0xef, 0xc3, 0xc3, 0xbe, 0xae, 0x0d, 0xe6, 0xbe, 0x79, 0x26, 0xb4, 0xbd,
  0x5e, 0x49, 0x55, 0x3b, 0x02, 0x84, 0xe3, 0xbd, 0x59, 0x4c, 0x85, 0x3e,
  0xc1, 0x59, 0xfc, 0x3e, 0x32, 0x08, 0x29, 0x3e, 0xfa, 0x6d, 0xb3, 0x3e,
  0xff, 0xb6, 0xc3, 0xbe, 0x81, 0xae, 0x21, 0xbe, 0x7e, 0x57, 0xc3, 0xbe,
  0x42, 0x40, 0x79, 0xbe, 0x59, 0x1f, 0xaa, 0xbe, 0x07, 0x27, 0xb3, 0xbe,
  0x23, 0x70, 0xef, 0xbe, 0xc8, 0x36, 0xd8, 0xbe, 0xa9, 0xfe, 0x41, 0x3e,
  0x02, 0x90, 0xbb, 0xbe, 0x6b, 0x80, 0xab, 0xbe, 0x5d, 0xf7, 0xb5, 0xbe,
  0x44, 0x0f, 0xc6, 0x3e, 0xd4, 0xf4, 0xae, 0xbe, 0xb6, 0x5d, 0x84, 0xbe,
  0x7d, 0xab, 0x5f, 0xbe, 0x92, 0xe1, 0x41, 0xbd, 0x13, 0xb4, 0xb6, 0xbd,
  0xef, 0xce, 0x82, 0x3d, 0xea, 0xb8, 0x25, 0xbe, 0xdc, 0x9c, 0x7e, 0x3e,
  0x88, 0x73, 0x8e, 0xbe, 0x13, 0xde, 0xd2, 0xbe, 0xbc, 0x36, 0xd7, 0x3e,
  0xab, 0xfe, 0xbc, 0xbd, 0xea, 0x74, 0x85, 0xbe, 0x8d, 0x89, 0x1e, 0x3d,
  0xe8, 0xdb, 0x01, 0xbf, 0x90, 0x81, 0xaf, 0xbd, 0x9c, 0xbe, 0x9a, 0xbe,
  0xd3, 0x22, 0x93, 0x3d, 0x36, 0x06, 0x2e, 0x3e, 0x18, 0xa1, 0x1b, 0x3e,
  0x03, 0xb6, 0x5d, 0xbe, 0x90, 0xb9, 0x8e, 0x3f, 0x29, 0xcf, 0x6d, 0xbe,
  0x87, 0xb6, 0x97, 0x3e, 0x62, 0x42, 0x4c, 0x3e, 0x12, 0x13, 0x88, 0x3e,
  0x3f, 0xe4, 0x89, 0x3e, 0xfd, 0x3c, 0xec, 0x3e, 0xce, 0xb7, 0xdc, 0xbe,
  0x04, 0xc7, 0xbd, 0x3e, 0x2e, 0x1a, 0x69, 0x3e, 0x57, 0x4e, 0x09, 0xbe,
  0x88, 0xe5, 0x29, 0xbe, 0x65, 0x1d, 0x1f, 0xbd, 0xcc, 0xd4, 0xbc, 0x3e,
  0x6a, 0xd2, 0x4c, 0x3e, 0xe7, 0xc7, 0xa9, 0x3e, 0x27, 0x2d, 0xe9, 0x3d,
  0xf0, 0x7b, 0x64, 0xbc, 0xe3, 0x81, 0x93, 0xbe, 0x9c, 0x99, 0xc1, 0x3d,
  0x98, 0xe9, 0xfc, 0x3c, 0x12, 0x3a, 0x8a, 0x3d, 0x45, 0xfc, 0x95, 0xbc,
  0x00, 0xca, 0xf4, 0xbe, 0xdc, 0xb7, 0x05, 0xbf, 0x9b, 0x37, 0x64, 0x3c,
  0xd2, 0xad, 0x17, 0x3e, 0x84, 0xb2, 0xc5, 0x3e, 0x76, 0x4f, 0xc0, 0xbe,
  0x93, 0xcf, 0x4a, 0xbe, 0x7f, 0x7f, 0x30, 0x3e, 0x8f, 0x5b, 0x7f, 0x3e,
  0x72, 0xb1, 0x34, 0xbf, 0x0e, 0xc4, 0x86, 0xbe, 0xb7, 0x0a, 0x09, 0xbd,
  0xfa, 0x23, 0x21, 0xbd, 0x75, 0xc4, 0x82, 0x3e, 0x1b, 0x31, 0x98, 0xbd,
  0x71, 0x5e, 0xeb, 0x3c, 0x83, 0x0f, 0xd2, 0x3c, 0x79, 0x2e, 0xc5, 0x3e,
  0xbd, 0x2c, 0x33, 0x3e, 0x96, 0x03, 0xd2, 0xbe, 0xf8, 0x49, 0x9d, 0x3e,
  0x08, 0x21, 0x6a, 0xbe, 0xd3, 0x65, 0xc5, 0xbd, 0x95, 0x0e, 0xfe, 0xbc,
  0xcd, 0x29, 0xa1, 0xbd, 0x37, 0x4e, 0x82, 0x3c, 0xbe, 0xd0, 0xb3, 0x3d,
  0x08, 0x1e, 0xbb, 0x3e, 0xd1, 0x65, 0xb4, 0x3e, 0xec, 0xb2, 0x53, 0x3e,
  0xbd, 0x84, 0x81, 0x3e, 0xf2, 0xd0, 0xe8, 0x3e, 0x7b, 0xcc, 0xbe, 0x3e,
  0xf3, 0x4e, 0xfc, 0x3d, 0x81, 0x66, 0xbf, 0xbe, 0xe1, 0x93, 0xbf, 0xbe,
  0x30, 0xe2, 0x46, 0xbe, 0xb3, 0x3c, 0x0b, 0x3b, 0x31, 0xfc, 0xb4, 0xbe,
  0x5a, 0xc6, 0xa3, 0xbe, 0xb4, 0xcd, 0x9a, 0xbe, 0x1e, 0x1c, 0x78, 0xbf,
  0x32, 0x0f, 0x74, 0xbd, 0x3e, 0x79, 0x97, 0xbe, 0xe5, 0x4c, 0x57, 0x3e,
  0x9b, 0x8e, 0x9d, 0xbd, 0x9f, 0x1d, 0x42, 0x3d, 0xf6, 0xa8, 0x72, 0x3e,
  0xb6, 0xfd, 0xff, 0xff, 0x04, 0x00, 0x00, 0x00, 0x10, 0x00, 0x00, 0x00,
  0x5e, 0x3b, 0x32, 0x3c, 0xfe, 0x5f, 0x71, 0x3d, 0x6a, 0x4b, 0x15, 0xbd,
  0xcd, 0xeb, 0x0d, 0xbd, 0xd2, 0xfd, 0xff, 0xff, 0x04, 0x00, 0x00, 0x00,
  0x80, 0x00, 0x00, 0x00, 0xb4, 0x4c, 0x70, 0xbc, 0xfe, 0x4b, 0x8a, 0x3d,
  0xd8, 0x86, 0x98, 0xbc, 0x8d, 0xf2, 0xc2, 0xbc, 0xbc, 0x2b, 0x95, 0x3b,
  0xe2, 0x9a, 0xa5, 0xbc, 0x4b, 0x59, 0x8a, 0xbc, 0x47, 0x23, 0xce, 0xbc,
  0x56, 0x66, 0x8c, 0xbc, 0x0f, 0x96, 0x0b, 0xbd, 0x8d, 0x77, 0x25, 0x3c,
  0x10, 0x3f, 0x07, 0xbd, 0x3f, 0x0e, 0x17, 0xbd, 0x50, 0x94, 0xc3, 0x3c,
  0x8f, 0x2e, 0xe5, 0x3b, 0x93, 0xe8, 0x47, 0xbc, 0x73, 0x3d, 0xa2, 0xbc,
  0x89, 0x4d, 0x33, 0x3d, 0x7c, 0x14, 0x88, 0x3b, 0x3c, 0x6c, 0xda, 0x3b,
  0xcc, 0x9b, 0x74, 0xbc, 0x7f, 0x7a, 0x54, 0x3c, 0x0c, 0xba, 0xa3, 0x3c,
  0xad, 0xd1, 0x8a, 0xbc, 0x88, 0xa5, 0x35, 0x3c, 0xfe, 0x4b, 0xbd, 0x3c,
  0xb7, 0x7c, 0x0b, 0x3d, 0xd0, 0xbf, 0xc9, 0x3c, 0xb0, 0x08, 0xb6, 0xbb,
  0xe1, 0xf9, 0xcf, 0x3b, 0x93, 0x53, 0x80, 0x3d, 0xe9, 0x5f, 0x42, 0x3d,
  0x5e, 0xfe, 0xff, 0xff, 0x04, 0x00, 0x00, 0x00, 0x00, 0x01, 0x00, 0x00,
  0x12, 0x8f, 0xbd, 0x3c, 0x1c, 0x86, 0x7d, 0x3d, 0xc8, 0xdc, 0xc3, 0xbc,
  0x8f, 0x72, 0x60, 0x3d, 0x48, 0x54, 0x11, 0xbd, 0x4d, 0x58, 0x5d, 0x3c,
  0xc5, 0x38, 0x53, 0xbc, 0x2e, 0x36, 0x21, 0x3b, 0x3b, 0x06, 0x12, 0xbd,
  0x41, 0xfb, 0x5c, 0xbc, 0x2a, 0x52, 0x9b, 0xbc, 0x00, 0xf5, 0x85, 0x3d,
  0xb4, 0x38, 0x54, 0x3d, 0x7a, 0x4e, 0xdb, 0x3c, 0x2f, 0xdf, 0x9b, 0x3b,
  0xb4, 0x32, 0x96, 0xbd, 0x7e, 0xad, 0xc3, 0x3b, 0x90, 0xea, 0xf7, 0xbb,
  0x58, 0xc6, 0x6f, 0x3d, 0x18, 0x3c, 0xad, 0x3d, 0x3b, 0x62, 0x0a, 0x3c,
  0x0b, 0x66, 0xd3, 0x3c, 0x6b, 0xe5, 0x9b, 0x3c, 0x4a, 0x02, 0x8d, 0x3c,
  0x0f, 0x27, 0xc8, 0xba, 0x60, 0xb0, 0xb2, 0x3b, 0x87, 0x85, 0xec, 0x3c,
  0x2d, 0xb4, 0x0e, 0x3d, 0x10, 0xf0, 0x48, 0xbd, 0x53, 0x19, 0x4e, 0xbc,
  0x3f, 0x4f, 0xe7, 0x3c, 0x3d, 0xec, 0x5c, 0x3d, 0xc0, 0x15, 0xce, 0x3b,
  0xa6, 0x16, 0x6e, 0x3c, 0x0d, 0xff, 0x4f, 0xbd, 0xee, 0x52, 0x7b, 0xbb,
  0x34, 0x43, 0x5e, 0xb9, 0x39, 0x4b, 0x8c, 0xbc, 0x61, 0x1c, 0x2d, 0x3b,
  0x7f, 0x59, 0x7b, 0xbb, 0x45, 0x0a, 0x95, 0x3d, 0x17, 0xed, 0x92, 0x3c,
  0x6f, 0x22, 0x19, 0x3c, 0xc8, 0x1c, 0xa1, 0x3d, 0x9c, 0x23, 0x9e, 0xbc,
  0x8e, 0x90, 0x13, 0xbd, 0x8c, 0x90, 0x03, 0xbc, 0xa6, 0xc8, 0xfa, 0xbc,
  0xd6, 0xd3, 0x30, 0x3d, 0x09, 0xaf, 0xc1, 0x3c, 0xa6, 0xbf, 0x72, 0x3d,
  0x37, 0xd8, 0xed, 0x3c, 0x8b, 0xe7, 0xfd, 0xbc, 0x0d, 0xa6, 0xae, 0x3d,
  0x53, 0x9a, 0x9a, 0x3b, 0x4f, 0x10, 0x5f, 0x3c, 0x56, 0xbb, 0x75, 0x3c,
  0xeb, 0x2b, 0xec, 0x3c, 0x13, 0xd8, 0x20, 0x3d, 0x4e, 0x44, 0xc4, 0x39,
  0xe9, 0x47, 0x0c, 0xbd, 0x30, 0x10, 0x7f, 0x3c, 0x88, 0xf1, 0x96, 0x3b,
  0x2d, 0x79, 0x87, 0x3d, 0xc8, 0xf5, 0xff, 0xff, 0xcc, 0xf5, 0xff, 0xff,
  0x0f, 0x00, 0x00, 0x00, 0x4d, 0x4c, 0x49, 0x52, 0x20, 0x43, 0x6f, 0x6e,
  0x76, 0x65, 0x72, 0x74, 0x65, 0x64, 0x2e, 0x00, 0x01, 0x00, 0x00, 0x00,
  0x14, 0x00, 0x00, 0x00, 0x00, 0x00, 0x0e, 0x00, 0x18, 0x00, 0x14, 0x00,
  0x10, 0x00, 0x0c, 0x00, 0x08, 0x00, 0x04, 0x00, 0x0e, 0x00, 0x00, 0x00,
  0x14, 0x00, 0x00, 0x00, 0x1c, 0x00, 0x00, 0x00, 0x28, 0x01, 0x00, 0x00,
  0x2c, 0x01, 0x00, 0x00, 0x30, 0x01, 0x00, 0x00, 0x04, 0x00, 0x00, 0x00,
  0x6d, 0x61, 0x69, 0x6e, 0x00, 0x00, 0x00, 0x00, 0x04, 0x00, 0x00, 0x00,
  0xcc, 0x00, 0x00, 0x00, 0x84, 0x00, 0x00, 0x00, 0x50, 0x00, 0x00, 0x00,
  0x14, 0x00, 0x00, 0x00, 0x00, 0x00, 0x0e, 0x00, 0x1a, 0x00, 0x14, 0x00,
  0x10, 0x00, 0x0c, 0x00, 0x0b, 0x00, 0x04, 0x00, 0x0e, 0x00, 0x00, 0x00,
  0x1c, 0x00, 0x00, 0x00, 0x00, 0x00, 0x00, 0x09, 0x1c, 0x00, 0x00, 0x00,
  0x20, 0x00, 0x00, 0x00, 0x01, 0x00, 0x00, 0x00, 0x00, 0x00, 0x06, 0x00,
  0x08, 0x00, 0x04, 0x00, 0x06, 0x00, 0x00, 0x00, 0x00, 0x00, 0x80, 0x3f,
  0x01, 0x00, 0x00, 0x00, 0x0a, 0x00, 0x00, 0x00, 0x01, 0x00, 0x00, 0x00,
  0x09, 0x00, 0x00, 0x00, 0x9a, 0xff, 0xff, 0xff, 0x10, 0x00, 0x00, 0x00,
  0x00, 0x00, 0x00, 0x08, 0x0c, 0x00, 0x00, 0x00, 0x10, 0x00, 0x00, 0x00,
  0x90, 0xf6, 0xff, 0xff, 0x01, 0x00, 0x00, 0x00, 0x09, 0x00, 0x00, 0x00,
  0x03, 0x00, 0x00, 0x00, 0x08, 0x00, 0x00, 0x00, 0x04, 0x00, 0x00, 0x00,
  0x03, 0x00, 0x00, 0x00, 0xca, 0xff, 0xff, 0xff, 0x10, 0x00, 0x00, 0x00,
  0x00, 0x00, 0x00, 0x08, 0x10, 0x00, 0x00, 0x00, 0x14, 0x00, 0x00, 0x00,
  0xbc, 0xff, 0xff, 0xff, 0x00, 0x00, 0x01, 0x01, 0x01, 0x00, 0x00, 0x00,
  0x08, 0x00, 0x00, 0x00, 0x03, 0x00, 0x00, 0x00, 0x07, 0x00, 0x00, 0x00,
  0x05, 0x00, 0x00, 0x00, 0x02, 0x00, 0x00, 0x00, 0x00, 0x00, 0x0e, 0x00,
  0x14, 0x00, 0x00, 0x00, 0x10, 0x00, 0x0c, 0x00, 0x0b, 0x00, 0x04, 0x00,
  0x0e, 0x00, 0x00, 0x00, 0x1c, 0x00, 0x00, 0x00, 0x00, 0x00, 0x00, 0x08,
  0x1c, 0x00, 0x00, 0x00, 0x20, 0x00, 0x00, 0x00, 0x0c, 0x00, 0x08, 0x00,
  0x07, 0x00, 0x00, 0x00, 0x00, 0x00, 0x06, 0x00, 0x0c, 0x00, 0x00, 0x00,
  0x00, 0x00, 0x01, 0x01, 0x01, 0x00, 0x00, 0x00, 0x07, 0x00, 0x00, 0x00,
  0x03, 0x00, 0x00, 0x00, 0x00, 0x00, 0x00, 0x00, 0x06, 0x00, 0x00, 0x00,
  0x01, 0x00, 0x00, 0x00, 0x01, 0x00, 0x00, 0x00, 0x0a, 0x00, 0x00, 0x00,
  0x01, 0x00, 0x00, 0x00, 0x00, 0x00, 0x00, 0x00, 0x0b, 0x00, 0x00, 0x00,
  0x94, 0x08, 0x00, 0x00, 0x40, 0x08, 0x00, 0x00, 0xec, 0x07, 0x00, 0x00,
  0xb0, 0x07, 0x00, 0x00, 0x70, 0x07, 0x00, 0x00, 0x88, 0x05, 0x00, 0x00,
  0x10, 0x02, 0x00, 0x00, 0x7c, 0x01, 0x00, 0x00, 0xe0, 0x00, 0x00, 0x00,
  0x60, 0x00, 0x00, 0x00, 0x04, 0x00, 0x00, 0x00, 0xae, 0xf7, 0xff, 0xff,
  0x00, 0x00, 0x00, 0x01, 0x14, 0x00, 0x00, 0x00, 0x1c, 0x00, 0x00, 0x00,
  0x1c, 0x00, 0x00, 0x00, 0x0b, 0x00, 0x00, 0x00, 0x34, 0x00, 0x00, 0x00,
  0x02, 0x00, 0x00, 0x00, 0xff, 0xff, 0xff, 0xff, 0x04, 0x00, 0x00, 0x00,
  0x98, 0xf7, 0xff, 0xff, 0x1b, 0x00, 0x00, 0x00, 0x53, 0x74, 0x61, 0x74,
  0x65, 0x66, 0x75, 0x6c, 0x50, 0x61, 0x72, 0x74, 0x69, 0x74, 0x69, 0x6f,
  0x6e, 0x65, 0x64, 0x43, 0x61, 0x6c, 0x6c, 0x5f, 0x31, 0x3a, 0x30, 0x00,
  0x02, 0x00, 0x00, 0x00, 0x01, 0x00, 0x00, 0x00, 0x04, 0x00, 0x00, 0x00,
  0x06, 0xf8, 0xff, 0xff, 0x00, 0x00, 0x00, 0x01, 0x14, 0x00, 0x00, 0x00,
  0x1c, 0x00, 0x00, 0x00, 0x1c, 0x00, 0x00, 0x00, 0x0a, 0x00, 0x00, 0x00,
  0x58, 0x00, 0x00, 0x00, 0x02, 0x00, 0x00, 0x00, 0xff, 0xff, 0xff, 0xff,
  0x04, 0x00, 0x00, 0x00, 0xf0, 0xf7, 0xff, 0xff, 0x3c, 0x00, 0x00, 0x00,
  0x73, 0x65, 0x71, 0x75, 0x65, 0x6e, 0x74, 0x69, 0x61, 0x6c, 0x5f, 0x31,
  0x2f, 0x64, 0x65, 0x6e, 0x73, 0x65, 0x5f, 0x32, 0x5f, 0x31, 0x2f, 0x4d,
  0x61, 0x74, 0x4d, 0x75, 0x6c, 0x3b, 0x73, 0x65, 0x71, 0x75, 0x65, 0x6e,
  0x74, 0x69, 0x61, 0x6c, 0x5f, 0x31, 0x2f, 0x64, 0x65, 0x6e, 0x73, 0x65,
  0x5f, 0x32, 0x5f, 0x31, 0x2f, 0x42, 0x69, 0x61, 0x73, 0x41, 0x64, 0x64,
  0x00, 0x00, 0x00, 0x00, 0x02, 0x00, 0x00, 0x00, 0x01, 0x00, 0x00, 0x00,
  0x04, 0x00, 0x00, 0x00, 0x82, 0xf8, 0xff, 0xff, 0x00, 0x00, 0x00, 0x01,
  0x14, 0x00, 0x00, 0x00, 0x1c, 0x00, 0x00, 0x00, 0x1c, 0x00, 0x00, 0x00,
  0x09, 0x00, 0x00, 0x00, 0x74, 0x00, 0x00, 0x00, 0x02, 0x00, 0x00, 0x00,
  0xff, 0xff, 0xff, 0xff, 0x20, 0x00, 0x00, 0x00, 0x6c, 0xf8, 0xff, 0xff,
  0x58, 0x00, 0x00, 0x00, 0x73, 0x65, 0x71, 0x75, 0x65, 0x6e, 0x74, 0x69,
  0x61, 0x6c, 0x5f, 0x31, 0x2f, 0x64, 0x65, 0x6e, 0x73, 0x65, 0x5f, 0x31,
  0x5f, 0x32, 0x2f, 0x4d, 0x61, 0x74, 0x4d, 0x75, 0x6c, 0x3b, 0x73, 0x65,
  0x71, 0x75, 0x65, 0x6e, 0x74, 0x69, 0x61, 0x6c, 0x5f, 0x31, 0x2f, 0x64,
  0x65, 0x6e, 0x73, 0x65, 0x5f, 0x31, 0x5f, 0x32, 0x2f, 0x52, 0x65, 0x6c,
  0x75, 0x3b, 0x73, 0x65, 0x71, 0x75, 0x65, 0x6e, 0x74, 0x69, 0x61, 0x6c,
  0x5f, 0x31, 0x2f, 0x64, 0x65, 0x6e, 0x73, 0x65, 0x5f, 0x31, 0x5f, 0x32,
  0x2f, 0x42, 0x69, 0x61, 0x73, 0x41, 0x64, 0x64, 0x00, 0x00, 0x00, 0x00,
  0x02, 0x00, 0x00, 0x00, 0x01, 0x00, 0x00, 0x00, 0x20, 0x00, 0x00, 0x00,
  0x1a, 0xf9, 0xff, 0xff, 0x00, 0x00, 0x00, 0x01, 0x14, 0x00, 0x00, 0x00,
  0x1c, 0x00, 0x00, 0x00, 0x1c, 0x00, 0x00, 0x00, 0x08, 0x00, 0x00, 0x00,
  0x6c, 0x00, 0x00, 0x00, 0x02, 0x00, 0x00, 0x00, 0xff, 0xff, 0xff, 0xff,
  0x40, 0x00, 0x00, 0x00, 0x04, 0xf9, 0xff, 0xff, 0x52, 0x00, 0x00, 0x00,
  0x73, 0x65, 0x71, 0x75, 0x65, 0x6e, 0x74, 0x69, 0x61, 0x6c, 0x5f, 0x31,
  0x2f, 0x64, 0x65, 0x6e, 0x73, 0x65, 0x5f, 0x31, 0x2f, 0x4d, 0x61, 0x74,
  0x4d, 0x75, 0x6c, 0x3b, 0x73, 0x65, 0x71, 0x75, 0x65, 0x6e, 0x74, 0x69,
  0x61, 0x6c, 0x5f, 0x31, 0x2f, 0x64, 0x65, 0x6e, 0x73, 0x65, 0x5f, 0x31,
  0x2f, 0x52, 0x65, 0x6c, 0x75, 0x3b, 0x73, 0x65, 0x71, 0x75, 0x65, 0x6e,
  0x74, 0x69, 0x61, 0x6c, 0x5f, 0x31, 0x2f, 0x64, 0x65, 0x6e, 0x73, 0x65,
  0x5f, 0x31, 0x2f, 0x42, 0x69, 0x61, 0x73, 0x41, 0x64, 0x64, 0x00, 0x00,
  0x02, 0x00, 0x00, 0x00, 0x01, 0x00, 0x00, 0x00, 0x40, 0x00, 0x00, 0x00,
  0xa2, 0xfc, 0xff, 0xff, 0x00, 0x00, 0x00, 0x01, 0x14, 0x00, 0x00, 0x00,
  0x24, 0x03, 0x00, 0x00, 0x07, 0x00, 0x00, 0x00, 0x00, 0x00, 0x00, 0x09,
  0x38, 0x03, 0x00, 0x00, 0x8c, 0xfc, 0xff, 0xff, 0x08, 0x00, 0x00, 0x00,
  0x08, 0x02, 0x00, 0x00, 0x40, 0x00, 0x00, 0x00, 0x00, 0x00, 0x00, 0x00,
  0x00, 0x00, 0x00, 0x00, 0x00, 0x00, 0x00, 0x00, 0x00, 0x00, 0x00, 0x00,
  0x00, 0x00, 0x00, 0x00, 0x00, 0x00, 0x00, 0x00, 0x00, 0x00, 0x00, 0x00,
  0x00, 0x00, 0x00, 0x00, 0x00, 0x00, 0x00, 0x00, 0x00, 0x00, 0x00, 0x00,
  0x00, 0x00, 0x00, 0x00, 0x00, 0x00, 0x00, 0x00, 0x00, 0x00, 0x00, 0x00,
  0x00, 0x00, 0x00, 0x00, 0x00, 0x00, 0x00, 0x00, 0x00, 0x00, 0x00, 0x00,
  0x00, 0x00, 0x00, 0x00, 0x00, 0x00, 0x00, 0x00, 0x00, 0x00, 0x00, 0x00,
  0x00, 0x00, 0x00, 0x00, 0x00, 0x00, 0x00, 0x00, 0x00, 0x00, 0x00, 0x00,
  0x00, 0x00, 0x00, 0x00, 0x00, 0x00, 0x00, 0x00, 0x00, 0x00, 0x00, 0x00,
  0x00, 0x00, 0x00, 0x00, 0x00, 0x00, 0x00, 0x00, 0x00, 0x00, 0x00, 0x00,
  0x00, 0x00, 0x00, 0x00, 0x00, 0x00, 0x00, 0x00, 0x00, 0x00, 0x00, 0x00,
  0x00, 0x00, 0x00, 0x00, 0x00, 0x00, 0x00, 0x00, 0x00, 0x00, 0x00, 0x00,
  0x00, 0x00, 0x00, 0x00, 0x00, 0x00, 0x00, 0x00, 0x00, 0x00, 0x00, 0x00,
  0x00, 0x00, 0x00, 0x00, 0x00, 0x00, 0x00, 0x00, 0x00, 0x00, 0x00, 0x00,
  0x00, 0x00, 0x00, 0x00, 0x00, 0x00, 0x00, 0x00, 0x00, 0x00, 0x00, 0x00,
  0x00, 0x00, 0x00, 0x00, 0x00, 0x00, 0x00, 0x00, 0x00, 0x00, 0x00, 0x00,
  0x00, 0x00, 0x00, 0x00, 0x00, 0x00, 0x00, 0x00, 0x00, 0x00, 0x00, 0x00,
  0x00, 0x00, 0x00, 0x00, 0x00, 0x00, 0x00, 0x00, 0x00, 0x00, 0x00, 0x00,
  0x00, 0x00, 0x00, 0x00, 0x00, 0x00, 0x00, 0x00, 0x00, 0x00, 0x00, 0x00,
  0x00, 0x00, 0x00, 0x00, 0x00, 0x00, 0x00, 0x00, 0x00, 0x00, 0x00, 0x00,
  0x00, 0x00, 0x00, 0x00, 0x00, 0x00, 0x00, 0x00, 0x00, 0x00, 0x00, 0x00,
  0x00, 0x00, 0x00, 0x00, 0x00, 0x00, 0x00, 0x00, 0x00, 0x00, 0x00, 0x00,
  0x00, 0x00, 0x00, 0x00, 0x00, 0x00, 0x00, 0x00, 0x00, 0x00, 0x00, 0x00,
  0x00, 0x00, 0x00, 0x00, 0x00, 0x00, 0x00, 0x00, 0x00, 0x00, 0x00, 0x00,
  0x00, 0x00, 0x00, 0x00, 0x00, 0x00, 0x00, 0x00, 0x00, 0x00, 0x00, 0x00,
  0x00, 0x00, 0x00, 0x00, 0x00, 0x00, 0x00, 0x00, 0x00, 0x00, 0x00, 0x00,
  0x00, 0x00, 0x00, 0x00, 0x00, 0x00, 0x00, 0x00, 0x00, 0x00, 0x00, 0x00,
  0x00, 0x00, 0x00, 0x00, 0x00, 0x00, 0x00, 0x00, 0x00, 0x00, 0x00, 0x00,
  0x00, 0x00, 0x00, 0x00, 0x00, 0x00, 0x00, 0x00, 0x00, 0x00, 0x00, 0x00,
  0x00, 0x00, 0x00, 0x00, 0x00, 0x00, 0x00, 0x00, 0x00, 0x00, 0x00, 0x00,
  0x00, 0x00, 0x00, 0x00, 0x00, 0x00, 0x00, 0x00, 0x00, 0x00, 0x00, 0x00,
  0x00, 0x00, 0x00, 0x00, 0x00, 0x00, 0x00, 0x00, 0x00, 0x00, 0x00, 0x00,
  0x00, 0x00, 0x00, 0x00, 0x00, 0x00, 0x00, 0x00, 0x00, 0x00, 0x00, 0x00,
  0x00, 0x00, 0x00, 0x00, 0x00, 0x00, 0x00, 0x00, 0x00, 0x00, 0x00, 0x00,
  0x00, 0x00, 0x00, 0x00, 0x00, 0x00, 0x00, 0x00, 0x00, 0x00, 0x00, 0x00,
  0x00, 0x00, 0x00, 0x00, 0x00, 0x00, 0x00, 0x00, 0x00, 0x00, 0x00, 0x00,
  0x00, 0x00, 0x00, 0x00, 0x00, 0x00, 0x00, 0x00, 0x00, 0x00, 0x00, 0x00,
  0x00, 0x00, 0x00, 0x00, 0x00, 0x00, 0x00, 0x00, 0x00, 0x00, 0x00, 0x00,
  0x00, 0x00, 0x00, 0x00, 0x00, 0x00, 0x00, 0x00, 0x00, 0x00, 0x00, 0x00,
  0x00, 0x00, 0x00, 0x00, 0x00, 0x00, 0x00, 0x00, 0x00, 0x00, 0x00, 0x00,
  0x00, 0x00, 0x00, 0x00, 0x00, 0x00, 0x00, 0x00, 0x00, 0x00, 0x00, 0x00,
  0x00, 0x00, 0x00, 0x00, 0x00, 0x00, 0x00, 0x00, 0x00, 0x00, 0x00, 0x00,
  0x00, 0x00, 0x00, 0x00, 0x00, 0x00, 0x00, 0x00, 0x00, 0x00, 0x00, 0x00,
  0x00, 0x00, 0x00, 0x00, 0x40, 0x00, 0x00, 0x00, 0x3d, 0x53, 0x22, 0x3b,
  0x7c, 0x0e, 0x13, 0x3b, 0x9d, 0xa8, 0x0d, 0x3b, 0xf8, 0x69, 0x35, 0x3b,
  0xae, 0x8b, 0x3a, 0x3b, 0x54, 0xef, 0x12, 0x3b, 0x94, 0x7f, 0x03, 0x3b,
  0x26, 0xe6, 0x27, 0x3b, 0x17, 0x12, 0x28, 0x3b, 0x4b, 0x96, 0x04, 0x3b,
  0x41, 0x5b, 0x09, 0x3b, 0xe8, 0xba, 0x1d, 0x3b, 0x6c, 0x66, 0x1f, 0x3b,
  0x1f, 0x0a, 0x19, 0x3b, 0xda, 0xf0, 0x14, 0x3b, 0x70, 0xca, 0x12, 0x3b,
  0xb7, 0xc3, 0x31, 0x3b, 0x95, 0xea, 0xf0, 0x3a, 0x79, 0xd6, 0x1b, 0x3b,
  0xf3, 0x17, 0x20, 0x3b, 0xbb, 0xb2, 0x2b, 0x3b, 0xc6, 0x35, 0x2c, 0x3b,
  0xe7, 0xaa, 0x14, 0x3b, 0x51, 0x16, 0x1e, 0x3b, 0xf2, 0xf7, 0x22, 0x3b,
  0x26, 0x2a, 0x0e, 0x3b, 0x9f, 0x80, 0x04, 0x3b, 0xdb, 0x44, 0x30, 0x3b,
  0x32, 0x72, 0x05, 0x3b, 0x37, 0xdd, 0x03, 0x3b, 0x35, 0x07, 0x0f, 0x3b,
  0x09, 0x2f, 0x19, 0x3b, 0x15, 0xdf, 0x0f, 0x3b, 0xbd, 0x22, 0x03, 0x3b,
  0x67, 0x93, 0x16, 0x3b, 0x9e, 0xfc, 0x24, 0x3b, 0x09, 0x01, 0x04, 0x3b,
  0x84, 0x6a, 0xfb, 0x3a, 0x1b, 0x08, 0x0e, 0x3b, 0xdc, 0xc3, 0x2a, 0x3b,
  0x34, 0x1b, 0x14, 0x3b, 0x6a, 0xd4, 0x11, 0x3b, 0xfc, 0x3a, 0x05, 0x3b,
  0x87, 0x09, 0x0e, 0x3b, 0x6c, 0x82, 0x0f, 0x3b, 0x7b, 0x4a, 0x08, 0x3b,
  0x62, 0xba, 0xf8, 0x3a, 0x1b, 0xdf, 0xfb, 0x3a, 0x52, 0x94, 0x00, 0x3b,
  0xb5, 0x48, 0x2c, 0x3b, 0x75, 0x46, 0x27, 0x3b, 0x1c, 0x06, 0x17, 0x3b,
  0x81, 0x75, 0x1f, 0x3b, 0xd9, 0xc3, 0x32, 0x3b, 0xa0, 0xd6, 0x2f, 0x3b,
  0x97, 0x93, 0x1b, 0x3b, 0x2a, 0x48, 0x04, 0x3b, 0x6d, 0x7c, 0x17, 0x3b,
  0x1c, 0x3d, 0x3a, 0x3b, 0x82, 0xf7, 0x24, 0x3b, 0x60, 0xe0, 0xff, 0x3a,
  0x99, 0x98, 0x0f, 0x3b, 0xcb, 0xaf, 0xfe, 0x3a, 0xe6, 0x40, 0x1d, 0x3b,
  0x1b, 0x00, 0x00, 0x00, 0x73, 0x65, 0x71, 0x75, 0x65, 0x6e, 0x74, 0x69,
  0x61, 0x6c, 0x5f, 0x31, 0x2f, 0x64, 0x65, 0x6e, 0x73, 0x65, 0x5f, 0x31,
  0x2f, 0x4d, 0x61, 0x74, 0x4d, 0x75, 0x6c, 0x00, 0x02, 0x00, 0x00, 0x00,
  0x40, 0x00, 0x00, 0x00, 0x1c, 0x00, 0x00, 0x00, 0x00, 0x00, 0x16, 0x00,
  0x1c, 0x00, 0x18, 0x00, 0x17, 0x00, 0x10, 0x00, 0x0c, 0x00, 0x08, 0x00,
  0x00, 0x00, 0x00, 0x00, 0x00, 0x00, 0x07, 0x00, 0x16, 0x00, 0x00, 0x00,
  0x00, 0x00, 0x00, 0x01, 0x20, 0x00, 0x00, 0x00, 0xb4, 0x01, 0x00, 0x00,
  0x06, 0x00, 0x00, 0x00, 0x00, 0x00, 0x00, 0x09, 0xc0, 0x01, 0x00, 0x00,
  0x0c, 0x00, 0x0c, 0x00, 0x00, 0x00, 0x00, 0x00, 0x08, 0x00, 0x04, 0x00,
  0x0c, 0x00, 0x00, 0x00, 0x08, 0x00, 0x00, 0x00, 0x0c, 0x01, 0x00, 0x00,
  0x20, 0x00, 0x00, 0x00, 0x00, 0x00, 0x00, 0x00, 0x00, 0x00, 0x00, 0x00,
  0x00, 0x00, 0x00, 0x00, 0x00, 0x00, 0x00, 0x00, 0x00, 0x00, 0x00, 0x00,
  0x00, 0x00, 0x00, 0x00, 0x00, 0x00, 0x00, 0x00, 0x00, 0x00, 0x00, 0x00,
  0x00, 0x00, 0x00, 0x00, 0x00, 0x00, 0x00, 0x00, 0x00, 0x00, 0x00, 0x00,
  0x00, 0x00, 0x00, 0x00, 0x00, 0x00, 0x00, 0x00, 0x00, 0x00, 0x00, 0x00,
  0x00, 0x00, 0x00, 0x00, 0x00, 0x00, 0x00, 0x00, 0x00, 0x00, 0x00, 0x00,
  0x00, 0x00, 0x00, 0x00, 0x00, 0x00, 0x00, 0x00, 0x00, 0x00, 0x00, 0x00,
  0x00, 0x00, 0x00, 0x00, 0x00, 0x00, 0x00, 0x00, 0x00, 0x00, 0x00, 0x00,
  0x00, 0x00, 0x00, 0x00, 0x00, 0x00, 0x00, 0x00, 0x00, 0x00, 0x00, 0x00,
  0x00, 0x00, 0x00, 0x00, 0x00, 0x00, 0x00, 0x00, 0x00, 0x00, 0x00, 0x00,
  0x00, 0x00, 0x00, 0x00, 0x00, 0x00, 0x00, 0x00, 0x00, 0x00, 0x00, 0x00,
  0x00, 0x00, 0x00, 0x00, 0x00, 0x00, 0x00, 0x00, 0x00, 0x00, 0x00, 0x00,
  0x00, 0x00, 0x00, 0x00, 0x00, 0x00, 0x00, 0x00, 0x00, 0x00, 0x00, 0x00,
  0x00, 0x00, 0x00, 0x00, 0x00, 0x00, 0x00, 0x00, 0x00, 0x00, 0x00, 0x00,
  0x00, 0x00, 0x00, 0x00, 0x00, 0x00, 0x00, 0x00, 0x00, 0x00, 0x00, 0x00,
  0x00, 0x00, 0x00, 0x00, 0x00, 0x00, 0x00, 0x00, 0x00, 0x00, 0x00, 0x00,
  0x00, 0x00, 0x00, 0x00, 0x00, 0x00, 0x00, 0x00, 0x00, 0x00, 0x00, 0x00,
  0x00, 0x00, 0x00, 0x00, 0x00, 0x00, 0x00, 0x00, 0x00, 0x00, 0x00, 0x00,
  0x00, 0x00, 0x00, 0x00, 0x00, 0x00, 0x00, 0x00, 0x00, 0x00, 0x00, 0x00,
  0x00, 0x00, 0x00, 0x00, 0x00, 0x00, 0x00, 0x00, 0x00, 0x00, 0x00, 0x00,
  0x00, 0x00, 0x00, 0x00, 0x00, 0x00, 0x00, 0x00, 0x00, 0x00, 0x00, 0x00,
  0x00, 0x00, 0x00, 0x00, 0x00, 0x00, 0x00, 0x00, 0x00, 0x00, 0x00, 0x00,
  0x20, 0x00, 0x00, 0x00, 0x4f, 0x95, 0x37, 0x3b, 0x43, 0x1f, 0x46, 0x3b,
  0x57, 0x6d, 0x3b, 0x3b, 0xa3, 0xe9, 0x44, 0x3b, 0x7e, 0xce, 0x1d, 0x3b,
  0x37, 0xfb, 0x0c, 0x3b, 0x38, 0x60, 0x1b, 0x3b, 0x07, 0x12, 0x15, 0x3b,
  0x8e, 0x40, 0x29, 0x3b, 0xb3, 0x0b, 0x13, 0x3b, 0xb8, 0xc0, 0x7a, 0x3b,
  0xb1, 0x84, 0x9b, 0x3b, 0xa6, 0x0e, 0x05, 0x3b, 0xe3, 0x14, 0x97, 0x3b,
  0xe8, 0x84, 0x21, 0x3b, 0xa3, 0xa9, 0x66, 0x3b, 0x72, 0x18, 0x5f, 0x3b,
  0x84, 0x0f, 0x4c, 0x3b, 0x97, 0x3e, 0x8f, 0x3b, 0x35, 0x39, 0x22, 0x3b,
  0x8e, 0xec, 0x58, 0x3b, 0x0a, 0x47, 0x10, 0x3b, 0x14, 0x03, 0x68, 0x3b,
  0xeb, 0x5a, 0x0e, 0x3b, 0xb5, 0xfe, 0x90, 0x3b, 0xd0, 0xb4, 0x9c, 0x3b,
  0x73, 0xcd, 0x2d, 0x3b, 0x0a, 0x76, 0x51, 0x3b, 0xa4, 0x4b, 0x2d, 0x3b,
  0x0a, 0x89, 0x22, 0x3b, 0x94, 0x89, 0x5b, 0x3b, 0x4a, 0x71, 0x02, 0x3b,
  0x11, 0x00, 0x00, 0x00, 0x74, 0x66, 0x6c, 0x2e, 0x70, 0x73, 0x65, 0x75,
  0x64, 0x6f, 0x5f, 0x71, 0x63, 0x6f, 0x6e, 0x73, 0x74, 0x00, 0x00, 0x00,
  0x02, 0x00, 0x00, 0x00, 0x20, 0x00, 0x00, 0x00, 0x40, 0x00, 0x00, 0x00,
  0x52, 0xff, 0xff, 0xff, 0x00, 0x00, 0x00, 0x01, 0x10, 0x00, 0x00, 0x00,
  0x10, 0x00, 0x00, 0x00, 0x05, 0x00, 0x00, 0x00, 0x1c, 0x00, 0x00, 0x00,
  0xdc, 0xfe, 0xff, 0xff, 0x0f, 0x00, 0x00, 0x00, 0x61, 0x72, 0x69, 0x74,
  0x68, 0x2e, 0x63, 0x6f, 0x6e, 0x73, 0x74, 0x61, 0x6e, 0x74, 0x33, 0x00,
  0x02, 0x00, 0x00, 0x00, 0x04, 0x00, 0x00, 0x00, 0x20, 0x00, 0x00, 0x00,
  0x8e, 0xff, 0xff, 0xff, 0x00, 0x00, 0x00, 0x01, 0x10, 0x00, 0x00, 0x00,
  0x10, 0x00, 0x00, 0x00, 0x04, 0x00, 0x00, 0x00, 0x1c, 0x00, 0x00, 0x00,
  0x18, 0xff, 0xff, 0xff, 0x0f, 0x00, 0x00, 0x00, 0x61, 0x72, 0x69, 0x74,
  0x68, 0x2e, 0x63, 0x6f, 0x6e, 0x73, 0x74, 0x61, 0x6e, 0x74, 0x32, 0x00,
  0x01, 0x00, 0x00, 0x00, 0x04, 0x00, 0x00, 0x00, 0xc6, 0xff, 0xff, 0xff,
  0x00, 0x00, 0x00, 0x01, 0x10, 0x00, 0x00, 0x00, 0x10, 0x00, 0x00, 0x00,
  0x03, 0x00, 0x00, 0x00, 0x1c, 0x00, 0x00, 0x00, 0x50, 0xff, 0xff, 0xff,
  0x0f, 0x00, 0x00, 0x00, 0x61, 0x72, 0x69, 0x74, 0x68, 0x2e, 0x63, 0x6f,
  0x6e, 0x73, 0x74, 0x61, 0x6e, 0x74, 0x31, 0x00, 0x01, 0x00, 0x00, 0x00,
  0x20, 0x00, 0x00, 0x00, 0x00, 0x00, 0x16, 0x00, 0x18, 0x00, 0x14, 0x00,
  0x00, 0x00, 0x10, 0x00, 0x0c, 0x00, 0x08, 0x00, 0x00, 0x00, 0x00, 0x00,
  0x00, 0x00, 0x07, 0x00, 0x16, 0x00, 0x00, 0x00, 0x00, 0x00, 0x00, 0x01,
  0x10, 0x00, 0x00, 0x00, 0x10, 0x00, 0x00, 0x00, 0x02, 0x00, 0x00, 0x00,
  0x1c, 0x00, 0x00, 0x00, 0xa0, 0xff, 0xff, 0xff, 0x0e, 0x00, 0x00, 0x00,
  0x61, 0x72, 0x69, 0x74, 0x68, 0x2e, 0x63, 0x6f, 0x6e, 0x73, 0x74, 0x61,
  0x6e, 0x74, 0x00, 0x00, 0x01, 0x00, 0x00, 0x00, 0x40, 0x00, 0x00, 0x00,
  0x00, 0x00, 0x16, 0x00, 0x1c, 0x00, 0x18, 0x00, 0x00, 0x00, 0x14, 0x00,
  0x10, 0x00, 0x0c, 0x00, 0x00, 0x00, 0x00, 0x00, 0x08, 0x00, 0x07, 0x00,
  0x16, 0x00, 0x00, 0x00, 0x00, 0x00, 0x00, 0x01, 0x14, 0x00, 0x00, 0x00,
  0x20, 0x00, 0x00, 0x00, 0x20, 0x00, 0x00, 0x00, 0x01, 0x00, 0x00, 0x00,
  0x3c, 0x00, 0x00, 0x00, 0x02, 0x00, 0x00, 0x00, 0xff, 0xff, 0xff, 0xff,
  0x1c, 0x00, 0x00, 0x00, 0x04, 0x00, 0x04, 0x00, 0x04, 0x00, 0x00, 0x00,
  0x1e, 0x00, 0x00, 0x00, 0x73, 0x65, 0x72, 0x76, 0x69, 0x6e, 0x67, 0x5f,
  0x64, 0x65, 0x66, 0x61, 0x75, 0x6c, 0x74, 0x5f, 0x6b, 0x65, 0x72, 0x61,
  0x73, 0x5f, 0x74, 0x65, 0x6e, 0x73, 0x6f, 0x72, 0x3a, 0x30, 0x00, 0x00,
  0x02, 0x00, 0x00, 0x00, 0x01, 0x00, 0x00, 0x00, 0x1c, 0x00, 0x00, 0x00,
  0x02, 0x00, 0x00, 0x00, 0x2c, 0x00, 0x00, 0x00, 0x10, 0x00, 0x00, 0x00,
  0x0c, 0x00, 0x0c, 0x00, 0x0b, 0x00, 0x00, 0x00, 0x00, 0x00, 0x04, 0x00,
  0x0c, 0x00, 0x00, 0x00, 0x19, 0x00, 0x00, 0x00, 0x00, 0x00, 0x00, 0x19,
  0x0c, 0x00, 0x10, 0x00, 0x0f, 0x00, 0x00, 0x00, 0x08, 0x00, 0x04, 0x00,
  0x0c, 0x00, 0x00, 0x00, 0x09, 0x00, 0x00, 0x00, 0x0c, 0x00, 0x00, 0x00,
  0x00, 0x00, 0x00, 0x09
};

#endif // SIGNSPEAK_MLP_1FINGER_MODEL_H